<unk>	0
<s>	0
</s>	0
▁t	-0
he	-1
▁a	-2
in	-3
▁w	-4
▁s	-5
▁the	-6
re	-7
▁o	-8
▁h	-9
nd	-10
ou	-11
er	-12
▁b	-13
at	-14
ed	-15
is	-16
it	-17
▁m	-18
▁f	-19
▁c	-20
ing	-21
en	-22
on	-23
▁to	-24
▁and	-25
▁he	-26
▁of	-27
or	-28
▁d	-29
▁th	-30
as	-31
an	-32
ll	-33
▁p	-34
es	-35
ar	-36
▁in	-37
▁l	-38
▁n	-39
▁"	-40
▁ha	-41
om	-42
▁I	-43
le	-44
▁be	-45
ot	-46
▁y	-47
im	-48
▁g	-49
ut	-50
ow	-51
id	-52
ly	-53
▁you	-54
▁e	-55
▁wh	-56
▁that	-57
ve	-58
ic	-59
▁was	-60
se	-61
st	-62
▁his	-63
ld	-64
ent	-65
▁re	-66
▁on	-67
ce	-68
ith	-69
gh	-70
▁it	-71
▁with	-72
▁sa	-73
ion	-74
et	-75
▁u	-76
ver	-77
▁not	-78
▁as	-79
al	-80
▁for	-81
▁her	-82
ad	-83
▁had	-84
ir	-85
▁him	-86
ay	-87
ur	-88
▁at	-89
▁A	-90
▁st	-91
ch	-92
ro	-93
ri	-94
▁T	-95
ght	-96
▁M	-97
▁an	-98
ere	-99
her	-100
ould	-101
ill	-102
▁me	-103
."	-104
ter	-105
am	-106
oo	-107
▁is	-108
ct	-109
▁se	-110
if	-111
ain	-112
ke	-113
▁H	-114
ess	-115
▁sh	-116
▁she	-117
,"	-118
▁said	-119
--	-120
▁S	-121
▁so	-122
▁de	-123
▁my	-124
▁su	-125
▁have	-126
all	-127
▁but	-128
ore	-129
▁B	-130
▁k	-131
▁The	-132
ra	-133
ich	-134
▁all	-135
pe	-136
▁con	-137
il	-138
ome	-139
rom	-140
th	-141
and	-142
qu	-143
os	-144
ant	-145
▁P	-146
ck	-147
▁C	-148
▁which	-149
ard	-150
ell	-151
us	-152
▁by	-153
ge	-154
lf	-155
▁do	-156
▁from	-157
ble	-158
▁who	-159
ul	-160
▁ex	-161
?"	-162
ous	-163
ight	-164
res	-165
▁r	-166
pp	-167
▁this	-168
▁up	-169
▁ne	-170
▁whe	-171
very	-172
..	-173
▁were	-174
el	-175
▁kn	-176
out	-177
▁W	-178
ov	-179
red	-180
▁D	-181
est	-182
▁v	-183
▁al	-184
▁or	-185
ust	-186
em	-187
▁He	-188
▁li	-189
▁man	-190
ist	-191
self	-192
ation	-193
▁ch	-194
ak	-195
ers	-196
▁one	-197
nt	-198
▁int	-199
one	-200
▁would	-201
ate	-202
ast	-203
ook	-204
art	-205
ol	-206
▁no	-207
ap	-208
▁L	-209
▁ab	-210
ind	-211
▁been	-212
▁your	-213
ie	-214
▁com	-215
itt	-216
▁out	-217
!"	-218
▁what	-219
▁le	-220
▁we	-221
▁they	-222
ound	-223
▁are	-224
▁F	-225
ood	-226
ong	-227
ort	-228
our	-229
▁will	-230
au	-231
▁them	-232
▁wor	-233
ost	-234
▁there	-235
▁R	-236
▁thou	-237
um	-238
ven	-239
▁know	-240
ame	-241
▁go	-242
▁ag	-243
ive	-244
▁un	-245
▁j	-246
ag	-247
ig	-248
▁qu	-249
ity	-250
hed	-251
▁when	-252
un	-253
hing	-254
▁fa	-255
▁look	-256
▁if	-257
ered	-258
▁am	-259
▁N	-260
la	-261
▁could	-262
▁af	-263
▁did	-264
od	-265
▁G	-266
hat	-267
▁And	-268
▁more	-269
▁fe	-270
▁ar	-271
ther	-272
▁tim	-273
own	-274
ry	-275
nder	-276
able	-277
reat	-278
way	-279
▁any	-280
▁their	-281
other	-282
urn	-283
▁sp	-284
▁pro	-285
pt	-286
ure	-287
ake	-288
▁into	-289
▁But	-290
ance	-291
▁ro	-292
▁too	-293
▁now	-294
ress	-295
▁some	-296
ount	-297
cc	-298
▁hand	-299
ect	-300
ass	-301
▁see	-302
ite	-303
▁about	-304
▁im	-305
ide	-306
ose	-307
ep	-308
ked	-309
▁Mr	-310
▁very	-311
▁E	-312
▁say	-313
▁can	-314
▁only	-315
ence	-316
are	-317
ather	-318
fore	-319
▁then	-320
▁like	-321
ine	-322
ink	-323
ice	-324
op	-325
▁again	-326
ond	-327
▁dis	-328
▁br	-329
▁ad	-330
ady	-331
ci	-332
end	-333
You	-334
▁O	-335
ha	-336
▁tw	-337
▁time	-338
▁off	-339
ally	-340
ove	-341
ved	-342
pl	-343
ng	-344
ish	-345
ving	-346
▁us	-347
▁himself	-348
ac	-349
ary	-350
▁should	-351
▁than	-352
ittle	-353
ife	-354
▁has	-355
▁other	-356
ert	-357
▁over	-358
ars	-359
wn	-360
ile	-361
▁pr	-362
▁little	-363
▁mad	-364
▁V	-365
▁before	-366
▁every	-367
ness	-368
▁It	-369
ment	-370
ough	-371
▁how	-372
ru	-373
▁sm	-374
ried	-375
ied	-376
▁en	-377
ack	-378
ran	-379
▁day	-380
▁rem	-381
age	-382
▁under	-383
ons	-384
ated	-385
▁per	-386
▁thought	-387
▁must	-388
ud	-389
▁beg	-390
▁She	-391
ies	-392
▁K	-393
▁old	-394
▁after	-395
ful	-396
▁ey	-397
ree	-398
▁po	-399
ward	-400
▁cl	-401
▁even	-402
▁come	-403
▁pe	-404
ince	-405
ious	-406
ire	-407
▁pre	-408
▁down	-409
ff	-410
per	-411
▁good	-412
ced	-413
▁cont	-414
ull	-415
bl	-416
▁fir	-417
uch	-418
▁spe	-419
▁made	-420
▁such	-421
ne	-422
iss	-423
oy	-424
me	-425
ions	-426
▁think	-427
▁gl	-428
▁great	-429
si	-430
▁J	-431
▁long	-432
ings	-433
▁went	-434
▁two	-435
ft	-436
▁bl	-437
▁let	-438
▁fri	-439
ave	-440
▁bec	-441
▁fl	-442
▁seem	-443
▁never	-444
▁gr	-445
▁part	-446
▁eyes	-447
▁young	-448
ick	-449
ier	-450
hen	-451
▁bet	-452
▁count	-453
▁own	-454
▁much	-455
ened	-456
▁upon	-457
ev	-458
omet	-459
ang	-460
thing	-461
▁res	-462
na	-463
ath	-464
ign	-465
▁des	-466
▁first	-467
▁turn	-468
▁co	-469
ild	-470
ord	-471
ach	-472
▁without	-473
▁our	-474
te	-475
ily	-476
itch	-477
▁pl	-478
ise	-479
▁sc	-480
ab	-481
▁imp	-482
▁might	-483
▁comp	-484
▁thr	-485
ning	-486
▁word	-487
▁came	-488
...	-489
int	-490
▁somet	-491
ouse	-492
▁still	-493
▁pass	-494
air	-495
aking	-496
▁away	-497
pect	-498
▁here	-499
▁way	-500
▁cons	-501
▁just	-502
▁though	-503
▁ent	-504
▁Th	-505
elt	-506
▁back	-507
▁att	-508
▁face	-509
▁head	-510
ren	-511
ber	-512
▁life	-513
man	-514
▁ri	-515
cl	-516
rew	-517
▁tell	-518
▁pos	-519
▁bel	-520
▁ret	-521
▁these	-522
▁acc	-523
▁op	-524
▁friend	-525
▁ind	-526
▁happ	-527
▁may	-528
▁nothing	-529
▁well	-530
▁where	-531
▁same	-532
▁shall	-533
▁ap	-534
▁being	-535
▁mar	-536
▁don	-537
▁ser	-538
oll	-539
▁room	-540
▁pla	-541
▁feel	-542
▁ob	-543
▁looked	-544
ause	-545
ue	-546
▁want	-547
we	-548
ip	-549
Yes	-550
▁last	-551
oment	-552
▁moment	-553
▁'	-554
▁ra	-555
alk	-556
av	-557
▁pres	-558
▁tr	-559
▁father	-560
▁You	-561
▁wom	-562
ase	-563
ty	-564
ces	-565
▁most	-566
den	-567
iff	-568
less	-569
▁those	-570
▁house	-571
ale	-572
ways	-573
▁once	-574
ors	-575
ared	-576
▁car	-577
▁Pr	-578
▁ho	-579
▁get	-580
▁felt	-581
▁make	-582
▁its	-583
▁ye	-584
▁ke	-585
ew	-586
ock	-587
▁men	-588
▁saw	-589
▁asked	-590
ia	-591
▁arm	-592
▁wr	-593
▁seemed	-594
▁something	-595
▁rec	-596
▁te	-597
iv	-598
▁always	-599
▁comm	-600
iz	-601
▁love	-602
ting	-603
▁rep	-604
▁take	-605
▁put	-606
▁left	-607
ner	-608
▁In	-609
led	-610
▁took	-611
▁heart	-612
raw	-613
▁began	-614
▁An	-615
here	-616
ory	-617
ition	-618
cess	-619
▁door	-620
▁hands	-621
▁underst	-622
hy	-623
▁another	-624
▁app	-625
▁exp	-626
fort	-627
sw	-628
▁inst	-629
hap	-630
owed	-631
▁mean	-632
▁while	-633
▁going	-634
▁pers	-635
ently	-636
lex	-637
▁heard	-638
▁ple	-639
▁call	-640
ople	-641
med	-642
▁child	-643
▁St	-644
▁cried	-645
ark	-646
▁answ	-647
ertain	-648
▁new	-649
▁right	-650
ret	-651
row	-652
▁ord	-653
ished	-654
▁mind	-655
▁through	-656
van	-657
▁belie	-658
What	-659
▁end	-660
▁three	-661
wards	-662
▁whom	-663
ained	-664
▁bo	-665
ater	-666
▁people	-667
ener	-668
ict	-669
og	-670
agn	-671
iness	-672
ject	-673
▁appe	-674
▁yet	-675
▁dear	-676
▁dist	-677
hes	-678
▁told	-679
atter	-680
▁quite	-681
▁conf	-682
entle	-683
▁knew	-684
rt	-685
▁vo	-686
▁sec	-687
dden	-688
▁wa	-689
▁cour	-690
most	-691
▁ev	-692
▁reg	-693
▁return	-694
▁em	-695
▁sl	-696
▁woman	-697
oth	-698
ult	-699
And	-700
▁Mrs	-701
▁fell	-702
▁sudden	-703
▁del	-704
ought	-705
igh	-706
▁sat	-707
ations	-708
▁found	-709
ction	-710
▁place	-711
▁add	-712
aw	-713
ky	-714
▁give	-715
tain	-716
▁ac	-717
ierre	-718
ian	-719
ves	-720
▁looking	-721
▁Alex	-722
arm	-723
▁gentle	-724
▁round	-725
▁Pierre	-726
▁aff	-727
▁night	-728
▁talk	-729
pped	-730
ody	-731
▁myself	-732
cy	-733
ched	-734
▁whole	-735
ged	-736
▁supp	-737
▁mor	-738
▁They	-739
ens	-740
▁inf	-741
ense	-742
▁set	-743
vers	-744
▁rel	-745
be	-746
▁ass	-747
▁herself	-748
az	-749
agnan	-750
▁having	-751
aken	-752
▁ever	-753
plied	-754
▁light	-755
▁gu	-756
▁understand	-757
aught	-758
▁ref	-759
▁because	-760
▁seen	-761
▁quest	-762
▁sil	-763
▁There	-764
ully	-765
sible	-766
Art	-767
oney	-768
ks	-769
▁words	-770
Artagnan	-771
ix	-772
▁done	-773
▁What	-774
▁mother	-775
Well	-776
ley	-777
▁fam	-778
But	-779
▁replied	-780
amp	-781
ating	-782
arly	-783
cept	-784
▁Miss	-785
▁thing	-786
▁soon	-787
bt	-788
ined	-789
the	-790
Oh	-791
ised	-792
▁At	-793
▁Ivan	-794
▁turned	-795
▁voice	-796
▁sur	-797
▁hor	-798
▁vis	-799
haps	-800
▁better	-801
ited	-802
▁wife	-803
up	-804
ering	-805
rov	-806
ever	-807
oke	-808
▁God	-809
get	-810
▁gener	-811
▁cap	-812
▁inter	-813
▁mon	-814
▁express	-815
No	-816
aint	-817
▁hus	-818
▁diff	-819
les	-820
▁Prince	-821
▁against	-822
▁world	-823
▁cle	-824
rench	-825
▁got	-826
▁read	-827
ired	-828
▁Lev	-829
▁many	-830
▁money	-831
▁almost	-832
ik	-833
bb	-834
The	-835
▁This	-836
ille	-837
▁ter	-838
▁letter	-839
▁side	-840
ss	-841
▁anything	-842
▁pleas	-843
▁everything	-844
ute	-845
▁occ	-846
▁suddenly	-847
▁foll	-848
sel	-849
▁aw	-850
▁find	-851
▁present	-852
It	-853
▁contin	-854
ual	-855
und	-856
▁brother	-857
cei	-858
▁exc	-859
▁sub	-860
▁sim	-861
▁speak	-862
men	-863
rist	-864
▁certain	-865
▁gave	-866
▁Levin	-867
▁gra	-868
▁ins	-869
ister	-870
▁gi	-871
▁poor	-872
ither	-873
▁When	-874
oved	-875
ention	-876
orm	-877
▁rest	-878
▁cor	-879
▁hour	-880
▁cr	-881
▁French	-882
ately	-883
oun	-884
aring	-885
▁home	-886
▁kind	-887
▁lau	-888
▁pur	-889
▁half	-890
▁che	-891
▁el	-892
▁serv	-893
its	-894
riage	-895
▁min	-896
▁stran	-897
▁boy	-898
▁act	-899
▁since	-900
▁wind	-901
ail	-902
atch	-903
....	-904
ling	-905
day	-906
mer	-907
thos	-908
▁remem	-909
ued	-910
▁dou	-911
▁str	-912
not	-913
▁dec	-914
▁believe	-915
▁As	-916
▁sent	-917
ial	-918
ical	-919
ween	-920
▁why	-921
fully	-922
▁sw	-923
osed	-924
ured	-925
▁point	-926
oud	-927
arn	-928
▁inc	-929
▁Al	-930
ety	-931
ott	-932
ows	-933
▁hon	-934
▁ask	-935
▁That	-936
▁inde	-937
▁things	-938
▁person	-939
▁between	-940
▁sir	-941
▁work	-942
band	-943
aster	-944
▁Be	-945
owing	-946
▁Ch	-947
ank	-948
de	-949
▁offic	-950
▁care	-951
gg	-952
▁morning	-953
▁His	-954
▁both	-955
▁alone	-956
▁Ar	-957
▁Mary	-958
▁does	-959
▁years	-960
ross	-961
▁smile	-962
ple	-963
▁husband	-964
▁On	-965
▁Mad	-966
ief	-967
▁cur	-968
ents	-969
▁hum	-970
▁feeling	-971
▁question	-972
ey	-973
▁open	-974
ower	-975
▁name	-976
▁bre	-977
erest	-978
▁hel	-979
▁inv	-980
▁Rus	-981
att	-982
ho	-983
--"	-984
▁dre	-985
▁taken	-986
that	-987
▁course	-988
icul	-989
so	-990
irl	-991
▁stre	-992
ery	-993
▁ide	-994
▁towards	-995
ovitch	-996
▁brought	-997
▁No	-998
▁passed	-999
▁stand	-1000
▁rather	-1001
iting	-1002
▁days	-1003
ressed	-1004
ps	-1005
ready	-1006
▁list	-1007
ask	-1008
▁es	-1009
ovna	-1010
▁perhaps	-1011
asha	-1012
rying	-1013
bert	-1014
▁cond	-1015
ool	-1016
▁girl	-1017
▁stood	-1018
aid	-1019
ason	-1020
▁dr	-1021
incess	-1022
▁yes	-1023
▁already	-1024
▁sort	-1025
ying	-1026
▁bed	-1027
▁Do	-1028
▁If	-1029
▁ill	-1030
rel	-1031
▁expect	-1032
cious	-1033
▁hard	-1034
▁sign	-1035
▁son	-1036
▁smil	-1037
▁consid	-1038
ace	-1039
ably	-1040
▁suff	-1041
▁called	-1042
▁matter	-1043
ger	-1044
▁far	-1045
uck	-1046
ides	-1047
▁keep	-1048
ceived	-1049
ole	-1050
▁nat	-1051
▁disc	-1052
▁tre	-1053
▁char	-1054
▁table	-1055
▁interest	-1056
▁each	-1057
▁fo	-1058
uring	-1059
ison	-1060
▁evening	-1061
▁sle	-1062
ousand	-1063
xt	-1064
▁Nat	-1065
used	-1066
▁fr	-1067
▁Mon	-1068
alked	-1069
▁leave	-1070
osha	-1071
▁perf	-1072
▁ir	-1073
lyosha	-1074
▁thousand	-1075
ants	-1076
▁Mor	-1077
▁sure	-1078
▁Em	-1079
▁fact	-1080
ok	-1081
▁doubt	-1082
▁mis	-1083
▁fore	-1084
▁friends	-1085
▁family	-1086
▁dep	-1087
▁answered	-1088
▁Alyosha	-1089
body	-1090
He	-1091
▁death	-1092
▁bro	-1093
▁ext	-1094
▁bus	-1095
ene	-1096
▁need	-1097
,--	-1098
aut	-1099
▁gone	-1100
▁sou	-1101
▁hear	-1102
but	-1103
▁Then	-1104
▁We	-1105
▁adm	-1106
▁tru	-1107
▁det	-1108
▁Natasha	-1109
▁few	-1110
▁ut	-1111
▁sister	-1112
▁dire	-1113
▁Alexand	-1114
▁best	-1115
dg	-1116
▁four	-1117
cing	-1118
ures	-1119
▁step	-1120
▁really	-1121
▁lady	-1122
▁among	-1123
▁So	-1124
▁Russi	-1125
▁help	-1126
▁dro	-1127
▁enough	-1128
airs	-1129
ph	-1130
ern	-1131
ont	-1132
▁yourself	-1133
▁din	-1134
▁Andrew	-1135
▁prom	-1136
▁indeed	-1137
selves	-1138
▁whose	-1139
▁forg	-1140
▁bri	-1141
▁compan	-1142
ony	-1143
▁hope	-1144
▁Crist	-1145
▁least	-1146
br	-1147
▁adv	-1148
▁lad	-1149
▁meet	-1150
▁Monte	-1151
▁Cristo	-1152
itting	-1153
aj	-1154
uth	-1155
lack	-1156
▁convers	-1157
▁eff	-1158
pr	-1159
▁tra	-1160
▁dev	-1161
▁prop	-1162
▁Pet	-1163
▁general	-1164
▁whether	-1165
▁Ly	-1166
▁draw	-1167
▁till	-1168
▁ran	-1169
▁order	-1170
inal	-1171
ser	-1172
▁Ville	-1173
▁small	-1174
undred	-1175
▁coming	-1176
ached	-1177
ER	-1178
oe	-1179
▁unc	-1180
▁cannot	-1181
▁Anna	-1182
hind	-1183
▁wish	-1184
▁air	-1185
▁Rost	-1186
▁also	-1187
▁Villefort	-1188
▁less	-1189
othe	-1190
▁hundred	-1191
aughter	-1192
▁opp	-1193
▁won	-1194
ash	-1195
ided	-1196
That	-1197
▁dark	-1198
▁How	-1199
▁ste	-1200
oc	-1201
▁stru	-1202
▁else	-1203
cri	-1204
▁evid	-1205
▁returned	-1206
fa	-1207
ually	-1208
rawley	-1209
cted	-1210
▁bes	-1211
orrow	-1212
▁Mos	-1213
▁mur	-1214
▁hold	-1215
▁given	-1216
▁Crawley	-1217
▁repe	-1218
▁play	-1219
enty	-1220
ushed	-1221
▁times	-1222
imes	-1223
▁arri	-1224
▁mist	-1225
▁use	-1226
▁full	-1227
▁strange	-1228
▁For	-1229
▁begin	-1230
▁whale	-1231
Why	-1232
▁def	-1233
ka	-1234
ible	-1235
.'	-1236
▁laugh	-1237
▁lay	-1238
▁reason	-1239
▁sound	-1240
▁run	-1241
▁behind	-1242
▁Her	-1243
idd	-1244
arth	-1245
room	-1246
▁fellow	-1247
vel	-1248
▁pret	-1249
▁continued	-1250
▁conv	-1251
ten	-1252
▁land	-1253
use	-1254
▁met	-1255
irt	-1256
▁fall	-1257
▁lar	-1258
▁Mosc	-1259
▁abs	-1260
bor	-1261
dgate	-1262
ude	-1263
ments	-1264
ieur	-1265
illed	-1266
▁high	-1267
gether	-1268
▁Lydgate	-1269
▁together	-1270
▁visit	-1271
HA	-1272
ung	-1273
▁added	-1274
▁happy	-1275
▁Moscow	-1276
▁children	-1277
onsky	-1278
▁soul	-1279
ught	-1280
▁horse	-1281
▁carriage	-1282
▁taking	-1283
▁next	-1284
▁instant	-1285
▁black	-1286
▁Alexandrov	-1287
▁ru	-1288
▁true	-1289
▁used	-1290
ted	-1291
unt	-1292
▁cir	-1293
onsieur	-1294
▁position	-1295
aptain	-1296
▁white	-1297
iously	-1298
▁gentleman	-1299
▁Madame	-1300
▁conversation	-1301
▁command	-1302
▁All	-1303
▁mer	-1304
ctor	-1305
Ah	-1306
▁saying	-1307
ets	-1308
▁cal	-1309
▁expl	-1310
▁Rostov	-1311
▁second	-1312
▁Dor	-1313
▁sold	-1314
ility	-1315
▁often	-1316
you	-1317
TER	-1318
▁ang	-1319
othea	-1320
▁others	-1321
▁hur	-1322
▁expression	-1323
ans	-1324
mit	-1325
▁obser	-1326
▁respect	-1327
ances	-1328
▁quick	-1329
▁ready	-1330
▁kept	-1331
▁CHA	-1332
▁answer	-1333
ceed	-1334
▁Athos	-1335
▁pap	-1336
▁entered	-1337
ific	-1338
▁near	-1339
▁sing	-1340
▁Dorothea	-1341
▁fin	-1342
PTER	-1343
▁CHAPTER	-1344
une	-1345
▁Am	-1346
itya	-1347
li	-1348
▁master	-1349
▁differe	-1350
▁fur	-1351
ards	-1352
lars	-1353
ized	-1354
ctly	-1355
▁pol	-1356
▁tri	-1357
▁acqu	-1358
▁Captain	-1359
ngl	-1360
laim	-1361
empt	-1362
▁remember	-1363
anglars	-1364
▁swe	-1365
▁Y	-1366
iew	-1367
elia	-1368
▁wanted	-1369
du	-1370
▁Engl	-1371
▁fort	-1372
uz	-1373
tered	-1374
▁Mitya	-1375
▁Danglars	-1376
▁strong	-1377
nik	-1378
▁tou	-1379
▁live	-1380
▁lost	-1381
,'	-1382
▁idea	-1383
▁along	-1384
▁real	-1385
▁eas	-1386
▁ten	-1387
ade	-1388
sh	-1389
iment	-1390
▁Lord	-1391
How	-1392
cul	-1393
▁imag	-1394
▁fear	-1395
ingly	-1396
▁shout	-1397
arp	-1398
ili	-1399
▁appeared	-1400
▁beaut	-1401
▁nor	-1402
▁inqu	-1403
ee	-1404
bles	-1405
▁art	-1406
ush	-1407
nikov	-1408
▁dead	-1409
eor	-1410
▁case	-1411
amed	-1412
▁possible	-1413
▁hast	-1414
▁making	-1415
rig	-1416
▁opened	-1417
▁sto	-1418
overed	-1419
▁power	-1420
to	-1421
▁surpr	-1422
▁delight	-1423
▁appro	-1424
▁thir	-1425
ection	-1426
▁dinner	-1427
sp	-1428
ended	-1429
▁deep	-1430
ronsky	-1431
▁became	-1432
▁seeing	-1433
▁Geor	-1434
▁business	-1435
ug	-1436
▁large	-1437
▁bar	-1438
▁Mil	-1439
▁Vronsky	-1440
▁town	-1441
medi	-1442
oss	-1443
▁walk	-1444
▁short	-1445
▁leg	-1446
ively	-1447
fter	-1448
ening	-1449
▁prison	-1450
▁wo	-1451
itty	-1452
▁circ	-1453
▁Count	-1454
▁terri	-1455
▁particul	-1456
arted	-1457
▁appear	-1458
▁however	-1459
▁secret	-1460
cer	-1461
iet	-1462
ising	-1463
▁glad	-1464
▁sum	-1465
▁fire	-1466
▁themselves	-1467
▁lo	-1468
▁spir	-1469
▁bring	-1470
▁contr	-1471
peri	-1472
▁pri	-1473
bed	-1474
▁Sir	-1475
▁subject	-1476
▁desp	-1477
ounded	-1478
▁une	-1479
▁bad	-1480
▁bur	-1481
▁hair	-1482
▁Will	-1483
▁fan	-1484
▁pain	-1485
▁watch	-1486
▁foot	-1487
▁account	-1488
ange	-1489
▁known	-1490
▁To	-1491
▁prev	-1492
ina	-1493
aven	-1494
orses	-1495
▁five	-1496
▁tried	-1497
ec	-1498
00	-1499
▁sleep	-1500
▁during	-1501
▁means	-1502
▁turning	-1503
▁become	-1504
▁stud	-1505
▁Por	-1506
▁dress	-1507
▁joy	-1508
▁army	-1509
▁move	-1510
▁Par	-1511
▁sn	-1512
▁held	-1513
amond	-1514
▁immedi	-1515
▁window	-1516
ror	-1517
otion	-1518
▁happened	-1519
▁Now	-1520
▁officer	-1521
▁thinking	-1522
▁dri	-1523
ime	-1524
▁close	-1525
▁Kitty	-1526
▁comple	-1527
▁received	-1528
der	-1529
als	-1530
aving	-1531
▁country	-1532
ken	-1533
askol	-1534
▁object	-1535
askolnikov	-1536
▁Re	-1537
ased	-1538
▁perfect	-1539
▁prof	-1540
▁Raskolnikov	-1541
▁ship	-1542
▁hat	-1543
▁doing	-1544
▁ought	-1545
▁horses	-1546
▁remained	-1547
▁low	-1548
▁cold	-1549
▁stay	-1550
▁women	-1551
▁unt	-1552
ident	-1553
▁tone	-1554
▁followed	-1555
▁month	-1556
▁sitting	-1557
bly	-1558
che	-1559
▁arms	-1560
▁Albert	-1561
▁talking	-1562
▁Why	-1563
▁water	-1564
▁worth	-1565
▁red	-1566
itted	-1567
▁prep	-1568
▁Morrel	-1569
▁daughter	-1570
▁...	-1571
▁Alexey	-1572
omp	-1573
▁sun	-1574
▁form	-1575
▁kiss	-1576
ply	-1577
oor	-1578
▁spoke	-1579
▁pay	-1580
▁tears	-1581
▁law	-1582
of	-1583
..."	-1584
raid	-1585
▁Joe	-1586
▁fine	-1587
alent	-1588
▁cross	-1589
▁soci	-1590
by	-1591
▁My	-1592
▁six	-1593
cell	-1594
▁sight	-1595
▁remain	-1596
ape	-1597
▁manner	-1598
itude	-1599
▁past	-1600
▁honor	-1601
rupt	-1602
▁standing	-1603
▁sit	-1604
antes	-1605
▁wonder	-1606
bled	-1607
▁sometimes	-1608
ote	-1609
erous	-1610
peror	-1611
▁disp	-1612
▁creat	-1613
▁truth	-1614
▁necess	-1615
Th	-1616
▁bit	-1617
▁eye	-1618
ates	-1619
outh	-1620
▁ground	-1621
▁consider	-1622
▁Nap	-1623
▁regard	-1624
▁chief	-1625
▁afraid	-1626
ities	-1627
▁quar	-1628
ages	-1629
▁mem	-1630
▁sea	-1631
▁opin	-1632
ract	-1633
▁stopped	-1634
My	-1635
ogn	-1636
▁hist	-1637
▁drawing	-1638
▁Dantes	-1639
ins	-1640
▁simply	-1641
▁Princess	-1642
eth	-1643
▁blood	-1644
▁walked	-1645
▁dra	-1646
▁tran	-1647
ead	-1648
▁import	-1649
▁resol	-1650
▁book	-1651
hab	-1652
▁pat	-1653
▁impos	-1654
▁pale	-1655
▁ele	-1656
akes	-1657
pend	-1658
ement	-1659
▁different	-1660
iced	-1661
▁ann	-1662
II	-1663
▁king	-1664
where	-1665
oon	-1666
▁lips	-1667
▁peas	-1668
▁sense	-1669
anged	-1670
▁George	-1671
▁speaking	-1672
▁immediately	-1673
▁crow	-1674
for	-1675
▁free	-1676
▁trem	-1677
▁mere	-1678
aub	-1679
ames	-1680
▁twenty	-1681
ef	-1682
ored	-1683
▁anx	-1684
▁esc	-1685
▁Milady	-1686
▁acquaint	-1687
ches	-1688
▁rose	-1689
ination	-1690
▁sy	-1691
ously	-1692
▁prince	-1693
iful	-1694
▁Maj	-1695
▁either	-1696
▁itself	-1697
▁gentlemen	-1698
bur	-1699
▁war	-1700
▁pray	-1701
▁requ	-1702
▁stra	-1703
▁quiet	-1704
▁doctor	-1705
▁ca	-1706
ield	-1707
▁After	-1708
pping	-1709
▁complete	-1710
ented	-1711
ution	-1712
nce	-1713
▁par	-1714
▁longer	-1715
oleon	-1716
▁didn	-1717
▁whis	-1718
▁cut	-1719
▁excell	-1720
▁ladies	-1721
▁sk	-1722
▁di	-1723
▁pleasure	-1724
▁One	-1725
▁late	-1726
▁self	-1727
ek	-1728
▁est	-1729
▁repeated	-1730
uff	-1731
...."	-1732
cially	-1733
▁within	-1734
ats	-1735
▁fav	-1736
▁Lady	-1737
▁sever	-1738
head	-1739
▁emb	-1740
acter	-1741
▁show	-1742
ya	-1743
odor	-1744
▁card	-1745
vern	-1746
yodor	-1747
ixed	-1748
▁Wh	-1749
arch	-1750
▁dut	-1751
▁feet	-1752
▁Napoleon	-1753
▁gre	-1754
▁except	-1755
▁Emperor	-1756
▁Russian	-1757
▁character	-1758
gr	-1759
ected	-1760
▁col	-1761
▁Fyodor	-1762
▁silent	-1763
▁silence	-1764
arent	-1765
▁year	-1766
▁dest	-1767
▁crowd	-1768
▁satis	-1769
▁enem	-1770
▁Ivanovna	-1771
▁trou	-1772
asaub	-1773
▁living	-1774
▁above	-1775
▁struck	-1776
don	-1777
val	-1778
▁Fran	-1779
▁deal	-1780
▁Oh	-1781
ices	-1782
olas	-1783
resh	-1784
▁dream	-1785
erm	-1786
▁gaz	-1787
asaubon	-1788
Do	-1789
▁sad	-1790
▁recogn	-1791
ster	-1792
▁jud	-1793
If	-1794
law	-1795
▁batt	-1796
ient	-1797
▁clear	-1798
icholas	-1799
▁div	-1800
▁minute	-1801
alentine	-1802
▁eng	-1803
evitch	-1804
▁glass	-1805
▁loved	-1806
ging	-1807
▁const	-1808
▁Casaubon	-1809
iddle	-1810
ically	-1811
▁getting	-1812
alth	-1813
clock	-1814
▁pock	-1815
▁chair	-1816
▁state	-1817
▁inn	-1818
▁With	-1819
▁says	-1820
▁Os	-1821
▁send	-1822
▁fright	-1823
▁impossible	-1824
ump	-1825
laimed	-1826
▁steps	-1827
▁suppose	-1828
terday	-1829
ency	-1830
▁wished	-1831
▁Osbor	-1832
pid	-1833
▁cou	-1834
▁wall	-1835
▁breat	-1836
▁occup	-1837
▁Amelia	-1838
▁Fred	-1839
▁slight	-1840
▁Ark	-1841
▁Chap	-1842
ieu	-1843
orn	-1844
bling	-1845
▁drew	-1846
▁road	-1847
▁view	-1848
▁usual	-1849
▁forward	-1850
▁Is	-1851
▁Ros	-1852
▁Nicholas	-1853
ah	-1854
▁Sh	-1855
▁fing	-1856
▁ce	-1857
▁able	-1858
▁spite	-1859
▁Chapter	-1860
▁Osborne	-1861
▁"'	-1862
ural	-1863
▁scar	-1864
utes	-1865
▁wait	-1866
▁circum	-1867
▁terrible	-1868
▁Valentine	-1869
iled	-1870
▁mention	-1871
▁happiness	-1872
amm	-1873
▁Arkady	-1874
pecially	-1875
wh	-1876
There	-1877
▁pretty	-1878
▁Alexandrovitch	-1879
▁prov	-1880
ring	-1881
▁mus	-1882
▁smiling	-1883
▁cause	-1884
▁human	-1885
▁wrong	-1886
▁certainly	-1887
ub	-1888
rode	-1889
▁occas	-1890
reed	-1891
▁break	-1892
▁refle	-1893
▁married	-1894
▁several	-1895
ois	-1896
▁ve	-1897
essed	-1898
▁Dmit	-1899
▁drink	-1900
▁opinion	-1901
ager	-1902
▁rid	-1903
isted	-1904
rance	-1905
▁change	-1906
iers	-1907
▁soft	-1908
▁moved	-1909
▁Well	-1910
morrow	-1911
▁earth	-1912
▁Gr	-1913
▁poss	-1914
▁quickly	-1915
ney	-1916
▁forget	-1917
▁English	-1918
▁understood	-1919
oly	-1920
ots	-1921
oint	-1922
▁knows	-1923
▁grand	-1924
what	-1925
▁gri	-1926
▁gall	-1927
▁service	-1928
▁thoughts	-1929
▁Bul	-1930
▁utter	-1931
▁Dmitri	-1932
▁please	-1933
▁fif	-1934
antly	-1935
▁front	-1936
▁hours	-1937
lli	-1938
▁hardly	-1939
▁attention	-1940
▁ast	-1941
▁yesterday	-1942
▁mil	-1943
▁story	-1944
▁princess	-1945
ane	-1946
lled	-1947
urch	-1948
▁straight	-1949
ession	-1950
▁gard	-1951
itation	-1952
▁bene	-1953
▁port	-1954
▁heaven	-1955
▁afterwards	-1956
▁ago	-1957
ital	-1958
agg	-1959
▁purp	-1960
strode	-1961
▁rapid	-1962
▁dread	-1963
▁circumst	-1964
que	-1965
▁mut	-1966
ceive	-1967
▁Paris	-1968
▁company	-1969
▁waiting	-1970
▁ph	-1971
▁trying	-1972
▁especially	-1973
sequ	-1974
▁sol	-1975
▁Franz	-1976
▁Porthos	-1977
▁hop	-1978
ching	-1979
oving	-1980
▁prob	-1981
▁Step	-1982
▁placed	-1983
▁effect	-1984
▁carried	-1985
▁court	-1986
▁Bulstrode	-1987
▁exclaimed	-1988
▁smiled	-1989
▁comfort	-1990
cend	-1991
▁dem	-1992
▁wis	-1993
oom	-1994
cely	-1995
fied	-1996
▁Cad	-1997
▁apart	-1998
▁until	-1999
▁society	-2000
▁mine	-2001
▁meant	-2002
king	-2003
▁cry	-2004
▁Stepan	-2005
▁streng	-2006
▁cardinal	-2007
▁King	-2008
▁learn	-2009
eness	-2010
▁body	-2011
▁pu	-2012
▁obl	-2013
eng	-2014
▁minutes	-2015
▁Rosamond	-2016
like	-2017
▁bra	-2018
▁conscious	-2019
▁evidently	-2020
ives	-2021
▁Anne	-2022
idence	-2023
▁marriage	-2024
▁presence	-2025
▁Arkadyevitch	-2026
▁eld	-2027
▁med	-2028
ressing	-2029
▁expected	-2030
▁lead	-2031
▁reached	-2032
though	-2033
▁toward	-2034
▁av	-2035
▁around	-2036
▁captain	-2037
▁calm	-2038
ton	-2039
▁die	-2040
▁ball	-2041
▁laughing	-2042
▁equ	-2043
awdon	-2044
cca	-2045
▁ed	-2046
▁beginning	-2047
▁De	-2048
ining	-2049
▁pull	-2050
▁sett	-2051
▁countess	-2052
uzov	-2053
▁fool	-2054
over	-2055
▁pen	-2056
▁fig	-2057
▁bott	-2058
▁stri	-2059
▁former	-2060
aged	-2061
bbin	-2062
▁anyone	-2063
▁contrary	-2064
▁feelings	-2065
▁Kut	-2066
inary	-2067
▁fixed	-2068
▁Rawdon	-2069
▁shouted	-2070
▁arran	-2071
▁nature	-2072
▁therefore	-2073
▁Dobbin	-2074
▁instead	-2075
ket	-2076
We	-2077
▁thus	-2078
▁Bon	-2079
▁arrived	-2080
bered	-2081
▁warm	-2082
▁seems	-2083
▁Kutuzov	-2084
asp	-2085
▁Pav	-2086
ledge	-2087
vere	-2088
▁bu	-2089
▁orders	-2090
dy	-2091
▁news	-2092
▁fat	-2093
▁bear	-2094
amis	-2095
▁Mus	-2096
ustom	-2097
▁glan	-2098
▁talked	-2099
▁beautiful	-2100
ops	-2101
▁corner	-2102
▁desire	-2103
▁spirit	-2104
eal	-2105
▁num	-2106
▁accord	-2107
▁vi	-2108
tern	-2109
▁Pavl	-2110
▁remark	-2111
ax	-2112
ki	-2113
becca	-2114
▁Pe	-2115
▁publ	-2116
ize	-2117
burg	-2118
omm	-2119
▁led	-2120
▁reply	-2121
▁raised	-2122
akov	-2123
ghed	-2124
▁Not	-2125
▁Ahab	-2126
hin	-2127
usion	-2128
▁dang	-2129
▁eight	-2130
▁bright	-2131
icult	-2132
▁pocket	-2133
▁fresh	-2134
▁tender	-2135
▁purpose	-2136
▁sail	-2137
▁weak	-2138
▁devil	-2139
▁Rebecca	-2140
uc	-2141
hov	-2142
▁que	-2143
▁eager	-2144
Not	-2145
lan	-2146
Then	-2147
▁mod	-2148
▁coll	-2149
▁vill	-2150
▁giving	-2151
▁fut	-2152
▁angry	-2153
▁faith	-2154
▁mouth	-2155
▁Aramis	-2156
gy	-2157
▁sch	-2158
ative	-2159
▁fortune	-2160
▁everyone	-2161
▁necessary	-2162
ters	-2163
▁agree	-2164
▁enemy	-2165
▁noticed	-2166
ron	-2167
▁conc	-2168
▁conce	-2169
▁occasion	-2170
▁interrupt	-2171
joy	-2172
▁tem	-2173
▁sake	-2174
▁Every	-2175
▁strength	-2176
▁plan	-2177
▁battle	-2178
▁wit	-2179
▁Bor	-2180
▁lif	-2181
▁boat	-2182
▁post	-2183
wor	-2184
▁exist	-2185
▁entire	-2186
ny	-2187
▁Let	-2188
▁kill	-2189
urs	-2190
ience	-2191
▁du	-2192
▁paper	-2193
▁duty	-2194
▁garden	-2195
▁hab	-2196
▁pict	-2197
▁showed	-2198
▁listened	-2199
▁scarcely	-2200
ope	-2201
▁appearance	-2202
▁cast	-2203
▁Peters	-2204
▁servant	-2205
▁observed	-2206
▁gold	-2207
erable	-2208
▁compl	-2209
▁fran	-2210
▁condu	-2211
old	-2212
▁try	-2213
cliff	-2214
mp	-2215
▁slow	-2216
▁pie	-2217
▁enjoy	-2218
▁later	-2219
▁marry	-2220
▁experi	-2221
▁future	-2222
esty	-2223
▁beside	-2224
athcliff	-2225
land	-2226
▁peace	-2227
▁killed	-2228
▁laughed	-2229
▁Petersburg	-2230
erv	-2231
aled	-2232
▁knowing	-2233
ular	-2234
▁purs	-2235
▁Monsieur	-2236
kn	-2237
how	-2238
spect	-2239
▁fair	-2240
She	-2241
ales	-2242
onel	-2243
▁hot	-2244
bo	-2245
aff	-2246
▁Mar	-2247
▁Pitt	-2248
ission	-2249
▁oppos	-2250
▁sweet	-2251
▁third	-2252
▁chance	-2253
▁soldiers	-2254
▁further	-2255
cial	-2256
▁firm	-2257
▁infl	-2258
▁pity	-2259
▁neigh	-2260
▁regiment	-2261
ishment	-2262
▁remembered	-2263
oman	-2264
umed	-2265
▁sal	-2266
▁plain	-2267
▁consequ	-2268
▁creature	-2269
▁Heathcliff	-2270
▁bir	-2271
▁months	-2272
▁simple	-2273
hood	-2274
▁pun	-2275
▁priv	-2276
▁descri	-2277
ines	-2278
▁tor	-2279
▁line	-2280
▁note	-2281
▁surprise	-2282
yond	-2283
amber	-2284
bility	-2285
bs	-2286
▁sens	-2287
▁difficult	-2288
▁Yes	-2289
aching	-2290
▁action	-2291
▁glance	-2292
▁meeting	-2293
▁fast	-2294
▁liked	-2295
retched	-2296
▁perfectly	-2297
fe	-2298
eks	-2299
▁jo	-2300
▁laid	-2301
atched	-2302
ctions	-2303
▁public	-2304
enis	-2305
onya	-2306
▁thy	-2307
▁coat	-2308
▁effort	-2309
par	-2310
teen	-2311
▁cra	-2312
icked	-2313
▁Here	-2314
▁exam	-2315
▁succ	-2316
▁impress	-2317
▁charm	-2318
▁accept	-2319
rit	-2320
aded	-2321
▁rich	-2322
▁wine	-2323
▁Sed	-2324
▁heav	-2325
▁concl	-2326
aterina	-2327
ains	-2328
▁rev	-2329
▁changed	-2330
olly	-2331
▁lived	-2332
▁Petrov	-2333
elle	-2334
▁drun	-2335
▁box	-2336
▁tro	-2337
▁sole	-2338
▁common	-2339
▁squ	-2340
itten	-2341
▁determ	-2342
let	-2343
▁Jos	-2344
▁susp	-2345
▁oblig	-2346
▁Sedley	-2347
▁broken	-2348
▁pleased	-2349
app	-2350
osing	-2351
▁host	-2352
▁aston	-2353
▁noble	-2354
▁easy	-2355
ounds	-2356
▁leaving	-2357
Come	-2358
▁imm	-2359
ompan	-2360
▁important	-2361
my	-2362
▁hid	-2363
▁var	-2364
otten	-2365
▁fond	-2366
▁loud	-2367
enisov	-2368
▁comes	-2369
ler	-2370
▁Ed	-2371
▁neck	-2372
▁party	-2373
▁believed	-2374
appe	-2375
▁val	-2376
▁wild	-2377
▁beyond	-2378
cky	-2379
read	-2380
▁Son	-2381
▁dog	-2382
side	-2383
▁sick	-2384
▁viol	-2385
oned	-2386
▁Father	-2387
▁street	-2388
▁affection	-2389
ilt	-2390
▁lie	-2391
▁cand	-2392
▁Sonya	-2393
▁allow	-2394
▁lying	-2395
inter	-2396
▁closed	-2397
▁latter	-2398
▁holding	-2399
oh	-2400
▁meaning	-2401
▁questions	-2402
els	-2403
▁prot	-2404
▁wood	-2405
▁pecul	-2406
▁Christ	-2407
▁Katerina	-2408
▁particularly	-2409
ville	-2410
▁elder	-2411
▁start	-2412
▁write	-2413
▁intell	-2414
Is	-2415
▁sor	-2416
▁peculi	-2417
nat	-2418
▁leng	-2419
cience	-2420
▁youth	-2421
▁across	-2422
▁attack	-2423
To	-2424
ms	-2425
uous	-2426
▁enc	-2427
erousse	-2428
▁history	-2429
ume	-2430
▁cler	-2431
▁floor	-2432
▁depart	-2433
▁merely	-2434
▁besides	-2435
ker	-2436
▁hig	-2437
▁bank	-2438
▁fancy	-2439
▁wrote	-2440
▁Denisov	-2441
ners	-2442
▁died	-2443
▁lean	-2444
▁Becky	-2445
▁uneas	-2446
aining	-2447
▁trouble	-2448
hold	-2449
▁cre	-2450
▁burn	-2451
▁mount	-2452
▁natural	-2453
▁Caderousse	-2454
Now	-2455
emois	-2456
ified	-2457
ounced	-2458
▁Lint	-2459
▁belong	-2460
▁despair	-2461
ech	-2462
▁ash	-2463
atherine	-2464
▁decided	-2465
emoiselle	-2466
In	-2467
upid	-2468
▁lod	-2469
▁und	-2470
enced	-2471
▁figure	-2472
▁govern	-2473
▁handsome	-2474
ues	-2475
oose	-2476
▁prec	-2477
▁Bro	-2478
▁jour	-2479
▁shut	-2480
▁extre	-2481
▁length	-2482
▁counten	-2483
▁prisoner	-2484
▁sorry	-2485
▁treat	-2486
arr	-2487
uss	-2488
▁caught	-2489
▁enter	-2490
▁nearly	-2491
co	-2492
amma	-2493
▁cru	-2494
duced	-2495
▁advan	-2496
▁worse	-2497
▁report	-2498
ray	-2499
▁rou	-2500
▁anim	-2501
▁favor	-2502
▁study	-2503
▁movement	-2504
▁Major	-2505
▁coach	-2506
▁exa	-2507
ocked	-2508
atever	-2509
▁covered	-2510
▁reading	-2511
▁Linton	-2512
▁mid	-2513
▁bound	-2514
▁neither	-2515
▁everybody	-2516
▁trans	-2517
▁notice	-2518
▁forgotten	-2519
ieux	-2520
▁Don	-2521
▁lab	-2522
▁disg	-2523
▁occur	-2524
▁inquir	-2525
▁single	-2526
▁accompan	-2527
chief	-2528
itary	-2529
▁gate	-2530
ormed	-2531
▁Sonia	-2532
▁Catherine	-2533
▁Tre	-2534
▁Lond	-2535
ushing	-2536
▁gloom	-2537
▁passion	-2538
cerf	-2539
▁From	-2540
▁paid	-2541
▁cheer	-2542
▁church	-2543
▁wounded	-2544
▁Brooke	-2545
▁promise	-2546
▁putting	-2547
come	-2548
▁maj	-2549
▁incl	-2550
ceeded	-2551
▁listen	-2552
▁serious	-2553
▁knowledge	-2554
ned	-2555
ishing	-2556
▁force	-2557
▁school	-2558
▁Morcerf	-2559
hip	-2560
▁spot	-2561
anging	-2562
!'	-2563
iver	-2564
lend	-2565
ality	-2566
ision	-2567
▁likely	-2568
▁terror	-2569
ls	-2570
sky	-2571
▁ideas	-2572
▁demand	-2573
▁Bar	-2574
▁Pip	-2575
▁age	-2576
▁avo	-2577
pered	-2578
ics	-2579
rage	-2580
henka	-2581
esides	-2582
▁London	-2583
arer	-2584
▁legs	-2585
▁threw	-2586
▁officers	-2587
?'	-2588
▁murd	-2589
▁proud	-2590
▁affairs	-2591
▁passing	-2592
▁Dol	-2593
▁fal	-2594
▁por	-2595
known	-2596
merdy	-2597
▁distance	-2598
▁stranger	-2599
▁considered	-2600
mn	-2601
erge	-2602
▁ring	-2603
▁burst	-2604
▁separ	-2605
▁health	-2606
▁success	-2607
?--	-2608
▁affair	-2609
▁escape	-2610
merdyakov	-2611
▁contempt	-2612
▁Alexandrovna	-2613
ones	-2614
▁tea	-2615
osity	-2616
▁conn	-2617
▁aware	-2618
▁speech	-2619
▁strugg	-2620
▁stupid	-2621
dd	-2622
ires	-2623
▁grew	-2624
ealous	-2625
▁possi	-2626
▁countenance	-2627
sec	-2628
ries	-2629
▁Per	-2630
▁recall	-2631
▁Nik	-2632
ortun	-2633
▁blue	-2634
▁completely	-2635
fast	-2636
▁filled	-2637
▁inform	-2638
▁condition	-2639
▁interrupted	-2640
aud	-2641
▁Lou	-2642
▁ear	-2643
inced	-2644
▁clot	-2645
▁dism	-2646
ashion	-2647
itions	-2648
▁influ	-2649
▁servants	-2650
▁Smerdyakov	-2651
she	-2652
▁Sv	-2653
▁iron	-2654
▁fight	-2655
▁shame	-2656
inci	-2657
ignor	-2658
▁early	-2659
▁suspic	-2660
▁excellency	-2661
osp	-2662
▁By	-2663
▁dare	-2664
▁dressed	-2665
do	-2666
ories	-2667
▁Grus	-2668
▁none	-2669
▁running	-2670
▁uttered	-2671
▁although	-2672
▁entirely	-2673
▁peculiar	-2674
▁circumstances	-2675
▁recoll	-2676
▁monsieur	-2677
!--	-2678
▁pa	-2679
▁ordered	-2680
▁written	-2681
▁probably	-2682
axim	-2683
wise	-2684
▁Andre	-2685
▁follow	-2686
▁touched	-2687
▁acquaintance	-2688
mond	-2689
▁pal	-2690
ested	-2691
acieux	-2692
fortun	-2693
▁bitter	-2694
▁opposite	-2695
▁Bonacieux	-2696
aves	-2697
happ	-2698
lling	-2699
olog	-2700
pper	-2701
▁kne	-2702
▁furn	-2703
athy	-2704
▁fit	-2705
▁fro	-2706
night	-2707
▁resp	-2708
▁seized	-2709
So	-2710
idge	-2711
itable	-2712
▁drove	-2713
▁extra	-2714
▁guard	-2715
▁advant	-2716
▁soldier	-2717
hand	-2718
ship	-2719
▁bell	-2720
▁spent	-2721
▁kissed	-2722
▁shoulders	-2723
hale	-2724
▁Raz	-2725
ending	-2726
▁persons	-2727
het	-2728
sem	-2729
▁faces	-2730
▁asking	-2731
▁started	-2732
▁ta	-2733
aval	-2734
▁Ger	-2735
oured	-2736
▁vict	-2737
stairs	-2738
▁makes	-2739
▁learned	-2740
▁telling	-2741
ests	-2742
▁Razum	-2743
▁intro	-2744
▁slowly	-2745
▁peasant	-2746
▁witness	-2747
iety	-2748
ashed	-2749
▁rushed	-2750
▁Grushenka	-2751
rest	-2752
▁fle	-2753
▁journey	-2754
▁surprised	-2755
This	-2756
race	-2757
erence	-2758
▁hurried	-2759
▁apparent	-2760
▁Mademoiselle	-2761
ihin	-2762
▁grief	-2763
▁scene	-2764
▁anxious	-2765
▁disappe	-2766
▁suffering	-2767
▁Gu	-2768
oken	-2769
▁cent	-2770
▁hung	-2771
▁James	-2772
▁broke	-2773
▁distin	-2774
ius	-2775
▁Of	-2776
leep	-2777
arily	-2778
worth	-2779
▁thee	-2780
▁habit	-2781
▁super	-2782
▁sword	-2783
▁splend	-2784
▁listening	-2785
rop	-2786
▁camp	-2787
▁bowed	-2788
▁Razumihin	-2789
▁presented	-2790
▁fun	-2791
avish	-2792
▁grave	-2793
▁ashamed	-2794
▁jealous	-2795
ella	-2796
▁Tom	-2797
▁madame	-2798
▁attempt	-2799
▁pleasant	-2800
▁Fyodorovitch	-2801
ences	-2802
▁Only	-2803
▁Some	-2804
▁polit	-2805
▁seven	-2806
▁thank	-2807
▁peasants	-2808
kin	-2809
▁suc	-2810
izing	-2811
▁forgive	-2812
▁village	-2813
▁expressed	-2814
▁adj	-2815
ilian	-2816
▁admir	-2817
▁delic	-2818
▁innoc	-2819
▁easily	-2820
▁unhapp	-2821
▁Treville	-2822
roy	-2823
arsh	-2824
▁fly	-2825
▁pac	-2826
▁exec	-2827
onsense	-2828
▁breath	-2829
▁suffer	-2830
irtier	-2831
▁detail	-2832
ism	-2833
▁occupied	-2834
ges	-2835
look	-2836
▁murm	-2837
▁week	-2838
▁baron	-2839
▁looks	-2840
▁Though	-2841
▁result	-2842
▁frightened	-2843
acy	-2844
otr	-2845
▁deg	-2846
okhov	-2847
▁forth	-2848
▁franc	-2849
ception	-2850
▁promised	-2851
▁according	-2852
uded	-2853
iction	-2854
itated	-2855
▁asleep	-2856
▁murder	-2857
▁extreme	-2858
▁glanced	-2859
▁walking	-2860
ino	-2861
▁cost	-2862
▁decla	-2863
▁sorrow	-2864
▁conduct	-2865
▁prepared	-2866
▁following	-2867
▁den	-2868
▁mill	-2869
tering	-2870
▁Noirtier	-2871
▁finished	-2872
▁opportun	-2873
oted	-2874
yotr	-2875
▁sin	-2876
▁harm	-2877
▁symp	-2878
▁repro	-2879
▁fingers	-2880
ham	-2881
ubb	-2882
ises	-2883
▁gun	-2884
▁fault	-2885
▁pract	-2886
▁spoken	-2887
▁special	-2888
▁shoulder	-2889
▁awa	-2890
▁eat	-2891
▁begun	-2892
▁francs	-2893
▁middle	-2894
▁particular	-2895
▁imagine	-2896
▁roubles	-2897
▁Dolokhov	-2898
kete	-2899
onst	-2900
▁proc	-2901
▁carry	-2902
▁field	-2903
▁sharp	-2904
▁beauty	-2905
▁interv	-2906
▁dropped	-2907
▁directly	-2908
▁commander	-2909
▁companion	-2910
go	-2911
son	-2912
uls	-2913
▁bab	-2914
▁gen	-2915
ardon	-2916
▁cous	-2917
cks	-2918
ases	-2919
ounia	-2920
▁relations	-2921
ays	-2922
▁Ag	-2923
▁top	-2924
▁beat	-2925
▁thin	-2926
▁thick	-2927
▁number	-2928
▁Muskete	-2929
▁descend	-2930
▁obliged	-2931
▁Ivanovitch	-2932
istol	-2933
▁formed	-2934
▁whispered	-2935
▁Ah	-2936
under	-2937
usted	-2938
▁auth	-2939
▁dign	-2940
▁save	-2941
▁offer	-2942
▁hearing	-2943
▁someone	-2944
wo	-2945
ades	-2946
rove	-2947
ament	-2948
▁tast	-2949
▁Nikol	-2950
▁Whale	-2951
▁commun	-2952
▁convinced	-2953
udd	-2954
oseph	-2955
▁seat	-2956
ration	-2957
▁drunk	-2958
avisham	-2959
▁moving	-2960
ric	-2961
gged	-2962
ists	-2963
rate	-2964
light	-2965
▁Maxim	-2966
▁pride	-2967
▁England	-2968
con	-2969
▁big	-2970
aling	-2971
▁Serge	-2972
▁Havisham	-2973
▁Sp	-2974
angu	-2975
orted	-2976
▁path	-2977
▁rode	-2978
▁unex	-2979
▁Garth	-2980
▁Russia	-2981
▁events	-2982
▁pistol	-2983
▁unable	-2984
▁Besides	-2985
▁greatest	-2986
▁muttered	-2987
io	-2988
▁Br	-2989
▁Pyotr	-2990
▁awful	-2991
▁whatever	-2992
Don	-2993
▁hes	-2994
▁princi	-2995
▁letters	-2996
▁propert	-2997
chen	-2998
▁bent	-2999
▁grat	-3000
▁maid	-3001
▁Dounia	-3002
▁depend	-3003
▁memory	-3004
▁motion	-3005
▁fashion	-3006
▁greater	-3007
▁mo	-3008
They	-3009
▁coff	-3010
▁queen	-3011
▁passage	-3012
▁Bri	-3013
inite	-3014
▁fanci	-3015
iod	-3016
▁lose	-3017
▁incre	-3018
▁Herbert	-3019
▁van	-3020
owers	-3021
▁scre	-3022
▁seated	-3023
▁wouldn	-3024
▁destroy	-3025
▁inquired	-3026
▁Le	-3027
▁Come	-3028
▁bill	-3029
▁clever	-3030
while	-3031
▁sofa	-3032
▁These	-3033
▁shook	-3034
faction	-3035
▁breakfast	-3036
key	-3037
▁Ind	-3038
▁alt	-3039
▁heavy	-3040
▁mentioned	-3041
now	-3042
lace	-3043
▁sides	-3044
▁allowed	-3045
▁unknown	-3046
▁property	-3047
▁Petrovitch	-3048
Who	-3049
▁earn	-3050
▁distur	-3051
▁period	-3052
▁arrival	-3053
▁chamber	-3054
▁determined	-3055
ts	-3056
ye	-3057
ze	-3058
▁Me	-3059
▁empt	-3060
▁mess	-3061
▁touch	-3062
▁honest	-3063
▁rising	-3064
▁explain	-3065
▁mistress	-3066
ians	-3067
▁cab	-3068
▁sho	-3069
▁mort	-3070
▁gazed	-3071
▁impat	-3072
▁Sergey	-3073
▁settled	-3074
▁Col	-3075
ether	-3076
▁freed	-3077
▁timid	-3078
▁Andrea	-3079
▁France	-3080
▁Joseph	-3081
▁offered	-3082
▁private	-3083
▁retreat	-3084
▁delighted	-3085
▁Pavlovitch	-3086
▁continually	-3087
bers	-3088
iling	-3089
▁band	-3090
▁educ	-3091
▁girls	-3092
▁Kar	-3093
cient	-3094
▁aband	-3095
road	-3096
▁kit	-3097
▁lim	-3098
▁mass	-3099
▁meas	-3100
▁yours	-3101
▁Edmond	-3102
▁German	-3103
▁excited	-3104
▁various	-3105
▁confidence	-3106
▁opportunity	-3107
Good	-3108
ogether	-3109
▁threat	-3110
▁worthy	-3111
▁clothes	-3112
▁direction	-3113
ib	-3114
cher	-3115
▁fet	-3116
▁stop	-3117
▁surr	-3118
pected	-3119
perior	-3120
▁trave	-3121
▁uncle	-3122
▁solemn	-3123
uk	-3124
ggs	-3125
▁El	-3126
aped	-3127
umph	-3128
elton	-3129
▁jump	-3130
▁Dolly	-3131
▁anger	-3132
▁false	-3133
▁intim	-3134
▁beha	-3135
▁ignor	-3136
▁approached	-3137
Let	-3138
▁mir	-3139
▁Elli	-3140
▁clearly	-3141
▁Vin	-3142
arked	-3143
▁coun	-3144
▁avoid	-3145
▁crime	-3146
▁drive	-3147
▁haste	-3148
▁piece	-3149
▁trembling	-3150
▁da	-3151
▁Who	-3152
▁fre	-3153
▁evil	-3154
▁wide	-3155
▁assist	-3156
▁regret	-3157
Your	-3158
oves	-3159
▁Roman	-3160
▁Felton	-3161
▁confess	-3162
▁aim	-3163
▁Boris	-3164
▁cloud	-3165
▁troops	-3166
▁watching	-3167
emm	-3168
olk	-3169
▁bow	-3170
using	-3171
▁author	-3172
▁spring	-3173
▁waited	-3174
▁kitchen	-3175
hel	-3176
ilty	-3177
▁Beau	-3178
▁crim	-3179
▁reck	-3180
▁stern	-3181
▁couldn	-3182
▁pressed	-3183
▁quarter	-3184
▁Sm	-3185
▁ver	-3186
▁blame	-3187
▁knees	-3188
▁Elliot	-3189
erer	-3190
▁neg	-3191
▁vent	-3192
▁twice	-3193
▁indiff	-3194
▁moments	-3195
▁unhappy	-3196
▁advantage	-3197
ague	-3198
athe	-3199
▁Mer	-3200
emmick	-3201
▁noise	-3202
▁relig	-3203
▁Majesty	-3204
▁impression	-3205
fer	-3206
▁Go	-3207
Where	-3208
▁hint	-3209
▁Vincy	-3210
▁faint	-3211
▁Countess	-3212
rid	-3213
▁Lad	-3214
▁unf	-3215
▁dying	-3216
▁emotion	-3217
▁rapidly	-3218
St	-3219
abl	-3220
gel	-3221
ingu	-3222
▁event	-3223
▁gallop	-3224
▁happen	-3225
▁id	-3226
cked	-3227
oming	-3228
▁brilli	-3229
kerchief	-3230
ator	-3231
▁cart	-3232
▁reve	-3233
▁vain	-3234
▁aside	-3235
▁green	-3236
▁caused	-3237
▁Wemmick	-3238
▁matters	-3239
▁influence	-3240
ury	-3241
▁nice	-3242
▁disapp	-3243
▁forced	-3244
▁nonsense	-3245
▁instantly	-3246
▁unexpected	-3247
▁Ste	-3248
▁ant	-3249
▁ris	-3250
islaw	-3251
▁Where	-3252
▁frown	-3253
▁langu	-3254
▁discuss	-3255
▁writing	-3256
atic	-3257
evna	-3258
with	-3259
▁proof	-3260
▁guilty	-3261
▁stairs	-3262
▁exactly	-3263
▁splendid	-3264
▁phy	-3265
utely	-3266
▁judge	-3267
▁persu	-3268
▁stone	-3269
osition	-3270
▁histor	-3271
▁proper	-3272
▁engaged	-3273
▁darkness	-3274
▁arg	-3275
▁dim	-3276
iliar	-3277
▁harp	-3278
▁ones	-3279
▁horror	-3280
▁distingu	-3281
▁miserable	-3282
rum	-3283
▁abbe	-3284
▁stir	-3285
▁yell	-3286
▁appre	-3287
▁board	-3288
▁fifty	-3289
▁grown	-3290
▁rooms	-3291
▁justice	-3292
▁pointed	-3293
On	-3294
ivid	-3295
utor	-3296
cedes	-3297
▁unif	-3298
▁Louis	-3299
▁bless	-3300
▁fever	-3301
▁irrit	-3302
▁cousin	-3303
▁papers	-3304
▁quietly	-3305
▁receive	-3306
▁Ladislaw	-3307
▁charming	-3308
▁excellent	-3309
▁addressing	-3310
aren	-3311
▁Vas	-3312
▁wid	-3313
▁virt	-3314
▁posit	-3315
▁fallen	-3316
▁arrange	-3317
▁spirits	-3318
▁tomorrow	-3319
▁pi	-3320
▁landl	-3321
▁danger	-3322
▁finger	-3323
▁uniform	-3324
eed	-3325
zen	-3326
coat	-3327
well	-3328
▁ben	-3329
▁har	-3330
▁pet	-3331
ounce	-3332
▁today	-3333
ta	-3334
000	-3335
ior	-3336
▁ears	-3337
▁tall	-3338
ateful	-3339
stella	-3340
▁bread	-3341
▁extraord	-3342
▁satisfied	-3343
jo	-3344
Here	-3345
aked	-3346
uted	-3347
chant	-3348
eping	-3349
ustri	-3350
▁ende	-3351
▁miss	-3352
▁nose	-3353
ustomed	-3354
▁advanced	-3355
▁occurred	-3356
etya	-3357
▁bare	-3358
▁keeping	-3359
▁shaking	-3360
▁altogether	-3361
▁disappeared	-3362
erve	-3363
▁Yet	-3364
ature	-3365
▁sacri	-3366
▁teeth	-3367
▁evidence	-3368
ex	-3369
no	-3370
,000	-3371
ploy	-3372
olunt	-3373
▁curi	-3374
iments	-3375
▁While	-3376
▁chest	-3377
brother	-3378
▁Middle	-3379
▁appoint	-3380
▁freedom	-3381
set	-3382
▁Cl	-3383
▁ves	-3384
▁Your	-3385
▁shad	-3386
▁Petya	-3387
▁ceased	-3388
▁opening	-3389
▁watched	-3390
▁intention	-3391
house	-3392
▁hall	-3393
▁Celia	-3394
▁Stubb	-3395
▁excit	-3396
▁neighb	-3397
▁Nikolay	-3398
▁inj	-3399
▁goes	-3400
▁nerv	-3401
▁tort	-3402
▁books	-3403
ceiving	-3404
▁thrown	-3405
▁courage	-3406
▁suspect	-3407
▁windows	-3408
▁personal	-3409
▁existence	-3410
▁Ab	-3411
sell	-3412
▁broad	-3413
▁music	-3414
▁voices	-3415
onscious	-3416
▁beneath	-3417
▁entertain	-3418
sy	-3419
▁Fare	-3420
▁Just	-3421
▁drawn	-3422
▁trust	-3423
▁nobody	-3424
▁police	-3425
▁murmured	-3426
▁carefully	-3427
sc	-3428
fir	-3429
▁pack	-3430
▁communic	-3431
▁agreeable	-3432
vey	-3433
▁lord	-3434
▁sugg	-3435
▁tong	-3436
▁wond	-3437
▁lower	-3438
ability	-3439
attered	-3440
▁Middlem	-3441
ike	-3442
reet	-3443
▁attend	-3444
▁employ	-3445
▁suffic	-3446
▁vessel	-3447
▁intellig	-3448
▁conscience	-3449
▁interesting	-3450
uee	-3451
uge	-3452
urse	-3453
▁aud	-3454
▁baby	-3455
▁hunt	-3456
▁fully	-3457
▁pulled	-3458
▁Estella	-3459
▁cheerful	-3460
▁familiar	-3461
▁curiosity	-3462
▁generally	-3463
▁consciousness	-3464
ils	-3465
ompl	-3466
asons	-3467
inking	-3468
▁heads	-3469
▁myster	-3470
▁wretched	-3471
▁perceived	-3472
aming	-3473
ivity	-3474
pleas	-3475
▁appl	-3476
▁magn	-3477
aggers	-3478
▁resolved	-3479
▁departure	-3480
▁Ne	-3481
iddy	-3482
queg	-3483
erted	-3484
▁catch	-3485
ueequeg	-3486
▁endeav	-3487
▁thirty	-3488
▁forehead	-3489
▁previous	-3490
ify	-3491
▁dan	-3492
champ	-3493
▁pill	-3494
▁Briggs	-3495
▁temper	-3496
▁fancied	-3497
▁interested	-3498
ift	-3499
!...	-3500
▁Char	-3501
▁restr	-3502
▁spect	-3503
▁triumph	-3504
▁remarked	-3505
▁apartment	-3506
▁Maximilian	-3507
▁excitement	-3508
ium	-3509
▁Or	-3510
chet	-3511
iber	-3512
▁gro	-3513
iable	-3514
▁decl	-3515
▁Saint	-3516
▁compre	-3517
▁crossed	-3518
▁accustomed	-3519
▁understanding	-3520
For	-3521
iter	-3522
ours	-3523
----"	-3524
▁boys	-3525
▁hide	-3526
▁below	-3527
▁arrest	-3528
▁sacrif	-3529
▁concern	-3530
▁illness	-3531
▁superior	-3532
▁Middlemarch	-3533
ds	-3534
All	-3535
▁mot	-3536
▁sen	-3537
▁obey	-3538
▁situ	-3539
iculty	-3540
▁blind	-3541
▁absence	-3542
▁picture	-3543
▁laughter	-3544
▁difficulty	-3545
oz	-3546
▁dom	-3547
▁blow	-3548
▁crying	-3549
▁Colonel	-3550
▁evident	-3551
▁kindness	-3552
dom	-3553
▁obv	-3554
▁sky	-3555
there	-3556
▁cred	-3557
lessly	-3558
▁alarm	-3559
▁painful	-3560
▁recognized	-3561
case	-3562
oura	-3563
▁city	-3564
▁comr	-3565
▁main	-3566
▁parent	-3567
▁Mercedes	-3568
af	-3569
▁ener	-3570
▁perp	-3571
▁grace	-3572
▁betray	-3573
▁wishes	-3574
▁signific	-3575
▁brilliant	-3576
▁Farebrother	-3577
▁handkerchief	-3578
▁mal	-3579
▁pit	-3580
▁Guards	-3581
▁served	-3582
▁earnest	-3583
▁ur	-3584
ouses	-3585
▁seek	-3586
iently	-3587
▁doesn	-3588
▁smoke	-3589
▁attent	-3590
▁gloomy	-3591
▁whales	-3592
▁supposed	-3593
▁addressed	-3594
Very	-3595
▁dam	-3596
▁debt	-3597
▁fate	-3598
▁grow	-3599
▁hind	-3600
▁loss	-3601
▁lives	-3602
▁spend	-3603
▁insult	-3604
▁paused	-3605
▁apparently	-3606
acle	-3607
ples	-3608
eless	-3609
iding	-3610
oking	-3611
▁sank	-3612
▁wore	-3613
▁absol	-3614
▁severe	-3615
▁calling	-3616
▁capital	-3617
▁station	-3618
▁Beauchamp	-3619
▁consequence	-3620
▁hy	-3621
▁key	-3622
▁horri	-3623
▁Vasili	-3624
▁explan	-3625
▁spread	-3626
▁finding	-3627
▁innocent	-3628
iven	-3629
▁cup	-3630
arest	-3631
▁wear	-3632
▁boots	-3633
▁frequ	-3634
▁agreed	-3635
▁breast	-3636
▁direct	-3637
▁interp	-3638
▁accompl	-3639
▁outside	-3640
▁unconscious	-3641
hest	-3642
▁due	-3643
▁dull	-3644
▁alive	-3645
▁hopes	-3646
▁summer	-3647
▁Jaggers	-3648
▁satisfaction	-3649
elve	-3650
▁clo	-3651
antic	-3652
▁capt	-3653
▁fail	-3654
▁pron	-3655
asc	-3656
Have	-3657
quis	-3658
▁thro	-3659
▁admit	-3660
▁indic	-3661
▁notes	-3662
▁higher	-3663
▁Russell	-3664
▁greatly	-3665
▁entrance	-3666
▁instance	-3667
III	-3668
aly	-3669
cil	-3670
illy	-3671
uten	-3672
icing	-3673
▁office	-3674
▁prosec	-3675
▁dignity	-3676
▁dressing	-3677
▁importance	-3678
arya	-3679
▁amb	-3680
ashing	-3681
▁Perhaps	-3682
▁discovered	-3683
▁extraordinary	-3684
ald	-3685
inct	-3686
rily	-3687
erved	-3688
▁hero	-3689
▁luck	-3690
▁stair	-3691
▁Having	-3692
▁assure	-3693
▁fifteen	-3694
▁succeeded	-3695
ipped	-3696
▁snow	-3697
▁nurse	-3698
▁saved	-3699
▁pounds	-3700
▁ourselves	-3701
hon	-3702
▁Du	-3703
olya	-3704
▁sav	-3705
▁annoy	-3706
▁shown	-3707
agement	-3708
▁search	-3709
Go	-3710
▁Fe	-3711
aunt	-3712
elly	-3713
orse	-3714
▁gest	-3715
▁grou	-3716
▁perm	-3717
▁phys	-3718
▁shot	-3719
▁aloud	-3720
▁class	-3721
▁storm	-3722
▁diamond	-3723
▁lighted	-3724
▁informed	-3725
▁relation	-3726
arb	-3727
▁civ	-3728
illing	-3729
▁empty	-3730
▁wants	-3731
ospital	-3732
▁bottom	-3733
▁custom	-3734
▁nearer	-3735
▁pardon	-3736
▁priest	-3737
▁mistaken	-3738
▁pointing	-3739
▁uns	-3740
▁Sper	-3741
▁sigh	-3742
▁experienced	-3743
ait	-3744
▁Mme	-3745
▁vex	-3746
ighed	-3747
stand	-3748
▁bold	-3749
▁stat	-3750
▁twelve	-3751
▁mistake	-3752
Mr	-3753
▁La	-3754
▁la	-3755
stone	-3756
▁Kolya	-3757
▁artic	-3758
▁clerk	-3759
▁cloak	-3760
▁remind	-3761
▁repres	-3762
▁undert	-3763
▁anxiety	-3764
▁growing	-3765
iny	-3766
ilar	-3767
▁Pol	-3768
▁wel	-3769
ption	-3770
▁cell	-3771
cerning	-3772
▁unfortun	-3773
▁somewhere	-3774
▁accompanied	-3775
▁Anat	-3776
▁amaz	-3777
▁phil	-3778
▁reach	-3779
▁stock	-3780
▁establ	-3781
▁utterly	-3782
HE	-3783
Of	-3784
choly	-3785
▁irre	-3786
▁mour	-3787
▁ended	-3788
▁lifted	-3789
▁entreat	-3790
▁whisper	-3791
▁regarded	-3792
umn	-3793
bbed	-3794
iture	-3795
▁equal	-3796
▁melan	-3797
lanchet	-3798
▁bottle	-3799
▁supper	-3800
▁imagination	-3801
▁Even	-3802
▁shri	-3803
▁vast	-3804
eneral	-3805
▁prove	-3806
▁stick	-3807
▁Anatole	-3808
▁However	-3809
▁expecting	-3810
por	-3811
uit	-3812
keep	-3813
armed	-3814
bbing	-3815
▁Went	-3816
▁aunt	-3817
▁brow	-3818
▁flew	-3819
▁flung	-3820
fortune	-3821
▁misery	-3822
▁tongue	-3823
▁carrying	-3824
▁intended	-3825
▁melancholy	-3826
▁Eur	-3827
▁cord	-3828
▁fart	-3829
▁exceed	-3830
▁playing	-3831
▁dreadful	-3832
uses	-3833
▁sla	-3834
▁exch	-3835
▁rain	-3836
▁tail	-3837
▁hurry	-3838
▁marsh	-3839
▁share	-3840
Are	-3841
ucc	-3842
wing	-3843
▁rum	-3844
▁diss	-3845
▁affect	-3846
▁degree	-3847
▁repeat	-3848
▁yellow	-3849
▁retired	-3850
▁declared	-3851
▁Wentworth	-3852
▁concerning	-3853
gan	-3854
firy	-3855
itin	-3856
▁Man	-3857
▁ere	-3858
oused	-3859
▁ease	-3860
▁ruin	-3861
racted	-3862
▁angel	-3863
▁throw	-3864
▁charge	-3865
▁played	-3866
▁support	-3867
▁coachman	-3868
gs	-3869
enge	-3870
quet	-3871
▁cott	-3872
▁hoped	-3873
▁taste	-3874
▁thrust	-3875
asm	-3876
gar	-3877
rang	-3878
rank	-3879
▁cho	-3880
▁env	-3881
▁fem	-3882
▁pra	-3883
▁crew	-3884
▁nine	-3885
▁safe	-3886
▁Biddy	-3887
▁build	-3888
▁refuse	-3889
▁anybody	-3890
▁leaning	-3891
▁refused	-3892
▁misfortune	-3893
As	-3894
iam	-3895
▁Ily	-3896
abeth	-3897
▁Good	-3898
▁inev	-3899
▁corre	-3900
▁instru	-3901
bray	-3902
ailov	-3903
astic	-3904
idrig	-3905
▁Rome	-3906
▁cook	-3907
ternal	-3908
▁forty	-3909
▁yield	-3910
izabeth	-3911
▁indign	-3912
▁eagerly	-3913
▁prevent	-3914
▁proceed	-3915
▁Planchet	-3916
▁official	-3917
idrigailov	-3918
▁Pro	-3919
▁ban	-3920
▁bor	-3921
▁fish	-3922
▁rare	-3923
▁rejo	-3924
urally	-3925
▁Marya	-3926
▁waist	-3927
▁Europe	-3928
▁unpleas	-3929
▁somewhat	-3930
▁disappoint	-3931
▁er	-3932
arse	-3933
this	-3934
▁Thou	-3935
▁game	-3936
▁orig	-3937
▁trees	-3938
▁circle	-3939
▁places	-3940
▁Porfiry	-3941
▁experience	-3942
aps	-3943
hum	-3944
ohn	-3945
isten	-3946
vation	-3947
▁amuse	-3948
looking	-3949
▁Debray	-3950
▁cheeks	-3951
▁advance	-3952
▁desired	-3953
▁nervous	-3954
▁profound	-3955
▁Svidrigailov	-3956
onc	-3957
hend	-3958
▁clean	-3959
▁abroad	-3960
▁begged	-3961
▁candle	-3962
▁uneasy	-3963
▁intense	-3964
▁education	-3965
acc	-3966
When	-3967
cies	-3968
igned	-3969
ivers	-3970
▁hurt	-3971
▁lawy	-3972
▁Darya	-3973
▁mater	-3974
▁river	-3975
▁tired	-3976
▁weeks	-3977
▁Street	-3978
▁burning	-3979
▁entering	-3980
▁military	-3981
plic	-3982
▁yard	-3983
▁advice	-3984
▁leading	-3985
▁Elizabeth	-3986
asped	-3987
ateau	-3988
ights	-3989
▁Look	-3990
inging	-3991
▁terms	-3992
theless	-3993
▁hatred	-3994
▁sought	-3995
▁visitors	-3996
▁explained	-3997
▁Il	-3998
estic	-3999
▁hill	-4000
▁lies	-4001
▁rank	-4002
arrass	-4003
▁adjut	-4004
▁honour	-4005
fl	-4006
▁Fl	-4007
▁sty	-4008
ental	-4009
umble	-4010
▁fold	-4011
▁gray	-4012
▁huss	-4013
▁warn	-4014
inence	-4015
olkons	-4016
▁Sharp	-4017
▁withd	-4018
▁double	-4019
▁gazing	-4020
▁reasons	-4021
wed	-4022
erem	-4023
▁Hel	-4024
▁Have	-4025
▁lear	-4026
ernand	-4027
▁disag	-4028
▁lines	-4029
▁mamma	-4030
natured	-4031
▁bridge	-4032
▁excuse	-4033
▁precise	-4034
▁violent	-4035
▁government	-4036
▁mysterious	-4037
▁possession	-4038
▁explanation	-4039
▁pan	-4040
▁smo	-4041
▁Stey	-4042
▁cann	-4043
▁enth	-4044
▁oper	-4045
▁brief	-4046
▁famous	-4047
▁proved	-4048
▁appears	-4049
▁details	-4050
▁farther	-4051
▁suffered	-4052
▁sympathy	-4053
▁hurriedly	-4054
oop	-4055
usi	-4056
▁ep	-4057
uing	-4058
▁Did	-4059
ember	-4060
▁song	-4061
arbuck	-4062
▁mercy	-4063
▁Steyne	-4064
▁needed	-4065
▁immense	-4066
▁request	-4067
▁showing	-4068
▁singing	-4069
▁visitor	-4070
▁touching	-4071
▁embarrass	-4072
▁interview	-4073
▁companions	-4074
▁delightful	-4075
▁approaching	-4076
duce	-4077
▁Can	-4078
▁deck	-4079
▁mild	-4080
▁obst	-4081
▁vale	-4082
akitin	-4083
ucking	-4084
▁delay	-4085
▁forest	-4086
▁Charles	-4087
▁invited	-4088
▁resumed	-4089
▁recalled	-4090
▁reflected	-4091
▁returning	-4092
▁positively	-4093
▁dry	-4094
▁lac	-4095
▁John	-4096
▁suit	-4097
▁wand	-4098
▁miles	-4099
▁hidden	-4100
▁hither	-4101
▁generous	-4102
▁shouting	-4103
▁possessed	-4104
▁prisoners	-4105
▁Musketeers	-4106
▁acquainted	-4107
▁difference	-4108
act	-4109
▁cop	-4110
▁lot	-4111
othed	-4112
▁exha	-4113
▁myst	-4114
▁cruel	-4115
▁credit	-4116
▁deeply	-4117
▁guests	-4118
▁wicked	-4119
▁curious	-4120
▁hanging	-4121
▁somehow	-4122
▁weather	-4123
▁bringing	-4124
▁neighbor	-4125
▁possibly	-4126
▁dangerous	-4127
▁cat	-4128
▁unm	-4129
▁win	-4130
▁Jane	-4131
▁lamp	-4132
atures	-4133
▁midst	-4134
▁speed	-4135
▁value	-4136
▁Rakitin	-4137
▁possess	-4138
▁upstairs	-4139
▁announced	-4140
▁mag	-4141
retch	-4142
▁Emmy	-4143
▁grad	-4144
▁hate	-4145
▁paces	-4146
▁spare	-4147
▁wound	-4148
athered	-4149
▁condem	-4150
▁enthusi	-4151
▁finally	-4152
▁quarrel	-4153
▁ordinary	-4154
▁staircase	-4155
dle	-4156
owd	-4157
rand	-4158
▁Ben	-4159
acher	-4160
▁Grig	-4161
▁comb	-4162
▁nodd	-4163
▁Somet	-4164
▁distr	-4165
▁major	-4166
▁pause	-4167
▁houses	-4168
▁poison	-4169
ertainly	-4170
▁falling	-4171
▁stepped	-4172
irm	-4173
azov	-4174
▁Two	-4175
▁consol	-4176
▁jumped	-4177
▁libert	-4178
▁useless	-4179
▁recollect	-4180
At	-4181
anti	-4182
▁Wal	-4183
▁vig	-4184
apart	-4185
arrow	-4186
ossim	-4187
range	-4188
▁mood	-4189
▁rend	-4190
▁benef	-4191
▁doors	-4192
▁grass	-4193
▁plans	-4194
▁sprang	-4195
▁winter	-4196
▁project	-4197
▁Starbuck	-4198
▁reproach	-4199
▁information	-4200
pir	-4201
urd	-4202
▁Ad	-4203
atis	-4204
ibly	-4205
they	-4206
ading	-4207
▁rise	-4208
amazov	-4209
orough	-4210
▁purch	-4211
▁shirt	-4212
▁favour	-4213
▁utmost	-4214
▁wealth	-4215
olkonski	-4216
▁Chateau	-4217
▁Grigory	-4218
▁address	-4219
▁arranged	-4220
▁Christian	-4221
▁otherwise	-4222
▁profession	-4223
Be	-4224
lt	-4225
pse	-4226
▁Hay	-4227
▁flo	-4228
rated	-4229
arling	-4230
ocking	-4231
▁claim	-4232
▁swear	-4233
oundrel	-4234
▁During	-4235
▁thorough	-4236
▁elb	-4237
gress	-4238
orous	-4239
venge	-4240
▁busy	-4241
▁chap	-4242
▁brain	-4243
▁haven	-4244
▁knife	-4245
▁vague	-4246
hearted	-4247
▁Fernand	-4248
▁criminal	-4249
▁presently	-4250
▁astonishment	-4251
oqu	-4252
▁cow	-4253
▁roy	-4254
ribut	-4255
which	-4256
▁drop	-4257
▁excl	-4258
▁Never	-4259
▁imper	-4260
▁gained	-4261
▁angrily	-4262
▁attitude	-4263
▁concealed	-4264
▁beforehand	-4265
gl	-4266
lly	-4267
▁Se	-4268
then	-4269
▁Bou	-4270
cknow	-4271
ocket	-4272
▁summ	-4273
▁Austri	-4274
▁prefer	-4275
▁sounds	-4276
▁described	-4277
▁tenderness	-4278
▁unpleasant	-4279
Did	-4280
cle	-4281
erent	-4282
illes	-4283
right	-4284
▁Such	-4285
▁names	-4286
▁calcul	-4287
▁perform	-4288
▁actually	-4289
▁glancing	-4290
▁produced	-4291
▁suspicion	-4292
▁surrounded	-4293
▁fu	-4294
iest	-4295
osop	-4296
anted	-4297
▁carp	-4298
▁bought	-4299
▁choose	-4300
▁couple	-4301
▁inward	-4302
▁liberty	-4303
▁regular	-4304
▁agitated	-4305
▁language	-4306
▁struggle	-4307
▁conviction	-4308
"--	-4309
isc	-4310
rees	-4311
iance	-4312
▁food	-4313
▁pair	-4314
ivered	-4315
▁match	-4316
▁acknow	-4317
▁contem	-4318
▁weight	-4319
▁conceal	-4320
▁younger	-4321
▁activity	-4322
▁drinking	-4323
aty	-4324
bid	-4325
▁--	-4326
icip	-4327
▁unw	-4328
ulous	-4329
▁argum	-4330
▁crown	-4331
▁dared	-4332
▁group	-4333
▁sorts	-4334
▁fortun	-4335
▁humili	-4336
▁pushed	-4337
▁resist	-4338
▁capable	-4339
▁foolish	-4340
▁torment	-4341
▁usually	-4342
▁gathered	-4343
▁slightest	-4344
zy	-4345
ara	-4346
▁Rue	-4347
▁gay	-4348
▁wat	-4349
▁guess	-4350
▁hotel	-4351
utation	-4352
▁unless	-4353
▁bearing	-4354
▁highest	-4355
▁proposed	-4356
▁Karamazov	-4357
▁gratitude	-4358
▁prosecutor	-4359
zed	-4360
ding	-4361
usha	-4362
▁Our	-4363
ample	-4364
gging	-4365
▁stro	-4366
▁trif	-4367
▁ways	-4368
ensive	-4369
▁valet	-4370
▁bedroom	-4371
▁flushed	-4372
▁unfortunate	-4373
Wh	-4374
.--	-4375
ourt	-4376
▁voy	-4377
▁wet	-4378
oring	-4379
▁Prov	-4380
areton	-4381
▁signs	-4382
▁walls	-4383
▁absurd	-4384
▁victim	-4385
▁fellows	-4386
▁comprehend	-4387
▁circumstance	-4388
quod	-4389
▁phr	-4390
▁More	-4391
▁hers	-4392
▁rage	-4393
keeper	-4394
▁cover	-4395
▁worst	-4396
▁Pequod	-4397
▁forgot	-4398
▁kindly	-4399
▁loving	-4400
▁settle	-4401
▁assured	-4402
▁working	-4403
▁Pavlovna	-4404
▁murderer	-4405
▁pictures	-4406
▁confusion	-4407
▁friendship	-4408
Ex	-4409
isp	-4410
▁ess	-4411
avalc	-4412
board	-4413
gment	-4414
▁born	-4415
▁dust	-4416
▁laws	-4417
▁pure	-4418
inated	-4419
▁royal	-4420
▁widow	-4421
▁desper	-4422
▁hearts	-4423
▁prepar	-4424
▁similar	-4425
▁disagree	-4426
▁involunt	-4427
▁philosop	-4428
▁scoundrel	-4429
▁situation	-4430
▁wonderful	-4431
▁astonished	-4432
▁resolution	-4433
▁Lu	-4434
▁Mi	-4435
▁bew	-4436
▁Hend	-4437
▁Still	-4438
▁portra	-4439
▁silver	-4440
▁manners	-4441
▁imagined	-4442
▁precious	-4443
▁Alexander	-4444
▁naturally	-4445
lin	-4446
olen	-4447
▁Are	-4448
▁Nor	-4449
▁ham	-4450
▁jew	-4451
ially	-4452
▁birth	-4453
▁fatal	-4454
▁revol	-4455
▁serve	-4456
fulness	-4457
▁Before	-4458
▁marked	-4459
▁wearing	-4460
uckingham	-4461
▁becoming	-4462
▁features	-4463
▁prospect	-4464
▁agitation	-4465
hev	-4466
iaz	-4467
sha	-4468
aleb	-4469
irty	-4470
llen	-4471
rous	-4472
▁Was	-4473
▁holy	-4474
▁huge	-4475
▁moon	-4476
▁boats	-4477
▁brave	-4478
▁resem	-4479
▁space	-4480
▁Winter	-4481
▁devoted	-4482
ma	-4483
▁shr	-4484
▁spo	-4485
▁wra	-4486
asing	-4487
▁star	-4488
▁South	-4489
▁feared	-4490
▁porter	-4491
▁General	-4492
▁ancient	-4493
▁plainly	-4494
▁sincere	-4495
▁demanded	-4496
▁independ	-4497
▁millions	-4498
▁Bolkonski	-4499
▁concluded	-4500
▁gradually	-4501
▁recovered	-4502
was	-4503
▁eh	-4504
oting	-4505
▁pick	-4506
▁rolled	-4507
▁streets	-4508
▁wishing	-4509
▁ignorant	-4510
▁minister	-4511
▁required	-4512
uish	-4513
▁Ali	-4514
▁ard	-4515
▁bod	-4516
▁fra	-4517
▁vol	-4518
▁Musg	-4519
▁join	-4520
▁absor	-4521
▁Church	-4522
▁firmly	-4523
▁obtain	-4524
▁William	-4525
▁escaped	-4526
▁removed	-4527
avalcanti	-4528
▁friendly	-4529
▁descended	-4530
▁furniture	-4531
▁necessity	-4532
▁recognize	-4533
▁considering	-4534
.,	-4535
osen	-4536
riet	-4537
▁Old	-4538
▁gent	-4539
ossack	-4540
▁Caleb	-4541
▁smell	-4542
▁endure	-4543
▁shadow	-4544
▁colonel	-4545
▁darling	-4546
▁reality	-4547
▁Buckingham	-4548
hal	-4549
ien	-4550
lov	-4551
▁Kat	-4552
▁Low	-4553
▁hun	-4554
▁isn	-4555
isher	-4556
▁flat	-4557
▁fulf	-4558
father	-4559
▁Baron	-4560
▁Cossack	-4561
▁governor	-4562
▁hastened	-4563
▁weakness	-4564
▁committed	-4565
▁Cavalcanti	-4566
One	-4567
apa	-4568
uce	-4569
geon	-4570
resp	-4571
▁Bag	-4572
▁Squ	-4573
lease	-4574
▁Sund	-4575
▁Tell	-4576
▁farm	-4577
▁facts	-4578
▁frame	-4579
▁greet	-4580
▁moral	-4581
▁trial	-4582
▁height	-4583
▁recomm	-4584
▁Hareton	-4585
▁compass	-4586
▁flowers	-4587
▁reflect	-4588
▁setting	-4589
▁Russians	-4590
bre	-4591
leg	-4592
aign	-4593
▁See	-4594
aches	-4595
pless	-4596
▁Bert	-4597
▁Bute	-4598
▁Duke	-4599
▁arch	-4600
▁bore	-4601
▁nurs	-4602
▁worn	-4603
▁overt	-4604
▁visible	-4605
▁visited	-4606
▁accident	-4607
▁obviously	-4608
▁sentiment	-4609
ob	-4610
Mer	-4611
ams	-4612
een	-4613
umb	-4614
five	-4615
kind	-4616
only	-4617
▁wed	-4618
agger	-4619
chook	-4620
▁cool	-4621
▁papa	-4622
▁purse	-4623
itating	-4624
▁intent	-4625
▁softly	-4626
▁raising	-4627
▁campaign	-4628
▁instinct	-4629
▁silently	-4630
▁poet	-4631
▁tear	-4632
▁Court	-4633
▁fetch	-4634
▁handed	-4635
▁savage	-4636
▁thanks	-4637
▁worked	-4638
▁adjutant	-4639
▁deceived	-4640
▁grateful	-4641
▁magnific	-4642
▁slightly	-4643
umblechook	-4644
▁household	-4645
▁increased	-4646
▁intellect	-4647
sm	-4648
ites	-4649
▁Jul	-4650
▁ble	-4651
acles	-4652
velop	-4653
▁dine	-4654
▁style	-4655
▁failed	-4656
▁blushed	-4657
▁disturb	-4658
▁gesture	-4659
▁univers	-4660
▁directed	-4661
▁extremely	-4662
▁absolutely	-4663
▁Pumblechook	-4664
bye	-4665
▁Ex	-4666
chin	-4667
cles	-4668
▁THE	-4669
▁bal	-4670
▁gle	-4671
oning	-4672
uccio	-4673
▁Lise	-4674
▁bend	-4675
▁fier	-4676
▁ride	-4677
▁subm	-4678
▁tempt	-4679
▁treas	-4680
▁Helene	-4681
▁finish	-4682
▁pursued	-4683
ification	-4684
▁Frenchman	-4685
▁exceedingly	-4686
De	-4687
vi	-4688
iece	-4689
▁mark	-4690
▁embra	-4691
▁lover	-4692
iveness	-4693
▁banker	-4694
▁duties	-4695
▁highly	-4696
▁sighed	-4697
lessness	-4698
▁alarmed	-4699
▁consent	-4700
▁parents	-4701
▁treated	-4702
▁stronger	-4703
▁execution	-4704
▁spiritual	-4705
Al	-4706
imm	-4707
kes	-4708
who	-4709
▁sac	-4710
antry	-4711
udden	-4712
▁keen	-4713
▁mast	-4714
▁conqu	-4715
▁takes	-4716
▁dining	-4717
▁narrow	-4718
▁patron	-4719
▁foreign	-4720
▁insisted	-4721
▁destroyed	-4722
By	-4723
nal	-4724
hens	-4725
ulse	-4726
▁Ber	-4727
inate	-4728
uously	-4729
▁cards	-4730
▁design	-4731
▁Rostovs	-4732
▁seeking	-4733
▁material	-4734
▁throwing	-4735
▁Bertuccio	-4736
▁confident	-4737
rem	-4738
ector	-4739
▁harpo	-4740
▁parts	-4741
▁refer	-4742
▁belief	-4743
▁flying	-4744
▁prayer	-4745
▁preced	-4746
▁hastily	-4747
▁accepted	-4748
▁delicate	-4749
▁everywhere	-4750
▁introduced	-4751
book	-4752
oubt	-4753
▁May	-4754
kward	-4755
▁heat	-4756
▁pipe	-4757
▁inhab	-4758
▁labor	-4759
uddenly	-4760
▁cannon	-4761
▁chosen	-4762
▁dreams	-4763
▁genius	-4764
▁helped	-4765
▁Englishman	-4766
▁motionless	-4767
sip	-4768
▁Ph	-4769
zing	-4770
▁Mik	-4771
▁tow	-4772
▁roof	-4773
▁agony	-4774
▁slept	-4775
▁driven	-4776
▁riding	-4777
▁sooner	-4778
▁Feather	-4779
▁enemies	-4780
▁abandoned	-4781
▁constantly	-4782
erc	-4783
fen	-4784
oci	-4785
ache	-4786
arks	-4787
enth	-4788
irst	-4789
rose	-4790
▁Har	-4791
▁scr	-4792
acity	-4793
▁assem	-4794
▁cries	-4795
▁delir	-4796
▁drank	-4797
▁gives	-4798
▁Lowick	-4799
▁afford	-4800
▁amount	-4801
▁ruined	-4802
▁assumed	-4803
▁curtain	-4804
▁example	-4805
▁thunder	-4806
▁affected	-4807
▁breaking	-4808
▁hospital	-4809
▁murdered	-4810
▁Bagration	-4811
▁Everything	-4812
▁engagement	-4813
ux	-4814
uel	-4815
▁Sem	-4816
affles	-4817
arenka	-4818
▁stout	-4819
▁train	-4820
▁venge	-4821
▁Hendon	-4822
▁joined	-4823
▁lovely	-4824
▁content	-4825
▁deliber	-4826
▁mounted	-4827
▁procure	-4828
▁stretched	-4829
▁admiration	-4830
▁distinctly	-4831
▁considerable	-4832
▁distinguished	-4833
when	-4834
rence	-4835
▁Ital	-4836
▁hang	-4837
▁shop	-4838
▁cabin	-4839
▁cerem	-4840
▁shudd	-4841
▁staff	-4842
respond	-4843
▁Ilusha	-4844
▁locked	-4845
▁polite	-4846
▁social	-4847
▁awkward	-4848
▁contrad	-4849
▁landlord	-4850
▁comfortable	-4851
▁disagreeable	-4852
An	-4853
ader	-4854
▁aid	-4855
▁iss	-4856
▁Vass	-4857
▁crit	-4858
▁doct	-4859
▁quit	-4860
▁dance	-4861
▁glory	-4862
▁indul	-4863
▁aspect	-4864
▁associ	-4865
▁estate	-4866
▁actions	-4867
▁Eminence	-4868
▁confused	-4869
▁constant	-4870
▁interests	-4871
Bec	-4872
▁gh	-4873
▁tit	-4874
▁Thus	-4875
riages	-4876
▁caval	-4877
▁enorm	-4878
▁exerc	-4879
▁shake	-4880
▁swall	-4881
▁whist	-4882
ruction	-4883
▁leaves	-4884
▁notion	-4885
▁stared	-4886
▁stayed	-4887
▁strict	-4888
▁tranqu	-4889
▁Raffles	-4890
▁pulling	-4891
▁Bonapart	-4892
▁contempl	-4893
▁correspond	-4894
▁possibility	-4895
Per	-4896
off	-4897
noon	-4898
▁Bal	-4899
▁ado	-4900
▁bag	-4901
place	-4902
▁amid	-4903
▁wise	-4904
▁brand	-4905
▁loves	-4906
Because	-4907
▁humble	-4908
▁beating	-4909
▁related	-4910
▁admitted	-4911
▁doubtless	-4912
▁conditions	-4913
▁reflection	-4914
▁ec	-4915
ieve	-4916
play	-4917
ueen	-4918
▁spr	-4919
▁lock	-4920
▁race	-4921
▁shed	-4922
icious	-4923
▁Julie	-4924
▁press	-4925
▁buried	-4926
▁coffee	-4927
▁contro	-4928
▁pieces	-4929
▁prompt	-4930
▁throat	-4931
▁monster	-4932
▁perplex	-4933
▁progress	-4934
▁trembled	-4935
▁wondered	-4936
yr	-4937
.'"	-4938
oms	-4939
▁Pa	-4940
eral	-4941
peak	-4942
▁der	-4943
▁fee	-4944
▁tum	-4945
eding	-4946
▁deed	-4947
▁cases	-4948
▁depth	-4949
ivering	-4950
onstant	-4951
▁gently	-4952
▁parted	-4953
▁Varenka	-4954
▁attract	-4955
▁distant	-4956
▁welcome	-4957
▁intently	-4958
▁striking	-4959
▁sacrifice	-4960
▁pronounced	-4961
God	-4962
oses	-4963
istic	-4964
ourse	-4965
▁arose	-4966
▁paint	-4967
▁subst	-4968
▁weary	-4969
▁Walter	-4970
▁advent	-4971
▁convey	-4972
▁longed	-4973
▁transp	-4974
▁convict	-4975
▁respons	-4976
▁weeping	-4977
▁belonged	-4978
▁goodness	-4979
▁powerful	-4980
▁whenever	-4981
▁represent	-4982
▁sufficient	-4983
▁Featherstone	-4984
▁New	-4985
▁rul	-4986
▁unl	-4987
▁Pres	-4988
▁cher	-4989
▁duke	-4990
▁gain	-4991
▁sour	-4992
▁beast	-4993
▁suppl	-4994
▁Pocket	-4995
▁pillow	-4996
▁thinks	-4997
▁efforts	-4998
▁science	-4999
▁helpless	-5000
▁intimate	-5001
▁religion	-5002
▁somebody	-5003
▁sensation	-5004
▁vengeance	-5005
see	-5006
rier	-5007
▁jaw	-5008
▁unp	-5009
▁eleg	-5010
▁wasn	-5011
▁Sperm	-5012
▁penet	-5013
▁shore	-5014
▁tight	-5015
▁energy	-5016
▁lackey	-5017
▁knocked	-5018
▁horrible	-5019
▁exhausted	-5020
▁neighbour	-5021
▁indifferent	-5022
com	-5023
With	-5024
iant	-5025
lebr	-5026
wall	-5027
▁Hen	-5028
▁Tur	-5029
▁bos	-5030
▁obt	-5031
ucket	-5032
▁Their	-5033
anwhile	-5034
▁leaned	-5035
▁relief	-5036
▁tavern	-5037
aughters	-5038
▁observe	-5039
▁Suddenly	-5040
▁jealousy	-5041
▁monaster	-5042
▁seriously	-5043
▁Su	-5044
▁ga	-5045
,--"	-5046
?...	-5047
enka	-5048
hsky	-5049
▁ice	-5050
▁frank	-5051
▁celebr	-5052
▁island	-5053
▁losing	-5054
▁picked	-5055
entlemen	-5056
▁guessed	-5057
▁heavens	-5058
▁patient	-5059
▁require	-5060
▁baroness	-5061
▁discover	-5062
▁noticing	-5063
▁portrait	-5064
▁movements	-5065
Av	-5066
cast	-5067
fact	-5068
lect	-5069
▁ing	-5070
attle	-5071
▁loft	-5072
▁rang	-5073
▁shru	-5074
▁cheek	-5075
▁march	-5076
▁Georgy	-5077
▁Heaven	-5078
▁article	-5079
▁decision	-5080
▁creatures	-5081
▁political	-5082
▁conclusion	-5083
Ren	-5084
asy	-5085
Will	-5086
enne	-5087
▁pier	-5088
▁torn	-5089
pelled	-5090
▁Sviaz	-5091
▁groan	-5092
▁Sunday	-5093
▁wretch	-5094
▁Italian	-5095
▁footman	-5096
▁approach	-5097
▁stopping	-5098
▁proceeded	-5099
▁z	-5100
igs	-5101
ipp	-5102
pon	-5103
rows	-5104
▁Com	-5105
▁mud	-5106
▁curs	-5107
▁fury	-5108
▁jack	-5109
Renaud	-5110
ulated	-5111
▁desir	-5112
▁final	-5113
Nothing	-5114
▁absent	-5115
▁flight	-5116
▁individ	-5117
▁inquiry	-5118
▁princip	-5119
▁sisters	-5120
▁suggest	-5121
▁attached	-5122
▁disgrace	-5123
▁preparing	-5124
▁magnificent	-5125
▁intelligence	-5126
▁Sc	-5127
Look	-5128
▁exh	-5129
▁pin	-5130
chair	-5131
overy	-5132
▁caut	-5133
▁test	-5134
ential	-5135
▁Would	-5136
▁depri	-5137
▁irres	-5138
▁queer	-5139
▁swift	-5140
▁strang	-5141
▁virtue	-5142
▁voyage	-5143
▁ridicul	-5144
▁staying	-5145
▁absorbed	-5146
▁disposed	-5147
▁examined	-5148
▁Sviazhsky	-5149
▁receiving	-5150
eps	-5151
net	-5152
Take	-5153
some	-5154
▁Alp	-5155
▁buy	-5156
▁reb	-5157
▁sev	-5158
▁sym	-5159
▁meth	-5160
asping	-5161
▁Again	-5162
▁adopt	-5163
▁merry	-5164
▁ascend	-5165
▁anticip	-5166
▁kissing	-5167
▁revenge	-5168
▁precisely	-5169
▁indifference	-5170
fs	-5171
cean	-5172
enie	-5173
hall	-5174
shaw	-5175
▁gar	-5176
▁betr	-5177
▁gown	-5178
▁holl	-5179
▁qual	-5180
▁tree	-5181
ifying	-5182
unning	-5183
▁bosom	-5184
▁manif	-5185
▁truly	-5186
▁attach	-5187
▁travel	-5188
▁chiefly	-5189
▁merchant	-5190
▁offended	-5191
▁perceive	-5192
▁pressing	-5193
▁appointed	-5194
▁exception	-5195
Can	-5196
apt	-5197
ria	-5198
▁oh	-5199
igne	-5200
stem	-5201
▁Him	-5202
▁rob	-5203
atych	-5204
▁chim	-5205
▁prud	-5206
▁task	-5207
▁toss	-5208
ugenie	-5209
▁gover	-5210
▁smart	-5211
▁Square	-5212
▁lately	-5213
▁Nothing	-5214
▁complex	-5215
▁remains	-5216
▁brothers	-5217
▁crossing	-5218
▁hitherto	-5219
▁judgment	-5220
▁rendered	-5221
▁Meanwhile	-5222
▁remaining	-5223
alt	-5224
dot	-5225
uzz	-5226
Dowd	-5227
ancy	-5228
ills	-5229
just	-5230
raph	-5231
glass	-5232
▁knee	-5233
▁rate	-5234
▁lively	-5235
▁plenty	-5236
▁fearful	-5237
▁respond	-5238
▁faithful	-5239
▁afternoon	-5240
▁connected	-5241
▁disturbed	-5242
Sir	-5243
rent	-5244
▁Gre	-5245
▁Lid	-5246
▁bran	-5247
▁guns	-5248
▁shaw	-5249
▁dirty	-5250
▁shape	-5251
▁stage	-5252
▁views	-5253
arnshaw	-5254
▁taught	-5255
▁driving	-5256
▁medical	-5257
▁remorse	-5258
▁Alpatych	-5259
▁humanity	-5260
▁quarters	-5261
▁concerned	-5262
▁suspected	-5263
▁commission	-5264
▁uneasiness	-5265
hay	-5266
cuse	-5267
evol	-5268
▁hay	-5269
enger	-5270
urely	-5271
▁sell	-5272
▁House	-5273
▁Peter	-5274
▁Mikhay	-5275
▁decide	-5276
▁lawyer	-5277
▁waters	-5278
Monsieur	-5279
▁Cadwall	-5280
▁happens	-5281
▁announce	-5282
▁definite	-5283
▁favorite	-5284
▁gracious	-5285
▁meanwhile	-5286
▁strangely	-5287
▁thoroughly	-5288
▁significance	-5289
Ind	-5290
aya	-5291
box	-5292
uct	-5293
Tell	-5294
ncle	-5295
aries	-5296
▁jail	-5297
▁ming	-5298
▁sire	-5299
▁civil	-5300
▁raise	-5301
utenant	-5302
▁coward	-5303
▁interf	-5304
▁mental	-5305
▁strike	-5306
▁useful	-5307
standing	-5308
▁stories	-5309
onstantin	-5310
▁breathing	-5311
▁monastery	-5312
▁frequently	-5313
▁remarkable	-5314
▁involuntarily	-5315
his	-5316
ule	-5317
down	-5318
long	-5319
▁rom	-5320
▁spl	-5321
ables	-5322
eling	-5323
ology	-5324
osure	-5325
▁clut	-5326
▁grie	-5327
▁lack	-5328
▁parl	-5329
▁acted	-5330
▁fatig	-5331
▁liber	-5332
▁named	-5333
▁silly	-5334
▁active	-5335
▁compar	-5336
▁inside	-5337
▁beloved	-5338
▁funeral	-5339
▁measure	-5340
▁steward	-5341
▁wanting	-5342
▁wedding	-5343
▁Earnshaw	-5344
▁anywhere	-5345
▁separated	-5346
▁connection	-5347
▁individual	-5348
▁permission	-5349
▁punishment	-5350
▁Cadwallader	-5351
▁consideration	-5352
dee	-5353
▁Dr	-5354
chan	-5355
seen	-5356
▁Car	-5357
▁bon	-5358
anity	-5359
imate	-5360
lovna	-5361
▁bull	-5362
▁inex	-5363
hether	-5364
▁Marfa	-5365
▁bench	-5366
▁minds	-5367
▁rough	-5368
▁eating	-5369
▁incomp	-5370
▁Eugenie	-5371
▁letting	-5372
▁comrades	-5373
▁infinite	-5374
▁solitary	-5375
▁Mikhaylovna	-5376
▁grandfather	-5377
--'	-5378
ais	-5379
hew	-5380
itz	-5381
▁Pl	-5382
▁Had	-5383
▁lin	-5384
▁oil	-5385
▁rad	-5386
icted	-5387
▁Hall	-5388
▁joke	-5389
▁rene	-5390
▁rock	-5391
▁wake	-5392
Indeed	-5393
lected	-5394
rienne	-5395
▁impro	-5396
▁coarse	-5397
▁fourth	-5398
▁sailor	-5399
▁dancing	-5400
▁selfish	-5401
▁Musgrove	-5402
▁domestic	-5403
▁harpoone	-5404
▁Bourienne	-5405
Re	-5406
sk	-5407
eem	-5408
ode	-5409
agin	-5410
form	-5411
ldom	-5412
▁odd	-5413
▁dogs	-5414
▁narr	-5415
▁loose	-5416
▁shock	-5417
▁upper	-5418
▁vivid	-5419
▁theory	-5420
▁careful	-5421
▁closely	-5422
▁collect	-5423
▁enormous	-5424
▁governess	-5425
▁conception	-5426
▁Av	-5427
held	-5428
plom	-5429
vant	-5430
▁Min	-5431
▁Obl	-5432
▁cro	-5433
▁hol	-5434
Thank	-5435
ugust	-5436
wenty	-5437
▁weap	-5438
isting	-5439
▁cared	-5440
▁inval	-5441
itution	-5442
▁admire	-5443
▁Another	-5444
▁district	-5445
▁frowning	-5446
▁galloped	-5447
▁carriages	-5448
▁childhood	-5449
▁compassion	-5450
▁reputation	-5451
▁affectionate	-5452
ON	-5453
▁.	-5454
yes	-5455
odya	-5456
▁pop	-5457
inent	-5458
itive	-5459
▁lest	-5460
▁risk	-5461
▁clock	-5462
▁scorn	-5463
▁Louisa	-5464
▁choice	-5465
▁method	-5466
▁mortal	-5467
▁partly	-5468
▁recover	-5469
Certainly	-5470
▁arrested	-5471
▁Musketeer	-5472
▁downstairs	-5473
▁attentively	-5474
rud	-5475
yon	-5476
oche	-5477
▁Pul	-5478
▁ren	-5479
cause	-5480
▁Gree	-5481
▁High	-5482
▁gaze	-5483
orable	-5484
▁badly	-5485
▁overw	-5486
▁Rostop	-5487
▁arrive	-5488
▁coffin	-5489
▁corrid	-5490
▁nodded	-5491
▁system	-5492
▁anguish	-5493
▁display	-5494
▁awaiting	-5495
▁distress	-5496
▁wondering	-5497
▁acquaintances	-5498
▁Far	-5499
▁Ves	-5500
▁wag	-5501
brary	-5502
verse	-5503
igneur	-5504
omfort	-5505
▁bride	-5506
▁guest	-5507
▁spark	-5508
▁eleven	-5509
▁points	-5510
▁render	-5511
▁seldom	-5512
▁amiable	-5513
▁opinions	-5514
▁strongly	-5515
▁frightful	-5516
▁waistcoat	-5517
▁previously	-5518
reg	-5519
▁ma	-5520
aker	-5521
yard	-5522
▁cig	-5523
▁fix	-5524
Avrig	-5525
Meran	-5526
icken	-5527
▁Both	-5528
▁lodg	-5529
▁nois	-5530
▁obsc	-5531
▁rapt	-5532
▁rush	-5533
▁tend	-5534
Listen	-5535
▁skill	-5536
▁trick	-5537
▁waves	-5538
Avrigny	-5539
natural	-5540
▁Grange	-5541
▁motive	-5542
▁surely	-5543
antucket	-5544
▁appreci	-5545
▁disgust	-5546
▁divided	-5547
▁inquire	-5548
▁shining	-5549
▁shouldn	-5550
▁staring	-5551
▁Oblonsky	-5552
▁blushing	-5553
▁departed	-5554
▁employed	-5555
▁obtained	-5556
▁Sometimes	-5557
▁authority	-5558
▁daughters	-5559
▁thousands	-5560
▁uncertain	-5561
▁Rostopchin	-5562
▁historians	-5563
▁ridiculous	-5564
AR	-5565
boy	-5566
rap	-5567
▁Gl	-5568
▁Sw	-5569
anty	-5570
berg	-5571
▁Thy	-5572
▁hal	-5573
▁ecst	-5574
cheria	-5575
▁Great	-5576
▁sperm	-5577
plicity	-5578
▁clouds	-5579
▁defend	-5580
▁wooden	-5581
▁cutting	-5582
▁process	-5583
▁quitted	-5584
▁sailors	-5585
▁inclined	-5586
▁Pulcheria	-5587
▁sufferings	-5588
▁disposition	-5589
rs	-5590
rim	-5591
aced	-5592
itor	-5593
ozha	-5594
pton	-5595
rors	-5596
▁log	-5597
urity	-5598
▁genu	-5599
attery	-5600
ipping	-5601
▁Mamma	-5602
Perhaps	-5603
eryozha	-5604
▁behold	-5605
▁career	-5606
▁darted	-5607
▁diplom	-5608
▁invest	-5609
▁correct	-5610
▁enjoyed	-5611
▁slipped	-5612
▁victory	-5613
▁devotion	-5614
▁guardian	-5615
▁learning	-5616
▁sentence	-5617
▁subjects	-5618
▁performed	-5619
why	-5620
will	-5621
▁Liz	-5622
▁aut	-5623
▁vel	-5624
erves	-5625
ieved	-5626
▁base	-5627
▁rail	-5628
▁wept	-5629
urance	-5630
▁Roche	-5631
▁beard	-5632
▁shone	-5633
▁title	-5634
ourable	-5635
▁corpse	-5636
▁forbid	-5637
▁mechan	-5638
▁secure	-5639
seigneur	-5640
▁dislike	-5641
▁drunken	-5642
▁managed	-5643
▁overcome	-5644
▁Nantucket	-5645
▁betrothed	-5646
▁religious	-5647
▁enthusiasm	-5648
cum	-5649
dig	-5650
Dear	-5651
▁bas	-5652
▁cas	-5653
▁liv	-5654
▁wip	-5655
▁Poor	-5656
▁bird	-5657
▁sees	-5658
▁Cathy	-5659
▁Those	-5660
▁champ	-5661
▁ocean	-5662
▁price	-5663
▁shade	-5664
▁works	-5665
▁gather	-5666
▁hungry	-5667
▁nation	-5668
▁palace	-5669
▁sovere	-5670
▁dragged	-5671
▁lightly	-5672
▁objects	-5673
▁parties	-5674
▁sounded	-5675
▁timidly	-5676
▁wrapped	-5677
▁animated	-5678
▁contrast	-5679
▁marrying	-5680
▁conducted	-5681
▁unconsciously	-5682
;"	-5683
IN	-5684
Mad	-5685
iat	-5686
iot	-5687
anks	-5688
etsy	-5689
iano	-5690
▁bid	-5691
▁fru	-5692
opsle	-5693
▁skin	-5694
▁unus	-5695
▁White	-5696
▁blank	-5697
▁owner	-5698
▁sport	-5699
▁store	-5700
ibility	-5701
▁Wopsle	-5702
▁calmly	-5703
▁column	-5704
▁disord	-5705
▁fisher	-5706
▁forces	-5707
▁habits	-5708
▁laying	-5709
▁poured	-5710
▁propos	-5711
▁library	-5712
▁pockets	-5713
▁addition	-5714
▁sensible	-5715
▁separate	-5716
▁sleeping	-5717
▁desperate	-5718
▁impatience	-5719
▁respectfully	-5720
ocr	-5721
▁ty	-5722
▁Ara	-5723
▁Bel	-5724
▁Sch	-5725
▁hut	-5726
▁club	-5727
▁impl	-5728
▁balls	-5729
▁daily	-5730
▁hated	-5731
▁Haydee	-5732
▁assass	-5733
▁dishon	-5734
▁reward	-5735
▁senses	-5736
▁forever	-5737
▁precaut	-5738
▁willing	-5739
▁betrayed	-5740
▁revealed	-5741
ral	-5742
give	-5743
uced	-5744
▁fla	-5745
▁orn	-5746
▁Take	-5747
▁drag	-5748
▁hell	-5749
▁tied	-5750
ouring	-5751
▁Betsy	-5752
▁Rodya	-5753
▁mourn	-5754
▁ships	-5755
▁stoop	-5756
▁animal	-5757
▁clergy	-5758
▁roused	-5759
▁visits	-5760
▁equally	-5761
▁sending	-5762
▁landlady	-5763
▁overwhel	-5764
▁attracted	-5765
OR	-5766
esh	-5767
▁od	-5768
dgar	-5769
▁Jon	-5770
▁bef	-5771
▁sus	-5772
Never	-5773
ailed	-5774
irmed	-5775
odino	-5776
▁Once	-5777
▁grav	-5778
▁oath	-5779
▁pred	-5780
▁sobs	-5781
▁subt	-5782
▁Edgar	-5783
▁Marse	-5784
▁color	-5785
▁inner	-5786
▁plate	-5787
▁pover	-5788
▁teach	-5789
quisite	-5790
▁Semyon	-5791
▁causes	-5792
▁native	-5793
▁smooth	-5794
▁consult	-5795
▁dismiss	-5796
▁impulse	-5797
▁members	-5798
▁regarding	-5799
▁violently	-5800
occ	-5801
▁et	-5802
cent	-5803
face	-5804
ican	-5805
phew	-5806
▁row	-5807
dotya	-5808
▁pace	-5809
▁plun	-5810
factor	-5811
▁flank	-5812
▁lofty	-5813
▁scand	-5814
ication	-5815
▁doubts	-5816
▁excess	-5817
▁footst	-5818
▁member	-5819
▁nephew	-5820
▁retire	-5821
▁sacred	-5822
▁benefit	-5823
▁genuine	-5824
▁inhabit	-5825
▁inspect	-5826
▁parting	-5827
▁poverty	-5828
▁prayers	-5829
▁torture	-5830
▁Borodino	-5831
▁distinct	-5832
▁Romanovna	-5833
▁contained	-5834
▁exquisite	-5835
▁assistance	-5836
ese	-5837
ugg	-5838
From	-5839
ante	-5840
oked	-5841
omes	-5842
sels	-5843
cript	-5844
table	-5845
▁Grim	-5846
▁cult	-5847
▁fasc	-5848
▁roll	-5849
▁tale	-5850
▁whip	-5851
anting	-5852
ension	-5853
▁crack	-5854
▁horiz	-5855
▁needs	-5856
▁stiff	-5857
ilities	-5858
▁beheld	-5859
▁bewild	-5860
▁lasted	-5861
▁paying	-5862
▁phrase	-5863
hensible	-5864
▁cavalry	-5865
▁comrade	-5866
▁eternal	-5867
▁mankind	-5868
▁remarks	-5869
▁building	-5870
▁extended	-5871
▁physical	-5872
▁reaching	-5873
▁treasure	-5874
▁pretended	-5875
▁sovereign	-5876
▁Marseilles	-5877
▁politeness	-5878
▁occasionally	-5879
▁Kir	-5880
ashev	-5881
athan	-5882
atory	-5883
owder	-5884
ighted	-5885
▁awake	-5886
▁confl	-5887
▁knock	-5888
▁ranks	-5889
▁straw	-5890
▁firing	-5891
▁hollow	-5892
attering	-5893
▁Grimaud	-5894
▁crushed	-5895
▁mystery	-5896
▁ringing	-5897
▁whaling	-5898
▁Seryozha	-5899
▁fastened	-5900
▁solitude	-5901
▁starting	-5902
▁ignorance	-5903
▁suggested	-5904
▁witnesses	-5905
▁indignation	-5906
str	-5907
▁ax	-5908
hett	-5909
umes	-5910
▁Luz	-5911
▁emp	-5912
cross	-5913
uding	-5914
▁Span	-5915
▁onto	-5916
▁ribb	-5917
▁sway	-5918
▁Lidia	-5919
▁Three	-5920
▁check	-5921
▁chose	-5922
▁exact	-5923
▁gates	-5924
▁squee	-5925
▁turns	-5926
▁Luzhin	-5927
▁bowing	-5928
▁female	-5929
▁hoping	-5930
▁manage	-5931
▁mighty	-5932
▁modern	-5933
▁reconc	-5934
▁unlike	-5935
▁warmly	-5936
▁introdu	-5937
▁Balashev	-5938
▁original	-5939
▁troubled	-5940
▁vanished	-5941
▁condemned	-5942
▁reception	-5943
▁invitation	-5944
mind	-5945
▁pil	-5946
▁tur	-5947
erene	-5948
▁Bath	-5949
▁pink	-5950
▁rust	-5951
▁sink	-5952
▁Faria	-5953
▁Jonah	-5954
▁dozen	-5955
▁porch	-5956
▁sixty	-5957
▁trous	-5958
▁vision	-5959
▁Avdotya	-5960
▁concent	-5961
▁furious	-5962
▁travell	-5963
▁venture	-5964
▁Petrovna	-5965
▁describe	-5966
▁incident	-5967
▁practice	-5968
▁messenger	-5969
▁forgetting	-5970
col	-5971
jud	-5972
ived	-5973
▁tot	-5974
asper	-5975
olens	-5976
stead	-5977
▁Amer	-5978
▁Next	-5979
▁grin	-5980
▁monk	-5981
▁valu	-5982
▁weep	-5983
brance	-5984
headed	-5985
lovsky	-5986
orious	-5987
velope	-5988
▁divor	-5989
▁fears	-5990
▁image	-5991
▁linen	-5992
▁wrink	-5993
▁contri	-5994
▁divine	-5995
▁inevit	-5996
▁magist	-5997
▁repuls	-5998
▁awaited	-5999
▁exasper	-6000
▁pistols	-6001
▁deserted	-6002
▁envelope	-6003
▁maintain	-6004
▁amusement	-6005
:--	-6006
pel	-6007
▁Bl	-6008
back	-6009
etto	-6010
▁bul	-6011
▁pot	-6012
mother	-6013
▁Chett	-6014
▁drops	-6015
▁medic	-6016
▁novel	-6017
▁rival	-6018
▁yards	-6019
▁encoun	-6020
▁haught	-6021
▁loudly	-6022
▁prayed	-6023
▁bending	-6024
▁cottage	-6025
▁cunning	-6026
▁invalid	-6027
▁lifting	-6028
▁succeed	-6029
▁audience	-6030
▁generals	-6031
▁midnight	-6032
▁restrain	-6033
▁Veslovsky	-6034
▁repeating	-6035
▁celebrated	-6036
▁remembering	-6037
▁nevertheless	-6038
▁recollection	-6039
rue	-6040
▁ug	-6041
Give	-6042
ails	-6043
▁Sam	-6044
▁cla	-6045
alled	-6046
aping	-6047
▁Cors	-6048
▁aven	-6049
▁clos	-6050
▁deny	-6051
▁jest	-6052
▁ling	-6053
▁dwell	-6054
▁elbow	-6055
▁stead	-6056
▁velve	-6057
▁accent	-6058
▁anyway	-6059
▁esteem	-6060
▁fields	-6061
▁folded	-6062
▁hinder	-6063
▁modest	-6064
▁signed	-6065
▁blessing	-6066
▁accompany	-6067
▁honorable	-6068
▁respected	-6069
▁Dmitrievna	-6070
▁Konstantin	-6071
▁confession	-6072
▁difficulties	-6073
och	-6074
rog	-6075
▁Any	-6076
▁fow	-6077
liked	-6078
otted	-6079
▁bree	-6080
▁glit	-6081
▁heir	-6082
▁rude	-6083
▁silk	-6084
▁brown	-6085
▁docum	-6086
▁slave	-6087
▁repent	-6088
▁whence	-6089
▁heavily	-6090
▁hussars	-6091
▁message	-6092
▁corridor	-6093
▁likewise	-6094
▁reminded	-6095
▁amazement	-6096
▁confessed	-6097
▁delivered	-6098
▁persuaded	-6099
▁remembrance	-6100
gu	-6101
can	-6102
edy	-6103
▁Te	-6104
Only	-6105
▁Mat	-6106
▁dun	-6107
aveta	-6108
hetic	-6109
woman	-6110
▁dawn	-6111
▁eyeb	-6112
▁mult	-6113
▁pros	-6114
utions	-6115
▁Flask	-6116
▁saint	-6117
▁shawl	-6118
▁exclam	-6119
▁income	-6120
▁Heights	-6121
▁persist	-6122
▁scandal	-6123
▁accounts	-6124
▁attended	-6125
▁continue	-6126
▁fighting	-6127
▁patience	-6128
▁provided	-6129
▁singular	-6130
▁Bonaparte	-6131
▁advancing	-6132
▁fortnight	-6133
▁inquiries	-6134
▁occasions	-6135
▁prevented	-6136
▁occupation	-6137
▁simplicity	-6138
▁unexpectedly	-6139
▁communication	-6140
;--	-6141
rou	-6142
▁Kr	-6143
omen	-6144
▁gos	-6145
▁lux	-6146
▁Mich	-6147
▁shan	-6148
▁term	-6149
acious	-6150
▁forms	-6151
▁ghost	-6152
▁level	-6153
▁owing	-6154
▁stars	-6155
▁stuff	-6156
chamber	-6157
▁saddle	-6158
▁season	-6159
▁declare	-6160
▁doorway	-6161
▁marshal	-6162
▁realized	-6163
▁essential	-6164
▁impatient	-6165
▁intervals	-6166
AN	-6167
afe	-6168
your	-6169
▁Bez	-6170
▁sha	-6171
ilies	-6172
udder	-6173
▁Fair	-6174
▁edge	-6175
▁soup	-6176
▁ugly	-6177
itious	-6178
olensk	-6179
ossima	-6180
▁First	-6181
▁frost	-6182
▁incon	-6183
▁score	-6184
▁Parfen	-6185
▁easier	-6186
▁intend	-6187
▁obeyed	-6188
▁Chettam	-6189
▁enchant	-6190
▁encoura	-6191
▁lodging	-6192
▁disliked	-6193
▁embraced	-6194
▁feverish	-6195
▁answering	-6196
▁observing	-6197
▁principal	-6198
▁consolation	-6199
▁sufficiently	-6200
amb	-6201
pin	-6202
▁Kal	-6203
▁lip	-6204
▁lit	-6205
▁tom	-6206
!..."	-6207
iving	-6208
occup	-6209
▁Nast	-6210
▁dise	-6211
▁duel	-6212
▁neat	-6213
▁drown	-6214
▁risen	-6215
certain	-6216
▁condes	-6217
▁hiding	-6218
▁incred	-6219
▁market	-6220
▁nights	-6221
▁vanity	-6222
▁admired	-6223
▁blessed	-6224
▁convuls	-6225
▁costume	-6226
▁readily	-6227
▁rolling	-6228
▁seeming	-6229
▁Smolensk	-6230
▁childish	-6231
▁irresist	-6232
▁uncomfort	-6233
▁apartments	-6234
▁discussion	-6235
▁hesitation	-6236
▁intentions	-6237
▁expectation	-6238
▁Parfenovitch	-6239
▁arrangements	-6240
▁instructions	-6241
ox	-6242
cip	-6243
oir	-6244
eres	-6245
icar	-6246
ilst	-6247
▁Thr	-6248
▁sar	-6249
▁unb	-6250
erton	-6251
press	-6252
uming	-6253
▁dece	-6254
▁mate	-6255
▁sang	-6256
▁sche	-6257
asting	-6258
▁Italy	-6259
▁elect	-6260
▁inher	-6261
▁insol	-6262
▁organ	-6263
▁swell	-6264
▁urged	-6265
▁burned	-6266
▁facing	-6267
▁insist	-6268
▁prodig	-6269
▁signal	-6270
▁wholly	-6271
▁Without	-6272
▁altered	-6273
▁awfully	-6274
▁develop	-6275
▁flashed	-6276
▁formerly	-6277
▁persuade	-6278
▁surround	-6279
▁confirmed	-6280
▁shuddered	-6281
▁directions	-6282
▁inevitable	-6283
withstanding	-6284
▁consequently	-6285
IS	-6286
arl	-6287
sey	-6288
▁ic	-6289
agne	-6290
ford	-6291
hail	-6292
iend	-6293
wick	-6294
▁ate	-6295
▁lan	-6296
▁lat	-6297
after	-6298
cherb	-6299
onder	-6300
▁damp	-6301
▁hadn	-6302
isions	-6303
liness	-6304
▁Karen	-6305
▁blows	-6306
▁haunt	-6307
▁produ	-6308
▁spout	-6309
▁upset	-6310
▁abrupt	-6311
▁provin	-6312
fortunes	-6313
▁degrees	-6314
▁secrets	-6315
▁province	-6316
▁resolute	-6317
▁enjoyment	-6318
▁qualities	-6319
▁responded	-6320
▁statement	-6321
▁established	-6322
ann	-6323
ata	-6324
amet	-6325
lets	-6326
▁fil	-6327
▁hit	-6328
▁hyp	-6329
asket	-6330
laced	-6331
▁Berg	-6332
▁degr	-6333
▁obed	-6334
▁ours	-6335
▁slip	-6336
▁stif	-6337
ground	-6338
minded	-6339
ortion	-6340
▁Gaunt	-6341
▁Smith	-6342
▁built	-6343
▁debts	-6344
▁dined	-6345
▁maint	-6346
▁merit	-6347
▁screw	-6348
raction	-6349
▁amused	-6350
▁powers	-6351
▁source	-6352
▁abandon	-6353
▁exagger	-6354
▁majesty	-6355
▁million	-6356
▁protect	-6357
▁argument	-6358
▁exercise	-6359
▁infantry	-6360
▁restored	-6361
▁acknowled	-6362
▁destruction	-6363
lle	-6364
asya	-6365
kers	-6366
▁Cam	-6367
▁Con	-6368
▁sne	-6369
ukhov	-6370
▁Brit	-6371
▁Tush	-6372
▁cham	-6373
▁insp	-6374
▁rule	-6375
▁scru	-6376
twenty	-6377
▁flour	-6378
▁piano	-6379
▁quant	-6380
▁sadly	-6381
stained	-6382
version	-6383
▁Edward	-6384
▁fairly	-6385
▁accused	-6386
▁benevol	-6387
▁pursuit	-6388
▁surface	-6389
▁ceremony	-6390
▁compared	-6391
▁probable	-6392
▁troubles	-6393
▁withdraw	-6394
▁furnished	-6395
▁Providence	-6396
▁struggling	-6397
mir	-6398
ohl	-6399
rah	-6400
grat	-6401
more	-6402
▁ens	-6403
▁god	-6404
▁rig	-6405
▁shy	-6406
▁sup	-6407
▁vac	-6408
asted	-6409
odion	-6410
▁Hohl	-6411
▁Many	-6412
▁hath	-6413
verted	-6414
▁birds	-6415
▁feels	-6416
▁folly	-6417
▁guide	-6418
▁mixed	-6419
▁shoes	-6420
▁trace	-6421
emember	-6422
▁Mihail	-6423
▁square	-6424
▁stands	-6425
▁glances	-6426
▁instrum	-6427
▁nearest	-6428
▁prosper	-6429
▁Hohlakov	-6430
▁Lizaveta	-6431
▁anxiously	-6432
▁impressed	-6433
▁indicated	-6434
▁distinguish	-6435
▁embarrassed	-6436
▁misfortunes	-6437
▁accomplished	-6438
oni	-6439
rav	-6440
▁Ts	-6441
▁Cro	-6442
▁Dan	-6443
▁mat	-6444
▁saf	-6445
ators	-6446
▁Abbe	-6447
▁agon	-6448
▁defe	-6449
▁fain	-6450
▁grim	-6451
▁lone	-6452
▁moan	-6453
leness	-6454
ularly	-6455
▁Greek	-6456
▁flesh	-6457
▁lodge	-6458
umbling	-6459
▁stones	-6460
▁control	-6461
▁feather	-6462
▁lessons	-6463
▁smoking	-6464
Gentlemen	-6465
▁bitterly	-6466
▁memories	-6467
▁relative	-6468
▁earnestly	-6469
▁exchanged	-6470
▁president	-6471
▁secretary	-6472
▁unnatural	-6473
▁interposed	-6474
▁magistrate	-6475
▁independent	-6476
▁observation	-6477
era	-6478
ids	-6479
rif	-6480
▁je	-6481
idel	-6482
▁Pal	-6483
▁Sat	-6484
▁ain	-6485
▁lun	-6486
▁brid	-6487
▁chin	-6488
▁disd	-6489
▁ends	-6490
▁flag	-6491
▁heed	-6492
▁prem	-6493
umbled	-6494
▁Green	-6495
▁incap	-6496
▁pains	-6497
▁serge	-6498
▁sunsh	-6499
humored	-6500
ouncing	-6501
▁Indeed	-6502
▁assert	-6503
▁feeble	-6504
▁rarely	-6505
▁rested	-6506
▁smiles	-6507
▁stolen	-6508
ceptible	-6509
▁Baronet	-6510
▁candles	-6511
▁congrat	-6512
▁figures	-6513
▁kingdom	-6514
▁shudder	-6515
▁attacked	-6516
▁families	-6517
▁snatched	-6518
▁ascertain	-6519
▁contented	-6520
▁examining	-6521
▁lightning	-6522
▁particulars	-6523
▁uncomfortable	-6524
fy	-6525
unk	-6526
oyal	-6527
▁Bet	-6528
enter	-6529
lying	-6530
ppino	-6531
▁Comm	-6532
▁bund	-6533
▁earl	-6534
▁glim	-6535
▁pled	-6536
▁subd	-6537
▁subs	-6538
illery	-6539
▁Since	-6540
▁hence	-6541
▁solic	-6542
ulation	-6543
▁Island	-6544
▁apolog	-6545
▁golden	-6546
▁praise	-6547
▁punish	-6548
▁reluct	-6549
utenberg	-6550
▁Ilyitch	-6551
▁dearest	-6552
▁desires	-6553
▁elegant	-6554
▁frowned	-6555
▁improve	-6556
▁seizing	-6557
▁Bezukhov	-6558
▁eyebrows	-6559
▁insulted	-6560
▁investig	-6561
▁lodgings	-6562
▁pistoles	-6563
▁services	-6564
▁consisted	-6565
IV	-6566
omy	-6567
oul	-6568
bing	-6569
four	-6570
ival	-6571
past	-6572
spap	-6573
▁fol	-6574
▁gig	-6575
▁tap	-6576
ushka	-6577
▁bows	-6578
▁grey	-6579
▁rear	-6580
▁shel	-6581
worthy	-6582
▁Canty	-6583
▁cloth	-6584
▁decor	-6585
▁exped	-6586
▁opera	-6587
▁stret	-6588
▁vexed	-6589
ributed	-6590
▁conven	-6591
▁desert	-6592
▁lights	-6593
▁perpet	-6594
▁rights	-6595
▁saving	-6596
▁specul	-6597
▁velvet	-6598
▁becomes	-6599
▁chimney	-6600
▁produce	-6601
▁changing	-6602
▁composed	-6603
▁division	-6604
▁commanded	-6605
▁passionate	-6606
▁personally	-6607
▁compliments	-6608
▁consequences	-6609
ED	-6610
EN	-6611
ica	-6612
▁Co	-6613
asov	-6614
pled	-6615
rois	-6616
▁bol	-6617
▁mel	-6618
itate	-6619
itski	-6620
▁fled	-6621
▁oars	-6622
ulting	-6623
▁guilt	-6624
▁liter	-6625
▁monks	-6626
▁reass	-6627
▁reign	-6628
▁Master	-6629
▁gossip	-6630
▁hunger	-6631
▁hussar	-6632
▁hyster	-6633
▁joyful	-6634
▁notary	-6635
▁reject	-6636
▁Peppino	-6637
▁crowded	-6638
▁divorce	-6639
▁doctors	-6640
▁expense	-6641
▁mingled	-6642
▁newspap	-6643
▁seconds	-6644
▁Nastasya	-6645
▁armchair	-6646
▁daylight	-6647
▁interval	-6648
▁belonging	-6649
▁immediate	-6650
▁senseless	-6651
▁benefactor	-6652
▁expressing	-6653
▁suspicions	-6654
▁intelligent	-6655
azz	-6656
rec	-6657
kaya	-6658
▁dil	-6659
▁dumb	-6660
▁mach	-6661
▁milk	-6662
▁calls	-6663
▁cares	-6664
▁exert	-6665
▁humor	-6666
▁theat	-6667
▁Rodion	-6668
▁beaten	-6669
▁freely	-6670
▁intrig	-6671
▁amusing	-6672
▁conject	-6673
▁harness	-6674
▁hideous	-6675
▁madness	-6676
▁painted	-6677
▁plunged	-6678
▁restore	-6679
▁sharply	-6680
▁sternly	-6681
▁dissatis	-6682
▁uttering	-6683
▁discovery	-6684
▁interpret	-6685
min	-6686
rin	-6687
Alas	-6688
ampa	-6689
▁sed	-6690
faced	-6691
▁Dick	-6692
▁desk	-6693
▁pond	-6694
▁seas	-6695
▁Ellen	-6696
▁ahead	-6697
▁exhib	-6698
▁flash	-6699
▁outer	-6700
▁waved	-6701
▁August	-6702
▁brandy	-6703
▁burden	-6704
▁critic	-6705
▁flower	-6706
▁quarre	-6707
▁uncomm	-6708
▁amongst	-6709
▁cordial	-6710
▁examine	-6711
▁privile	-6712
▁stirred	-6713
▁unusual	-6714
▁delirium	-6715
▁offering	-6716
▁screamed	-6717
▁collected	-6718
▁hesitated	-6719
▁attachment	-6720
▁respectable	-6721
▁disappointed	-6722
any	-6723
kov	-6724
nch	-6725
▁Ap	-6726
VIII	-6727
half	-6728
▁Sht	-6729
▁coo	-6730
▁owe	-6731
Which	-6732
achel	-6733
▁rope	-6734
▁rout	-6735
ametov	-6736
ourage	-6737
▁brows	-6738
▁eloqu	-6739
▁fired	-6740
▁groom	-6741
▁likes	-6742
▁older	-6743
▁souls	-6744
▁swore	-6745
▁depths	-6746
▁lesson	-6747
▁prejud	-6748
▁steady	-6749
▁grounds	-6750
▁leather	-6751
▁portion	-6752
▁profess	-6753
▁pushing	-6754
▁quality	-6755
▁tremble	-6756
▁worried	-6757
▁Everyone	-6758
▁numerous	-6759
rehensible	-6760
▁procureur	-6761
▁principles	-6762
▁appointment	-6763
bury	-6764
camp	-6765
rumm	-6766
▁nin	-6767
▁vic	-6768
aging	-6769
istak	-6770
▁Like	-6771
▁gets	-6772
▁mant	-6773
▁mare	-6774
▁rent	-6775
akened	-6776
master	-6777
▁Vampa	-6778
▁carts	-6779
▁chain	-6780
▁grant	-6781
▁thief	-6782
▁Indian	-6783
▁dispos	-6784
▁missed	-6785
▁repose	-6786
▁waving	-6787
▁avoided	-6788
▁clasped	-6789
▁commiss	-6790
▁earlier	-6791
▁teacher	-6792
▁quantity	-6793
▁severely	-6794
▁valuable	-6795
▁eagerness	-6796
▁happening	-6797
▁objection	-6798
▁treatment	-6799
▁disappointment	-6800
";	-6801
vre	-6802
lers	-6803
roid	-6804
rust	-6805
vert	-6806
▁Kuz	-6807
Every	-6808
ulate	-6809
▁beer	-6810
▁clim	-6811
▁fant	-6812
▁tore	-6813
icated	-6814
manuel	-6815
rummle	-6816
usions	-6817
▁bones	-6818
▁fiend	-6819
▁serfs	-6820
▁solid	-6821
▁appeal	-6822
▁centre	-6823
▁crimes	-6824
▁dismal	-6825
▁fought	-6826
▁jacket	-6827
▁thread	-6828
▁weapon	-6829
▁Drummle	-6830
▁cleared	-6831
▁gallant	-6832
▁hunting	-6833
▁killing	-6834
▁masters	-6835
▁placing	-6836
▁properly	-6837
▁sunshine	-6838
▁unmistak	-6839
▁ventured	-6840
▁vexation	-6841
▁believing	-6842
▁preferred	-6843
▁reckoning	-6844
▁recommend	-6845
▁supposing	-6846
▁tormented	-6847
▁complexion	-6848
▁glittering	-6849
▁sensations	-6850
ES	-6851
▁Er	-6852
▁Mo	-6853
gent	-6854
▁sly	-6855
Shall	-6856
anced	-6857
enses	-6858
ovich	-6859
▁mead	-6860
▁resc	-6861
00,000	-6862
▁alike	-6863
▁cough	-6864
▁grasp	-6865
▁marve	-6866
▁suite	-6867
▁surre	-6868
▁tells	-6869
ossimov	-6870
▁assume	-6871
▁closer	-6872
▁deeper	-6873
▁dismay	-6874
▁persec	-6875
▁resour	-6876
▁safety	-6877
▁stream	-6878
▁checked	-6879
▁existed	-6880
▁glasses	-6881
▁landing	-6882
▁Cossacks	-6883
▁dropping	-6884
▁trousers	-6885
▁compelled	-6886
▁favourite	-6887
▁painfully	-6888
▁bewildered	-6889
▁contradict	-6890
▁spectacles	-6891
▁forgiveness	-6892
▁inhabitants	-6893
IL	-6894
ael	-6895
hic	-6896
met	-6897
oes	-6898
oft	-6899
omin	-6900
urov	-6901
ussi	-6902
▁Baz	-6903
▁Bog	-6904
uster	-6905
▁leis	-6906
▁peep	-6907
▁puff	-6908
Excuse	-6909
▁chall	-6910
▁infer	-6911
▁mustn	-6912
▁tones	-6913
▁acting	-6914
▁gloves	-6915
▁reader	-6916
▁whilst	-6917
cherbats	-6918
▁Austria	-6919
▁adopted	-6920
▁applied	-6921
▁created	-6922
▁dreaded	-6923
▁fatigue	-6924
▁gravity	-6925
▁harpoon	-6926
▁reports	-6927
▁sinking	-6928
▁commence	-6929
▁contents	-6930
▁external	-6931
▁sergeant	-6932
▁neighbors	-6933
▁terrified	-6934
▁Romanovitch	-6935
eds	-6936
gin	-6937
ste	-6938
▁En	-6939
chev	-6940
isht	-6941
▁Fin	-6942
pinay	-6943
▁Give	-6944
▁Hind	-6945
▁rags	-6946
Really	-6947
▁polic	-6948
▁revel	-6949
▁toler	-6950
ression	-6951
▁autumn	-6952
▁coldly	-6953
▁indisp	-6954
▁jailer	-6955
▁labore	-6956
▁reform	-6957
▁talent	-6958
▁thirst	-6959
▁behaved	-6960
▁crimson	-6961
▁miracle	-6962
▁parlour	-6963
▁whither	-6964
▁Moreover	-6965
▁mourning	-6966
▁preoccup	-6967
▁softened	-6968
▁tenderly	-6969
▁Gutenberg	-6970
▁continual	-6971
▁footsteps	-6972
▁irritated	-6973
▁personage	-6974
▁historical	-6975
▁maintained	-6976
▁respectful	-6977
▁Shtcherbats	-6978
▁reflections	-6979
▁preparations	-6980
▁notwithstanding	-6981
His	-6982
oos	-6983
Wait	-6984
enes	-6985
iate	-6986
port	-6987
text	-6988
▁deb	-6989
▁fer	-6990
smith	-6991
throp	-6992
urred	-6993
▁coin	-6994
▁emer	-6995
▁fren	-6996
▁idle	-6997
▁lift	-6998
▁sons	-6999
Epinay	-7000
ounted	-7001
▁alter	-7002
▁invis	-7003
▁chairs	-7004
▁extent	-7005
▁musket	-7006
▁sentin	-7007
▁Barrois	-7008
▁Spanish	-7009
▁charged	-7010
▁comprom	-7011
▁student	-7012
▁thanked	-7013
▁warning	-7014
▁manifest	-7015
▁presents	-7016
▁champagne	-7017
▁fortunate	-7018
▁persisted	-7019
▁quivering	-7020
▁universal	-7021
▁threatened	-7022
▁inclination	-7023
▁expectations	-7024
▁determination	-7025
isk	-7026
mon	-7027
▁Bo	-7028
▁Im	-7029
arov	-7030
bull	-7031
char	-7032
ming	-7033
▁fac	-7034
apsed	-7035
owner	-7036
▁City	-7037
▁fill	-7038
▁hole	-7039
▁hook	-7040
▁meek	-7041
▁sand	-7042
▁thri	-7043
▁tiny	-7044
▁wolf	-7045
rewell	-7046
▁Croft	-7047
▁Which	-7048
▁corps	-7049
▁fruit	-7050
▁indef	-7051
▁pitch	-7052
▁print	-7053
▁wrath	-7054
reement	-7055
▁button	-7056
▁mutual	-7057
▁tempor	-7058
▁waiter	-7059
▁Project	-7060
▁confirm	-7061
▁gravely	-7062
▁prepare	-7063
▁pretend	-7064
▁propose	-7065
▁radiant	-7066
▁Emmanuel	-7067
▁branches	-7068
▁disorder	-7069
▁farewell	-7070
▁moreover	-7071
▁purchase	-7072
▁violence	-7073
▁Southdown	-7074
▁clergyman	-7075
▁complaint	-7076
▁supported	-7077
▁compliment	-7078
▁questioned	-7079
▁acknowledge	-7080
▁examination	-7081
▁threatening	-7082
▁neighborhood	-7083
▁establishment	-7084
alia	-7085
gain	-7086
okes	-7087
olom	-7088
usal	-7089
▁Fer	-7090
ashes	-7091
heard	-7092
ikhon	-7093
umber	-7094
▁bond	-7095
▁cash	-7096
▁refr	-7097
▁subl	-7098
cribed	-7099
▁cease	-7100
▁chase	-7101
▁illum	-7102
▁actual	-7103
▁danced	-7104
▁dashed	-7105
▁incess	-7106
▁naught	-7107
▁subtle	-7108
▁united	-7109
▁Whether	-7110
▁aroused	-7111
▁battery	-7112
▁connect	-7113
▁embroid	-7114
▁pretext	-7115
▁resting	-7116
▁acquired	-7117
▁delicacy	-7118
▁nobility	-7119
▁shooting	-7120
▁wherever	-7121
▁apprehens	-7122
▁arguments	-7123
▁practical	-7124
▁principle	-7125
▁sincerely	-7126
▁generosity	-7127
▁superiority	-7128
▁Nevertheless	-7129
Ch	-7130
OO	-7131
ipe	-7132
obe	-7133
Just	-7134
Poor	-7135
time	-7136
wood	-7137
▁dig	-7138
▁pup	-7139
▁ske	-7140
erick	-7141
iring	-7142
iusov	-7143
piece	-7144
▁buff	-7145
▁fund	-7146
▁park	-7147
▁seam	-7148
▁tomb	-7149
everal	-7150
▁Grand	-7151
▁arist	-7152
▁bloom	-7153
▁borne	-7154
▁scold	-7155
▁scrut	-7156
▁waste	-7157
▁Little	-7158
▁Tikhon	-7159
▁humour	-7160
▁lonely	-7161
▁morrow	-7162
▁proble	-7163
▁shouts	-7164
▁wheels	-7165
piration	-7166
sibility	-7167
▁bottles	-7168
▁deliver	-7169
▁nursery	-7170
▁despised	-7171
▁exchange	-7172
▁executed	-7173
▁summoned	-7174
▁artillery	-7175
▁certainty	-7176
▁mountains	-7177
▁travelling	-7178
▁description	-7179
ips	-7180
lac	-7181
vin	-7182
aise	-7183
edly	-7184
emed	-7185
issy	-7186
nigs	-7187
uite	-7188
▁Hon	-7189
▁Hor	-7190
▁mix	-7191
▁sna	-7192
▁stu	-7193
agues	-7194
anski	-7195
hered	-7196
▁Moby	-7197
▁abst	-7198
▁bust	-7199
▁elev	-7200
▁lads	-7201
▁page	-7202
▁puzz	-7203
▁unre	-7204
▁vice	-7205
rietta	-7206
▁Place	-7207
▁disgu	-7208
▁fence	-7209
▁gaily	-7210
▁holid	-7211
▁keeps	-7212
▁Miusov	-7213
▁beings	-7214
▁hanged	-7215
▁hearth	-7216
▁origin	-7217
▁powder	-7218
▁remove	-7219
▁counsel	-7220
▁counted	-7221
▁Although	-7222
▁enjoying	-7223
▁medicine	-7224
▁rapidity	-7225
▁adventure	-7226
▁introduce	-7227
▁invisible	-7228
rad	-7229
▁iv	-7230
▁na	-7231
pher	-7232
sman	-7233
udes	-7234
uits	-7235
work	-7236
▁Haw	-7237
▁wax	-7238
uries	-7239
▁bald	-7240
▁mend	-7241
▁prel	-7242
▁rasc	-7243
avasov	-7244
nigsen	-7245
verend	-7246
▁Among	-7247
▁Nelly	-7248
▁bliss	-7249
▁brood	-7250
▁ingen	-7251
▁legal	-7252
▁monst	-7253
▁steel	-7254
▁Seeing	-7255
▁hinted	-7256
▁learnt	-7257
▁malign	-7258
▁remote	-7259
▁council	-7260
▁induced	-7261
▁lowered	-7262
▁worldly	-7263
▁ambition	-7264
▁habitual	-7265
▁passions	-7266
▁reported	-7267
▁Henrietta	-7268
▁Katavasov	-7269
▁incapable	-7270
▁scattered	-7271
▁protection	-7272
▁reasonable	-7273
▁suspicious	-7274
▁impatiently	-7275
▁intellectual	-7276
▁contemptuously	-7277
fya	-7278
mas	-7279
pic	-7280
two	-7281
aire	-7282
ault	-7283
eked	-7284
lest	-7285
▁Mac	-7286
▁Tra	-7287
▁ena	-7288
▁loc	-7289
▁lou	-7290
▁Thee	-7291
▁econ	-7292
▁ferv	-7293
▁impr	-7294
▁mart	-7295
▁pang	-7296
▁rows	-7297
▁scow	-7298
▁trap	-7299
closed	-7300
▁Admir	-7301
▁Sofya	-7302
▁appet	-7303
▁eaten	-7304
▁using	-7305
atching	-7306
▁ardent	-7307
▁daring	-7308
▁serene	-7309
aneously	-7310
itations	-7311
▁closing	-7312
▁disdain	-7313
▁horizon	-7314
▁rushing	-7315
▁shadows	-7316
▁sympath	-7317
▁counting	-7318
▁diamonds	-7319
▁joyfully	-7320
▁terribly	-7321
▁Bennigsen	-7322
▁Speranski	-7323
▁assembled	-7324
▁traveller	-7325
▁comparison	-7326
▁containing	-7327
▁dreadfully	-7328
▁perplexity	-7329
▁monseigneur	-7330
▁characteristic	-7331
Was	-7332
bez	-7333
tis	-7334
ette	-7335
▁Cat	-7336
▁vul	-7337
ciful	-7338
ildad	-7339
uting	-7340
▁ages	-7341
▁gift	-7342
▁sket	-7343
▁spec	-7344
▁sunk	-7345
▁veil	-7346
▁Mihal	-7347
▁coast	-7348
▁naked	-7349
▁snuff	-7350
▁squad	-7351
▁stagg	-7352
▁stuck	-7353
▁sympt	-7354
▁battal	-7355
▁carpet	-7356
▁dreary	-7357
▁eldest	-7358
▁loaded	-7359
▁procur	-7360
▁review	-7361
▁scream	-7362
▁strain	-7363
▁warmth	-7364
ustrious	-7365
▁Several	-7366
▁counter	-7367
▁deceive	-7368
▁despise	-7369
▁effects	-7370
▁embrace	-7371
▁longing	-7372
▁motives	-7373
ppercross	-7374
▁Austrian	-7375
▁catching	-7376
▁commands	-7377
▁conflict	-7378
▁deprived	-7379
▁interrog	-7380
▁lowering	-7381
▁punished	-7382
▁relieved	-7383
▁whiskers	-7384
▁preceding	-7385
▁preserved	-7386
▁tranquill	-7387
▁sentiments	-7388
▁impressions	-7389
May	-7390
hil	-7391
igi	-7392
pro	-7393
eled	-7394
even	-7395
ider	-7396
rant	-7397
▁lap	-7398
anges	-7399
▁Levi	-7400
▁Port	-7401
▁Tsar	-7402
▁West	-7403
▁anch	-7404
▁ante	-7405
▁brig	-7406
▁copy	-7407
▁mile	-7408
▁orph	-7409
▁pall	-7410
▁pref	-7411
beziat	-7412
herent	-7413
idents	-7414
necess	-7415
otions	-7416
pended	-7417
resses	-7418
▁Vicar	-7419
▁crazy	-7420
▁ident	-7421
▁moist	-7422
▁shoot	-7423
▁stamp	-7424
▁steam	-7425
▁weigh	-7426
▁altern	-7427
▁collar	-7428
▁deadly	-7429
▁jewell	-7430
▁livres	-7431
▁pursue	-7432
▁relate	-7433
▁submit	-7434
▁unjust	-7435
▁wisdom	-7436
▁Admiral	-7437
▁answers	-7438
▁defense	-7439
▁discern	-7440
▁lantern	-7441
▁nations	-7442
▁obvious	-7443
▁studies	-7444
▁worship	-7445
▁articles	-7446
▁eighteen	-7447
▁expenses	-7448
▁graceful	-7449
▁security	-7450
▁admirable	-7451
▁animation	-7452
▁elsewhere	-7453
▁encounter	-7454
▁innocence	-7455
▁residence	-7456
▁swallowed	-7457
beziatnikov	-7458
▁harpooneer	-7459
▁thoughtful	-7460
▁differently	-7461
▁fashionable	-7462
▁probability	-7463
▁confidential	-7464
amn	-7465
iva	-7466
tic	-7467
utch	-7468
vial	-7469
▁Jes	-7470
▁Mal	-7471
?..."	-7472
olved	-7473
orney	-7474
astrop	-7475
erving	-7476
▁Hills	-7477
▁Katya	-7478
▁Stone	-7479
▁admin	-7480
▁chill	-7481
▁moder	-7482
achelor	-7483
ization	-7484
▁Bildad	-7485
▁amazed	-7486
▁elbows	-7487
▁handle	-7488
▁intens	-7489
▁throne	-7490
▁tossed	-7491
▁Hindley	-7492
▁Michael	-7493
▁begging	-7494
▁fathers	-7495
▁partner	-7496
▁prolong	-7497
▁protest	-7498
▁sobbing	-7499
▁Harville	-7500
▁backward	-7501
▁careless	-7502
▁knocking	-7503
▁youthful	-7504
▁strangers	-7505
▁resolutely	-7506
▁inquiringly	-7507
▁overwhelmed	-7508
▁Lebeziatnikov	-7509
bin	-7510
eer	-7511
afea	-7512
ambr	-7513
▁Bus	-7514
▁Gen	-7515
▁III	-7516
▁Nes	-7517
▁nap	-7518
assed	-7519
liest	-7520
▁Past	-7521
▁Soon	-7522
▁Very	-7523
▁hamm	-7524
▁jury	-7525
▁meat	-7526
Madame	-7527
olomon	-7528
othing	-7529
▁billi	-7530
▁bored	-7531
▁colle	-7532
▁flame	-7533
▁infam	-7534
▁rever	-7535
▁worry	-7536
atively	-7537
▁Tushin	-7538
▁Vanity	-7539
▁brains	-7540
▁series	-7541
▁volunt	-7542
▁annoyed	-7543
▁breathe	-7544
▁deserve	-7545
▁disease	-7546
▁species	-7547
▁trivial	-7548
▁conceive	-7549
▁invented	-7550
▁positive	-7551
▁shameful	-7552
▁Mihalovna	-7553
▁attempted	-7554
▁hesitating	-7555
▁procurator	-7556
▁housekeeper	-7557
▁preparation	-7558
▁deliberately	-7559
bar	-7560
gor	-7561
vol	-7562
▁Kur	-7563
▁Tow	-7564
▁apt	-7565
▁cit	-7566
▁ech	-7567
▁oak	-7568
assad	-7569
ician	-7570
ifted	-7571
▁Bull	-7572
▁Each	-7573
▁Pole	-7574
▁east	-7575
▁flow	-7576
▁sarc	-7577
▁vers	-7578
▁wave	-7579
hering	-7580
▁Miles	-7581
▁brisk	-7582
▁dried	-7583
▁feast	-7584
▁harsh	-7585
▁miser	-7586
▁sheet	-7587
▁songs	-7588
▁stole	-7589
▁Paissy	-7590
▁bodies	-7591
▁candid	-7592
▁cattle	-7593
▁cellar	-7594
▁judges	-7595
▁marvel	-7596
▁stroke	-7597
▁supply	-7598
▁wasted	-7599
▁Solomon	-7600
▁advised	-7601
▁dispute	-7602
▁ecstasy	-7603
▁haughty	-7604
▁awakened	-7605
▁breathed	-7606
▁educated	-7607
▁hopeless	-7608
▁hundreds	-7609
▁mountain	-7610
▁solemnly	-7611
▁uneasily	-7612
▁withdrew	-7613
▁catastrop	-7614
▁commenced	-7615
▁composure	-7616
▁inquiring	-7617
▁opposition	-7618
▁entertained	-7619
▁humiliation	-7620
▁mechanically	-7621
ean	-7622
eve	-7623
tle	-7624
upp	-7625
▁II	-7626
▁OF	-7627
aska	-7628
have	-7629
odka	-7630
ripp	-7631
▁Has	-7632
▁Lat	-7633
▁Mur	-7634
▁awe	-7635
▁ink	-7636
▁ric	-7637
0,000	-7638
field	-7639
ilion	-7640
omach	-7641
ucked	-7642
▁Arab	-7643
▁Arch	-7644
▁Papa	-7645
▁Trum	-7646
▁brut	-7647
▁buck	-7648
▁dart	-7649
▁dict	-7650
▁glow	-7651
▁kick	-7652
▁rosy	-7653
alling	-7654
atives	-7655
formed	-7656
imming	-7657
▁About	-7658
▁Could	-7659
▁India	-7660
▁Kelly	-7661
▁Peleg	-7662
▁Right	-7663
▁Stand	-7664
▁blush	-7665
▁craft	-7666
▁faded	-7667
▁fires	-7668
▁ideal	-7669
▁phant	-7670
▁plump	-7671
▁skirt	-7672
▁thres	-7673
▁Agafea	-7674
▁Hawley	-7675
▁Rector	-7676
▁bundle	-7677
▁disple	-7678
▁insign	-7679
▁issued	-7680
▁recent	-7681
▁theirs	-7682
▁trades	-7683
▁vulgar	-7684
▁waking	-7685
▁Brother	-7686
▁exposed	-7687
▁inherit	-7688
▁lawyers	-7689
▁mission	-7690
▁subdued	-7691
▁Highness	-7692
▁Kellynch	-7693
▁declined	-7694
▁frequent	-7695
▁majestic	-7696
▁preserve	-7697
▁referred	-7698
▁annoyance	-7699
▁Semyonovna	-7700
▁advantages	-7701
▁perceiving	-7702
▁responsible	-7703
▁irresistible	-7704
▁embarrassment	-7705
yn	-7706
ird	-7707
ums	-7708
----	-7709
Miss	-7710
quar	-7711
▁Fen	-7712
▁bat	-7713
▁ecc	-7714
▁woe	-7715
icule	-7716
inine	-7717
▁Brus	-7718
▁cure	-7719
▁dand	-7720
▁mute	-7721
▁size	-7722
▁trad	-7723
inding	-7724
vitski	-7725
▁Phara	-7726
▁accus	-7727
▁awoke	-7728
▁bills	-7729
▁advers	-7730
▁attain	-7731
▁brings	-7732
▁consum	-7733
▁curate	-7734
▁decent	-7735
▁exting	-7736
▁formal	-7737
▁hoarse	-7738
▁joyous	-7739
▁larger	-7740
▁liking	-7741
▁resign	-7742
▁rubles	-7743
▁scient	-7744
▁warned	-7745
enedetto	-7746
ishtchev	-7747
ological	-7748
▁barrier	-7749
▁committ	-7750
▁dreamed	-7751
▁dresses	-7752
▁notions	-7753
▁stomach	-7754
▁thither	-7755
▁Brussels	-7756
▁Hospital	-7757
▁Trumbull	-7758
▁captured	-7759
▁intimacy	-7760
▁reserved	-7761
▁secretly	-7762
▁unnecess	-7763
▁President	-7764
▁agreement	-7765
▁assurance	-7766
▁breathless	-7767
▁instrument	-7768
▁lieutenant	-7769
▁resistance	-7770
▁represented	-7771
ete	-7772
gue	-7773
ped	-7774
pen	-7775
uil	-7776
▁Eh	-7777
▁dw	-7778
Stop	-7779
aret	-7780
bler	-7781
eren	-7782
eves	-7783
ique	-7784
mber	-7785
mosp	-7786
uity	-7787
▁Jew	-7788
▁ach	-7789
assot	-7790
iated	-7791
never	-7792
urrah	-7793
▁Bald	-7794
▁Dess	-7795
▁East	-7796
▁Hand	-7797
▁butt	-7798
▁fest	-7799
▁keys	-7800
▁surm	-7801
▁wing	-7802
▁appar	-7803
▁burnt	-7804
▁error	-7805
▁idiot	-7806
▁ivory	-7807
▁newly	-7808
▁skull	-7809
▁union	-7810
▁vehic	-7811
▁vodka	-7812
ameless	-7813
liament	-7814
▁Doctor	-7815
▁People	-7816
▁Signor	-7817
▁atmosp	-7818
▁butler	-7819
▁horrid	-7820
▁marble	-7821
▁odious	-7822
▁purple	-7823
▁scenes	-7824
▁tables	-7825
▁traces	-7826
▁yonder	-7827
▁Benwick	-7828
▁Vassily	-7829
▁ceiling	-7830
▁condemn	-7831
▁current	-7832
▁despite	-7833
▁dinners	-7834
▁dungeon	-7835
▁energet	-7836
▁happily	-7837
▁slender	-7838
▁tremend	-7839
▁complain	-7840
▁feminine	-7841
▁replaced	-7842
▁smallest	-7843
▁vigorous	-7844
▁whalemen	-7845
▁Nesvitski	-7846
▁interfere	-7847
▁readiness	-7848
▁bitterness	-7849
▁calculated	-7850
▁precaution	-7851
▁proportion	-7852
▁scientific	-7853
▁authorities	-7854
▁concentrated	-7855
▁Shtcherbatsky	-7856
za	-7857
zv	-7858
aul	-7859
bol	-7860
fic	-7861
nut	-7862
ube	-7863
▁ge	-7864
gram	-7865
hole	-7866
▁jer	-7867
▁mas	-7868
▁san	-7869
cture	-7870
eresa	-7871
istin	-7872
ommod	-7873
pherd	-7874
sibly	-7875
ubble	-7876
viour	-7877
▁Vera	-7878
▁corn	-7879
▁dish	-7880
▁envy	-7881
▁meal	-7882
▁trib	-7883
▁woke	-7884
ashvin	-7885
▁abuse	-7886
▁agent	-7887
▁crush	-7888
▁irreg	-7889
▁races	-7890
▁seize	-7891
▁unacc	-7892
idently	-7893
▁Provis	-7894
▁artist	-7895
▁boldly	-7896
▁courty	-7897
▁cursed	-7898
▁hammer	-7899
▁invite	-7900
▁occupy	-7901
▁profit	-7902
▁scared	-7903
▁shaken	-7904
assotkin	-7905
inations	-7906
▁artific	-7907
▁circles	-7908
▁depends	-7909
▁dischar	-7910
▁filling	-7911
▁praying	-7912
▁prudent	-7913
▁results	-7914
▁sadness	-7915
▁satisfy	-7916
▁sublime	-7917
▁ambassad	-7918
▁ascended	-7919
▁confined	-7920
▁depended	-7921
▁emotions	-7922
▁floating	-7923
▁fourteen	-7924
▁inconven	-7925
▁measures	-7926
▁mournful	-7927
▁overcoat	-7928
▁painting	-7929
▁promptly	-7930
▁suitable	-7931
▁transfer	-7932
▁treacher	-7933
▁Leviathan	-7934
▁pleasures	-7935
▁condescend	-7936
▁insignific	-7937
mat	-7938
ova	-7939
acon	-7940
aste	-7941
emon	-7942
ilet	-7943
ocks	-7944
omed	-7945
such	-7946
▁bay	-7947
▁gam	-7948
▁ign	-7949
▁voc	-7950
▁wre	-7951
count	-7952
imity	-7953
inity	-7954
▁Bili	-7955
▁Phil	-7956
▁Sept	-7957
▁Toll	-7958
▁dram	-7959
▁pave	-7960
▁tick	-7961
▁wash	-7962
▁whit	-7963
Please	-7964
ailiff	-7965
icable	-7966
rother	-7967
rusted	-7968
▁Shall	-7969
▁clung	-7970
▁folks	-7971
▁forge	-7972
▁satin	-7973
▁trade	-7974
▁commit	-7975
▁guards	-7976
▁hermit	-7977
▁invent	-7978
▁louder	-7979
▁reappe	-7980
▁stated	-7981
▁volume	-7982
▁washed	-7983
▁Bilibin	-7984
▁leisure	-7985
▁liberal	-7986
▁monarch	-7987
▁subsequ	-7988
▁abruptly	-7989
▁creation	-7990
▁mustache	-7991
▁piercing	-7992
▁respects	-7993
▁romantic	-7994
▁startled	-7995
▁superint	-7996
▁symptoms	-7997
▁tortured	-7998
▁trifling	-7999
▁Something	-8000
▁attentive	-8001
▁neglected	-8002
▁distressed	-8003
▁introduction	-8004
▁0	-8005
aux	-8006
gate	-8007
phas	-8008
▁Des	-8009
▁Lie	-8010
▁irr	-8011
▁sul	-8012
Count	-8013
alley	-8014
ganov	-8015
▁Clay	-8016
▁Jove	-8017
▁Lyme	-8018
▁fist	-8019
▁scan	-8020
haired	-8021
▁Bazin	-8022
▁Latin	-8023
▁impet	-8024
▁limbs	-8025
▁madam	-8026
ational	-8027
itching	-8028
▁bonnet	-8029
▁detach	-8030
▁emphas	-8031
▁proofs	-8032
▁shared	-8033
▁Pharaon	-8034
▁Yashvin	-8035
▁conquer	-8036
▁destiny	-8037
▁follows	-8038
▁grasped	-8039
▁outward	-8040
▁reserve	-8041
▁Remember	-8042
▁bachelor	-8043
▁destined	-8044
▁forgiven	-8045
▁gloomily	-8046
▁hurrying	-8047
▁sideways	-8048
▁squadron	-8049
▁Christmas	-8050
▁September	-8051
▁attending	-8052
▁behaviour	-8053
▁encourage	-8054
▁falsehood	-8055
▁fantastic	-8056
▁finishing	-8057
▁gathering	-8058
▁horseback	-8059
▁spectacle	-8060
▁struggled	-8061
▁wandering	-8062
▁irritation	-8063
▁successful	-8064
olenishtchev	-8065
▁neighbourhood	-8066
Or	-8067
add	-8068
hor	-8069
iev	-8070
rep	-8071
bred	-8072
eyed	-8073
from	-8074
rini	-8075
▁bou	-8076
▁lur	-8077
▁sob	-8078
▁ton	-8079
Mamma	-8080
every	-8081
going	-8082
▁Rich	-8083
▁Thom	-8084
▁bath	-8085
▁conj	-8086
▁dazz	-8087
▁mars	-8088
iberia	-8089
itched	-8090
▁armed	-8091
▁curse	-8092
▁finds	-8093
▁intol	-8094
▁marks	-8095
▁recei	-8096
▁track	-8097
▁vigor	-8098
factory	-8099
▁begins	-8100
▁bodily	-8101
▁center	-8102
▁hasten	-8103
▁nerves	-8104
▁writes	-8105
▁corners	-8106
▁drawers	-8107
▁earthly	-8108
▁emperor	-8109
▁frantic	-8110
▁happier	-8111
▁injured	-8112
▁lackeys	-8113
▁leagues	-8114
▁seventy	-8115
▁yielded	-8116
▁Kalganov	-8117
▁Pastrini	-8118
▁Vassenka	-8119
▁bestowed	-8120
▁mischief	-8121
▁politics	-8122
▁pressure	-8123
▁reckoned	-8124
▁Frenchmen	-8125
▁courtyard	-8126
▁permitted	-8127
▁recalling	-8128
▁utterance	-8129
▁encouraged	-8130
▁explaining	-8131
▁management	-8132
▁philosophy	-8133
▁yourselves	-8134
▁arrangement	-8135
▁catastrophe	-8136
▁recommended	-8137
▁significant	-8138
▁tranquillity	-8139
▁Golenishtchev	-8140
VI	-8141
avy	-8142
eva	-8143
ayed	-8144
▁Fed	-8145
▁axe	-8146
▁non	-8147
Would	-8148
about	-8149
armel	-8150
inger	-8151
utter	-8152
▁Holy	-8153
▁Ilya	-8154
▁Tash	-8155
▁aide	-8156
▁clen	-8157
▁lake	-8158
▁liqu	-8159
▁prey	-8160
▁shab	-8161
ements	-8162
encies	-8163
idding	-8164
▁Luigi	-8165
▁bells	-8166
▁decis	-8167
▁didst	-8168
▁erect	-8169
▁hints	-8170
▁lucky	-8171
▁ornam	-8172
▁peril	-8173
▁wives	-8174
inating	-8175
ittered	-8176
▁Amalia	-8177
▁advise	-8178
▁armies	-8179
▁county	-8180
▁frenzy	-8181
▁madman	-8182
▁observ	-8183
▁openly	-8184
▁packed	-8185
▁permit	-8186
▁roared	-8187
quarters	-8188
▁Because	-8189
▁Siberia	-8190
▁Through	-8191
▁bailiff	-8192
▁element	-8193
▁fearing	-8194
▁nodding	-8195
▁refusal	-8196
▁resolve	-8197
▁sixteen	-8198
▁studied	-8199
▁wealthy	-8200
▁proposal	-8201
▁Benedetto	-8202
▁Frederick	-8203
▁arranging	-8204
▁forbidden	-8205
▁irritable	-8206
▁reference	-8207
▁threshold	-8208
▁unwilling	-8209
▁Krassotkin	-8210
▁increasing	-8211
▁separation	-8212
▁throughout	-8213
▁performance	-8214
▁questioning	-8215
▁recollected	-8216
Pr	-8217
bro	-8218
elf	-8219
ige	-8220
nes	-8221
ski	-8222
alls	-8223
bear	-8224
hern	-8225
isha	-8226
maid	-8227
ogue	-8228
olit	-8229
▁Var	-8230
▁hom	-8231
▁ram	-8232
ataev	-8233
gence	-8234
lfare	-8235
rowed	-8236
▁Jack	-8237
▁Pink	-8238
▁barn	-8239
▁bast	-8240
▁chat	-8241
▁male	-8242
▁outl	-8243
▁vest	-8244
abella	-8245
ailing	-8246
coming	-8247
course	-8248
▁Think	-8249
▁abund	-8250
▁aloft	-8251
▁angle	-8252
▁besee	-8253
▁dimin	-8254
▁frock	-8255
▁punct	-8256
▁swept	-8257
▁vener	-8258
nothing	-8259
▁Polish	-8260
▁Prussi	-8261
▁butter	-8262
▁emphat	-8263
▁fierce	-8264
▁impuls	-8265
▁landed	-8266
▁masses	-8267
▁rubbed	-8268
interest	-8269
▁Maximov	-8270
▁changes	-8271
▁console	-8272
▁healthy	-8273
▁marvell	-8274
▁realize	-8275
▁refresh	-8276
▁welfare	-8277
▁appetite	-8278
▁conveyed	-8279
▁convince	-8280
▁evenings	-8281
▁inwardly	-8282
▁meantime	-8283
▁measured	-8284
▁nobleman	-8285
▁stepping	-8286
▁suspense	-8287
▁wandered	-8288
▁Pinkerton	-8289
▁inspector	-8290
▁retreated	-8291
▁stockings	-8292
▁transport	-8293
▁undertake	-8294
▁prosperity	-8295
▁stretching	-8296
▁application	-8297
▁exclamation	-8298
▁unnecessary	-8299
▁conversations	-8300
▁instinctively	-8301
See	-8302
alf	-8303
mov	-8304
odo	-8305
pey	-8306
ulp	-8307
uly	-8308
▁IV	-8309
eous	-8310
lder	-8311
olic	-8312
papa	-8313
upon	-8314
▁Jac	-8315
▁Sec	-8316
adays	-8317
chess	-8318
roval	-8319
since	-8320
▁Vien	-8321
▁adjo	-8322
▁deaf	-8323
▁mode	-8324
▁sale	-8325
▁vind	-8326
▁Fenya	-8327
▁accur	-8328
▁flood	-8329
▁maybe	-8330
▁niece	-8331
▁petty	-8332
▁sheep	-8333
▁shows	-8334
▁stamm	-8335
ousquet	-8336
▁Govern	-8337
▁adored	-8338
▁claims	-8339
▁engage	-8340
▁poetry	-8341
▁stable	-8342
▁Kuragin	-8343
▁beaming	-8344
▁contact	-8345
▁convent	-8346
▁forming	-8347
▁glowing	-8348
▁grieved	-8349
▁phrases	-8350
▁scrutin	-8351
▁Karataev	-8352
▁assented	-8353
▁dreaming	-8354
▁supplied	-8355
▁visiting	-8356
▁disappear	-8357
▁atmosphere	-8358
▁restrained	-8359
▁university	-8360
▁antechamber	-8361
Ar	-8362
ND	-8363
wr	-8364
ys	-8365
Get	-8366
did	-8367
ipt	-8368
lym	-8369
six	-8370
thy	-8371
▁VI	-8372
▁ah	-8373
Lord	-8374
aved	-8375
lini	-8376
otel	-8377
ront	-8378
ucky	-8379
ukov	-8380
▁hoo	-8381
▁ped	-8382
▁sex	-8383
bable	-8384
iably	-8385
▁Cape	-8386
▁Plym	-8387
▁bagg	-8388
▁bone	-8389
▁boot	-8390
▁chem	-8391
▁clum	-8392
▁cush	-8393
▁date	-8394
▁gend	-8395
▁nast	-8396
▁ratt	-8397
▁rays	-8398
▁roar	-8399
▁ward	-8400
blance	-8401
itudes	-8402
urable	-8403
▁Water	-8404
▁boxes	-8405
▁pound	-8406
▁rules	-8407
▁south	-8408
▁wiped	-8409
inarily	-8410
▁Listen	-8411
▁Louvre	-8412
▁Teresa	-8413
▁behalf	-8414
▁extrem	-8415
▁harder	-8416
▁immort	-8417
▁obstin	-8418
▁prelim	-8419
▁scheme	-8420
▁speaks	-8421
ulations	-8422
uthering	-8423
▁enabled	-8424
▁exclaim	-8425
▁failure	-8426
▁glimpse	-8427
▁marshes	-8428
▁orderly	-8429
▁renewed	-8430
▁superst	-8431
▁vividly	-8432
ousqueton	-8433
▁contract	-8434
▁detected	-8435
▁increase	-8436
▁pavement	-8437
▁situated	-8438
▁strained	-8439
▁noiseless	-8440
▁reasoning	-8441
▁reverence	-8442
▁substance	-8443
▁attractive	-8444
▁respecting	-8445
▁philosopher	-8446
▁recognizing	-8447
▁perspiration	-8448
eel	-8449
iel	-8450
rat	-8451
roe	-8452
▁Ha	-8453
▁au	-8454
elty	-8455
ture	-8456
▁aye	-8457
▁ded	-8458
dened	-8459
▁Bapt	-8460
▁Mark	-8461
▁Ward	-8462
▁bade	-8463
▁curt	-8464
▁damn	-8465
▁eyel	-8466
▁fowl	-8467
▁hasn	-8468
▁heap	-8469
▁hosp	-8470
▁mock	-8471
▁rele	-8472
▁seal	-8473
▁unse	-8474
assing	-8475
gments	-8476
llable	-8477
▁Henry	-8478
▁Other	-8479
▁apply	-8480
▁curly	-8481
▁heels	-8482
▁hills	-8483
▁loath	-8484
▁noted	-8485
▁perse	-8486
▁simpl	-8487
▁stare	-8488
▁stupe	-8489
▁towns	-8490
▁waked	-8491
▁wings	-8492
because	-8493
▁Andrey	-8494
▁affirm	-8495
▁escort	-8496
▁induce	-8497
▁joking	-8498
▁pacing	-8499
▁refuge	-8500
▁resent	-8501
▁sleeve	-8502
▁welcom	-8503
cription	-8504
▁Bullock	-8505
▁floated	-8506
▁granted	-8507
▁secured	-8508
▁serving	-8509
▁speaker	-8510
▁villain	-8511
▁virtues	-8512
▁wrought	-8513
▁Isabella	-8514
▁calmness	-8515
▁covering	-8516
▁curtains	-8517
▁imprison	-8518
▁inferior	-8519
▁shrugged	-8520
▁unworthy	-8521
▁Wuthering	-8522
▁appearing	-8523
▁completed	-8524
▁depressed	-8525
▁salvation	-8526
▁searching	-8527
▁benevolent	-8528
▁carelessly	-8529
▁expedition	-8530
▁pretending	-8531
▁recognised	-8532
▁regimental	-8533
▁strengthen	-8534
▁acknowledged	-8535
▁announcement	-8536
awn	-8537
bel	-8538
had	-8539
noe	-8540
▁Af	-8541
▁gy	-8542
acco	-8543
ares	-8544
gone	-8545
lick	-8546
tell	-8547
▁Hug	-8548
▁Med	-8549
▁Mok	-8550
▁nay	-8551
arson	-8552
asion	-8553
aying	-8554
bacco	-8555
cloth	-8556
ishop	-8557
mates	-8558
▁Aged	-8559
▁Cler	-8560
▁Dron	-8561
▁June	-8562
▁Love	-8563
▁Mont	-8564
▁echo	-8565
▁fors	-8566
▁lace	-8567
▁plac	-8568
▁sins	-8569
▁swim	-8570
▁whir	-8571
Father	-8572
vering	-8573
▁Horro	-8574
▁await	-8575
▁calam	-8576
▁cheap	-8577
▁coats	-8578
▁fifth	-8579
▁guine	-8580
▁kinds	-8581
▁paced	-8582
▁rigid	-8583
▁talks	-8584
perhaps	-8585
▁Behind	-8586
▁Vienna	-8587
▁avenue	-8588
▁colour	-8589
▁combat	-8590
▁defeat	-8591
▁deject	-8592
▁eighty	-8593
▁fitted	-8594
▁judged	-8595
▁magnan	-8596
▁paraly	-8597
▁ponder	-8598
▁shabby	-8599
▁tumult	-8600
umerable	-8601
▁baggage	-8602
▁casting	-8603
▁charmed	-8604
▁gallery	-8605
▁receipt	-8606
▁rubbing	-8607
▁shelter	-8608
▁swiftly	-8609
▁vaguely	-8610
▁accommod	-8611
▁attempts	-8612
▁heartily	-8613
▁inspired	-8614
▁selected	-8615
▁shrieked	-8616
▁wondrous	-8617
▁delirious	-8618
▁dignified	-8619
▁favorable	-8620
▁indignant	-8621
▁muttering	-8622
▁sparkling	-8623
▁tolerably	-8624
▁Mousqueton	-8625
▁accomplish	-8626
▁commanders	-8627
▁whispering	-8628
▁distinction	-8629
IT	-8630
Has	-8631
eur	-8632
Stay	-8633
Thou	-8634
cile	-8635
lain	-8636
mean	-8637
vard	-8638
▁pig	-8639
▁tid	-8640
ascon	-8641
cular	-8642
riend	-8643
three	-8644
urday	-8645
ursed	-8646
▁Life	-8647
▁Plat	-8648
▁Pray	-8649
▁inco	-8650
▁nigh	-8651
rating	-8652
▁bears	-8653
▁deeds	-8654
▁exper	-8655
▁jokes	-8656
▁kings	-8657
▁nails	-8658
▁penit	-8659
▁prize	-8660
▁rings	-8661
▁rocks	-8662
▁scent	-8663
▁Mokroe	-8664
▁driver	-8665
▁infant	-8666
▁martyr	-8667
▁ragged	-8668
▁reckon	-8669
▁sealed	-8670
▁states	-8671
▁thence	-8672
▁wounds	-8673
iliation	-8674
▁Clerval	-8675
▁century	-8676
▁chances	-8677
▁enlight	-8678
▁estates	-8679
▁fancies	-8680
▁greeted	-8681
▁hostile	-8682
▁obscure	-8683
▁popular	-8684
▁remonst	-8685
▁sleeves	-8686
▁stables	-8687
▁superfl	-8688
▁surgeon	-8689
▁whereas	-8690
▁absolute	-8691
▁arriving	-8692
▁attorney	-8693
▁coolness	-8694
▁diplomat	-8695
▁greeting	-8696
▁improved	-8697
▁ironical	-8698
▁sentinel	-8699
▁attendant	-8700
▁irregular	-8701
▁temporary	-8702
▁affections	-8703
▁inevitably	-8704
▁retreating	-8705
▁connections	-8706
▁innumerable	-8707
▁constitution	-8708
Eh	-8709
lar	-8710
pes	-8711
uft	-8712
ugn	-8713
zes	-8714
▁Ty	-8715
Pray	-8716
inks	-8717
litz	-8718
open	-8719
sych	-8720
▁Bed	-8721
▁Yan	-8722
▁bla	-8723
▁nut	-8724
▁pav	-8725
actly	-8726
enard	-8727
ersed	-8728
itors	-8729
itute	-8730
▁Coqu	-8731
▁Paul	-8732
▁acts	-8733
▁fits	-8734
▁lend	-8735
▁stab	-8736
▁tact	-8737
▁west	-8738
cerity	-8739
estion	-8740
peyson	-8741
▁Murat	-8742
▁citiz	-8743
▁fools	-8744
▁grain	-8745
▁hired	-8746
▁invar	-8747
▁parag	-8748
▁swung	-8749
▁token	-8750
ardinal	-8751
▁Busoni	-8752
▁beggar	-8753
▁behave	-8754
▁biting	-8755
▁crowns	-8756
▁dissip	-8757
▁guided	-8758
▁leaped	-8759
▁meadow	-8760
▁pitied	-8761
▁sailed	-8762
▁survey	-8763
▁trifle	-8764
▁unseen	-8765
omething	-8766
oubtedly	-8767
stricken	-8768
▁animals	-8769
▁chapter	-8770
▁columns	-8771
▁constru	-8772
▁discont	-8773
▁elderly	-8774
▁machine	-8775
▁nowhere	-8776
▁numbers	-8777
▁opposed	-8778
▁stooped	-8779
▁tobacco	-8780
▁attained	-8781
▁civilian	-8782
▁frighten	-8783
▁projects	-8784
▁propriet	-8785
▁steadily	-8786
▁Coquenard	-8787
▁Everybody	-8788
▁carpenter	-8789
▁committee	-8790
▁documents	-8791
▁flattered	-8792
▁galloping	-8793
▁instances	-8794
▁purchased	-8795
▁specially	-8796
▁Parliament	-8797
▁characters	-8798
▁proceeding	-8799
▁exasperated	-8800
▁illustrious	-8801
▁intercourse	-8802
▁communicated	-8803
▁contemptuous	-8804
▁passionately	-8805
',	-8806
Am	-8807
tm	-8808
'--	-8809
Aye	-8810
bad	-8811
pri	-8812
▁Ca	-8813
iles	-8814
smen	-8815
▁Gar	-8816
▁Oct	-8817
▁tig	-8818
ients	-8819
ishes	-8820
leton	-8821
ronic	-8822
▁Luci	-8823
▁aged	-8824
▁alle	-8825
▁fret	-8826
▁pour	-8827
▁spin	-8828
▁temp	-8829
▁vile	-8830
ardieu	-8831
▁Comte	-8832
▁Speak	-8833
▁Young	-8834
▁cigar	-8835
▁hasty	-8836
▁irony	-8837
▁naive	-8838
▁prett	-8839
▁sails	-8840
▁steep	-8841
▁Orlick	-8842
▁anchor	-8843
▁fixing	-8844
▁fulfil	-8845
▁jewels	-8846
▁repugn	-8847
▁ribbon	-8848
▁solely	-8849
▁spared	-8850
▁wildly	-8851
▁wiping	-8852
ountered	-8853
▁Instead	-8854
▁audible	-8855
▁cruelty	-8856
▁disconc	-8857
▁doubted	-8858
▁footmen	-8859
▁haunted	-8860
▁justify	-8861
▁smaller	-8862
▁submiss	-8863
▁European	-8864
▁dwelling	-8865
▁flashing	-8866
▁fortunes	-8867
▁gigantic	-8868
▁glorious	-8869
▁majority	-8870
▁pursuing	-8871
▁severity	-8872
▁thirteen	-8873
▁unreason	-8874
▁Presently	-8875
▁adjoining	-8876
▁customary	-8877
▁delicious	-8878
▁displayed	-8879
▁momentary	-8880
▁stationed	-8881
▁Arkadyevna	-8882
▁associated	-8883
▁attendance	-8884
▁blacksmith	-8885
▁commanding	-8886
▁displeased	-8887
▁marvellous	-8888
▁personages	-8889
▁triumphant	-8890
▁encountered	-8891
▁grandmother	-8892
▁responsibility	-8893
LL	-8894
RE	-8895
lls	-8896
ril	-8897
ses	-8898
ourg	-8899
owls	-8900
▁gla	-8901
▁sem	-8902
▁tal	-8903
▁tip	-8904
Still	-8905
ander	-8906
arded	-8907
ollen	-8908
would	-8909
▁Dear	-8910
▁Dodo	-8911
▁Four	-8912
▁Park	-8913
▁affl	-8914
▁asks	-8915
▁cope	-8916
▁file	-8917
▁mans	-8918
▁noon	-8919
▁owed	-8920
▁pest	-8921
▁pony	-8922
▁ruff	-8923
▁toil	-8924
▁trot	-8925
▁unch	-8926
action	-8927
rances	-8928
utable	-8929
▁Catal	-8930
▁Hotel	-8931
▁hears	-8932
▁knelt	-8933
▁menac	-8934
▁penny	-8935
▁psych	-8936
▁sober	-8937
▁spoil	-8938
▁walks	-8939
anthrop	-8940
colored	-8941
ounding	-8942
▁Auster	-8943
▁Gascon	-8944
▁castle	-8945
▁clerks	-8946
▁parish	-8947
▁rascal	-8948
▁record	-8949
▁select	-8950
▁string	-8951
▁British	-8952
▁blowing	-8953
▁consist	-8954
▁conspic	-8955
▁endless	-8956
▁founded	-8957
▁neglect	-8958
▁pitiful	-8959
▁thereby	-8960
▁tonight	-8961
▁weighed	-8962
▁Saturday	-8963
▁Whatever	-8964
▁admiring	-8965
▁brightly	-8966
▁capacity	-8967
▁clasping	-8968
▁clutched	-8969
▁deserved	-8970
▁doubtful	-8971
▁quitting	-8972
▁ridicule	-8973
▁teaching	-8974
▁tranquil	-8975
▁virtuous	-8976
▁welcomed	-8977
▁Baptistin	-8978
▁assistant	-8979
▁challenge	-8980
▁consented	-8981
▁dismissed	-8982
▁landowner	-8983
▁obedience	-8984
▁solemnity	-8985
▁suspended	-8986
▁Austerlitz	-8987
▁descending	-8988
▁expressive	-8989
▁perfection	-8990
▁reconciled	-8991
▁surprising	-8992
▁tremendous	-8993
▁embroidered	-8994
▁professional	-8995
ba	-8996
kh	-8997
lax	-8998
rib	-8999
amps	-9000
dale	-9001
fect	-9002
fold	-9003
oise	-9004
otto	-9005
tego	-9006
▁Che	-9007
▁Mak	-9008
▁bru	-9009
▁dru	-9010
acres	-9011
atted	-9012
eches	-9013
etyuk	-9014
might	-9015
▁Bare	-9016
▁Earl	-9017
▁Five	-9018
▁Mond	-9019
▁Most	-9020
▁inse	-9021
▁jaws	-9022
▁larg	-9023
▁pomp	-9024
idable	-9025
▁Stiva	-9026
▁banks	-9027
▁etern	-9028
▁gleam	-9029
▁milit	-9030
▁stove	-9031
▁veins	-9032
aternal	-9033
▁Fetyuk	-9034
▁basket	-9035
▁damned	-9036
▁deemed	-9037
▁denied	-9038
▁errand	-9039
▁flames	-9040
▁reveal	-9041
▁shriek	-9042
▁unfold	-9043
ountable	-9044
▁Neither	-9045
▁articul	-9046
▁capture	-9047
▁ceremon	-9048
▁corrupt	-9049
▁frankly	-9050
▁marched	-9051
▁problem	-9052
▁railway	-9053
▁release	-9054
▁swollen	-9055
▁tempted	-9056
▁aristocr	-9057
▁foreseen	-9058
▁knitting	-9059
▁pondered	-9060
▁promises	-9061
▁spending	-9062
▁viscount	-9063
▁adversary	-9064
▁privilege	-9065
▁prospects	-9066
▁sensitive	-9067
▁witnessed	-9068
▁convenient	-9069
▁provincial	-9070
▁provisions	-9071
▁accordingly	-9072
▁comfortably	-9073
▁superintend	-9074
▁Fetyukovitch	-9075
▁dissatisfied	-9076
▁insignificant	-9077
oa	-9078
ti	-9079
ING	-9080
OOK	-9081
igg	-9082
ols	-9083
win	-9084
Does	-9085
Some	-9086
True	-9087
aule	-9088
grim	-9089
ihil	-9090
reme	-9091
riot	-9092
▁Get	-9093
▁Red	-9094
▁Tem	-9095
▁fog	-9096
▁jun	-9097
▁ray	-9098
These	-9099
adise	-9100
apont	-9101
evich	-9102
olyte	-9103
phant	-9104
ushes	-9105
▁Dean	-9106
▁Supp	-9107
▁Turk	-9108
▁alas	-9109
▁exal	-9110
▁isol	-9111
▁load	-9112
▁phen	-9113
▁pite	-9114
▁prim	-9115
▁quad	-9116
▁sadd	-9117
▁tipt	-9118
▁Barcl	-9119
▁anter	-9120
▁block	-9121
▁disci	-9122
▁sends	-9123
▁Smurov	-9124
▁awaken	-9125
▁barrel	-9126
▁carved	-9127
▁dishes	-9128
▁finest	-9129
▁halted	-9130
▁injust	-9131
▁inquis	-9132
▁ladder	-9133
▁rebell	-9134
▁shrank	-9135
▁suited	-9136
▁toilet	-9137
ashioned	-9138
▁America	-9139
▁approve	-9140
▁bargain	-9141
▁baronet	-9142
▁carries	-9143
▁charity	-9144
▁culture	-9145
▁demonst	-9146
▁endured	-9147
▁foresee	-9148
▁genteel	-9149
▁harmony	-9150
▁oneself	-9151
▁rapture	-9152
▁revived	-9153
▁ribbons	-9154
▁temples	-9155
▁Ferapont	-9156
▁Tashtego	-9157
▁farthing	-9158
▁infamous	-9159
▁phenomen	-9160
▁restless	-9161
▁skeleton	-9162
▁conceived	-9163
▁desirable	-9164
▁including	-9165
▁narrative	-9166
▁nervously	-9167
▁regularly	-9168
▁requested	-9169
▁Lieutenant	-9170
▁artificial	-9171
▁indulgence	-9172
▁peculiarly	-9173
▁prodigious	-9174
▁anticipated	-9175
▁harpooneers	-9176
▁humiliating	-9177
▁preoccupied	-9178
▁recognition	-9179
▁presentiment	-9180
gre	-9181
sch	-9182
vor	-9183
▁Ye	-9184
boat	-9185
iche	-9186
▁Ant	-9187
▁Gos	-9188
▁Ser	-9189
▁fed	-9190
▁jet	-9191
▁rud	-9192
rooms	-9193
▁Hipp	-9194
▁Varv	-9195
▁bord	-9196
▁pert	-9197
▁salt	-9198
▁sore	-9199
▁tour	-9200
▁whim	-9201
▁yawn	-9202
aneous	-9203
ouched	-9204
ptuous	-9205
▁Spain	-9206
▁Waule	-9207
▁brass	-9208
▁funny	-9209
▁goods	-9210
▁lance	-9211
▁owned	-9212
▁schol	-9213
▁slipp	-9214
▁spoon	-9215
▁winds	-9216
inement	-9217
ossible	-9218
▁devils	-9219
▁exists	-9220
▁insuff	-9221
▁pencil	-9222
▁planks	-9223
▁rescue	-9224
▁sobbed	-9225
▁sullen	-9226
▁swords	-9227
▁sympat	-9228
▁throng	-9229
▁tiptoe	-9230
▁Barclay	-9231
▁Justine	-9232
▁caution	-9233
▁decline	-9234
▁deepest	-9235
▁enterpr	-9236
▁extingu	-9237
▁furnish	-9238
▁honored	-9239
▁presume	-9240
▁puzzled	-9241
▁sailing	-9242
▁saluted	-9243
▁upright	-9244
▁upwards	-9245
▁vessels	-9246
▁Plymdale	-9247
▁bleeding	-9248
▁firmness	-9249
▁mistakes	-9250
▁nowadays	-9251
▁peaceful	-9252
▁petition	-9253
▁quivered	-9254
▁replying	-9255
▁stirring	-9256
▁discussed	-9257
▁fulfilled	-9258
▁ambassador	-9259
▁appreciate	-9260
▁cheerfully	-9261
▁endeavored	-9262
▁incessantly	-9263
▁considerations	-9264
LE	-9265
yl	-9266
oof	-9267
tes	-9268
▁Ti	-9269
▁Cor	-9270
▁Dav	-9271
▁Mag	-9272
▁Met	-9273
▁fel	-9274
▁pas	-9275
itect	-9276
usive	-9277
▁Does	-9278
▁borz	-9279
▁cock	-9280
▁ment	-9281
▁muff	-9282
▁musk	-9283
▁soil	-9284
▁tack	-9285
▁tide	-9286
▁ting	-9287
affold	-9288
ousing	-9289
▁birch	-9290
▁brute	-9291
▁falls	-9292
▁fling	-9293
▁fores	-9294
▁mates	-9295
▁relax	-9296
ulating	-9297
▁Lucien	-9298
▁Wardes	-9299
▁accuse	-9300
▁ashore	-9301
▁bestow	-9302
▁breeze	-9303
▁brutal	-9304
▁coolly	-9305
▁cultiv	-9306
▁frozen	-9307
▁impert	-9308
▁mantle	-9309
▁packet	-9310
▁retain	-9311
▁robbed	-9312
▁sevent	-9313
▁balance	-9314
▁belongs	-9315
▁courier	-9316
▁despond	-9317
▁emptied	-9318
▁envelop	-9319
▁fishery	-9320
▁gardens	-9321
▁hateful	-9322
▁helping	-9323
▁jumping	-9324
▁payment	-9325
▁reduced	-9326
▁spoiled	-9327
▁thyself	-9328
▁winning	-9329
fashioned	-9330
▁Minister	-9331
▁administ	-9332
▁allusion	-9333
▁anteroom	-9334
▁borrowed	-9335
▁desirous	-9336
▁distrust	-9337
▁emphasis	-9338
▁marching	-9339
▁prudence	-9340
▁rational	-9341
▁retained	-9342
▁studying	-9343
▁Bareacres	-9344
▁decidedly	-9345
▁distorted	-9346
▁injustice	-9347
▁monstrous	-9348
▁offensive	-9349
▁overheard	-9350
▁prolonged	-9351
▁signature	-9352
▁sincerity	-9353
▁stammered	-9354
▁confounded	-9355
▁continuing	-9356
▁depression	-9357
▁mentioning	-9358
▁suggestion	-9359
▁temptation	-9360
▁sentimental	-9361
▁commencement	-9362
▁independence	-9363
Her	-9364
Mrs	-9365
VII	-9366
ahl	-9367
tem	-9368
yaz	-9369
▁Ro	-9370
▁ej	-9371
bery	-9372
conf	-9373
elie	-9374
elix	-9375
kins	-9376
mann	-9377
mast	-9378
omte	-9379
pers	-9380
shot	-9381
udge	-9382
unch	-9383
vest	-9384
▁Cal	-9385
▁Cle	-9386
▁Ric	-9387
▁Tim	-9388
▁agg	-9389
anter	-9390
conte	-9391
icide	-9392
itsky	-9393
oping	-9394
riety	-9395
▁Cath	-9396
▁Club	-9397
▁Cont	-9398
▁Pere	-9399
▁Wait	-9400
▁beef	-9401
▁brew	-9402
▁chur	-9403
▁helm	-9404
▁lust	-9405
▁writ	-9406
ulties	-9407
uteuil	-9408
▁avail	-9409
▁crept	-9410
▁doctr	-9411
▁entry	-9412
▁flush	-9413
▁honey	-9414
▁jolly	-9415
▁north	-9416
▁oppon	-9417
▁punch	-9418
▁renew	-9419
▁scrap	-9420
▁steal	-9421
▁studs	-9422
▁woods	-9423
▁Handel	-9424
▁Samson	-9425
▁Tipton	-9426
▁Wrench	-9427
▁Yanina	-9428
▁bushes	-9429
▁defect	-9430
▁expand	-9431
▁frivol	-9432
▁grieve	-9433
▁perish	-9434
▁salary	-9435
▁transl	-9436
▁Marquis	-9437
▁bandits	-9438
▁chanced	-9439
▁conspir	-9440
▁cousins	-9441
▁cruelly	-9442
▁draught	-9443
▁fainted	-9444
▁mixture	-9445
▁theatre	-9446
▁appropri	-9447
▁bankrupt	-9448
▁clinging	-9449
▁critical	-9450
▁dragging	-9451
▁included	-9452
▁laborers	-9453
▁ornament	-9454
▁poisoned	-9455
▁preceded	-9456
▁relating	-9457
▁retorted	-9458
▁scaffold	-9459
▁speeches	-9460
▁spiteful	-9461
▁Compeyson	-9462
▁Hippolyte	-9463
▁affecting	-9464
▁childlike	-9465
▁faculties	-9466
▁fearfully	-9467
▁intending	-9468
▁oppressed	-9469
▁purposely	-9470
▁shattered	-9471
▁willingly	-9472
▁hysterical	-9473
▁reflecting	-9474
▁astonishing	-9475
▁executioner	-9476
▁inheritance	-9477
▁intolerable	-9478
▁perceptible	-9479
▁contemptible	-9480
▁inevitability	-9481
▁recollections	-9482
Le	-9483
cts	-9484
has	-9485
▁Ir	-9486
▁Pf	-9487
▁om	-9488
!"--	-9489
Sire	-9490
agon	-9491
cont	-9492
olet	-9493
olov	-9494
ores	-9495
otch	-9496
otin	-9497
ouch	-9498
pent	-9499
rawn	-9500
vior	-9501
▁Isn	-9502
▁Pen	-9503
▁hed	-9504
▁ine	-9505
▁lee	-9506
ammed	-9507
astly	-9508
heads	-9509
istry	-9510
olate	-9511
water	-9512
▁feed	-9513
▁hare	-9514
▁leaf	-9515
▁snug	-9516
▁unto	-9517
▁usur	-9518
▁vote	-9519
▁wont	-9520
attern	-9521
giving	-9522
ilence	-9523
rained	-9524
retion	-9525
▁Makar	-9526
▁State	-9527
▁brick	-9528
▁equip	-9529
▁holds	-9530
▁manly	-9531
▁marin	-9532
▁nasty	-9533
▁needn	-9534
▁slack	-9535
▁smugg	-9536
▁sweat	-9537
▁tales	-9538
aration	-9539
irectly	-9540
oration	-9541
renched	-9542
▁Kirill	-9543
▁branch	-9544
▁excite	-9545
▁imprud	-9546
▁inches	-9547
▁infall	-9548
▁injury	-9549
▁mystic	-9550
▁nobles	-9551
▁orphan	-9552
▁pledge	-9553
▁shroud	-9554
▁sleigh	-9555
▁strove	-9556
▁subord	-9557
▁traged	-9558
▁valley	-9559
▁verses	-9560
▁Karenin	-9561
▁clothed	-9562
▁courtes	-9563
▁exalted	-9564
▁exhaust	-9565
▁faintly	-9566
▁missing	-9567
▁mothers	-9568
▁naughty	-9569
▁policem	-9570
▁shortly	-9571
▁swaying	-9572
▁tempest	-9573
▁theater	-9574
▁Carconte	-9575
▁Cardinal	-9576
▁Corsican	-9577
▁decisive	-9578
▁flinging	-9579
▁kneeling	-9580
▁misunder	-9581
▁pavilion	-9582
▁renounce	-9583
▁resigned	-9584
▁battalion	-9585
▁comforted	-9586
▁enchanted	-9587
▁expensive	-9588
▁grandpapa	-9589
▁imagining	-9590
▁moonlight	-9591
▁paragraph	-9592
▁attraction	-9593
▁department	-9594
▁honourable	-9595
▁incoherent	-9596
▁incredible	-9597
▁remarkably	-9598
▁communicate	-9599
▁exaggerated	-9600
▁exceptional	-9601
▁disconcerted	-9602
▁surroundings	-9603
OT	-9604
gn	-9605
zz	-9606
Nay	-9607
ban	-9608
gic	-9609
▁Sl	-9610
Hush	-9611
cest	-9612
emly	-9613
gery	-9614
iron	-9615
izes	-9616
oles	-9617
omer	-9618
otes	-9619
stri	-9620
tree	-9621
unks	-9622
were	-9623
year	-9624
▁Fir	-9625
▁Mav	-9626
▁laz	-9627
▁mob	-9628
▁ult	-9629
▁vap	-9630
After	-9631
break	-9632
irgin	-9633
still	-9634
uated	-9635
urned	-9636
▁Alas	-9637
▁Elba	-9638
▁beck	-9639
▁bisc	-9640
▁craw	-9641
▁peop	-9642
▁plat	-9643
▁push	-9644
▁rely	-9645
▁tram	-9646
▁unce	-9647
▁zeal	-9648
advant	-9649
encing	-9650
urious	-9651
urning	-9652
▁Black	-9653
▁Hence	-9654
▁alien	-9655
▁boast	-9656
▁campf	-9657
▁depos	-9658
▁dilig	-9659
▁dwelt	-9660
▁engra	-9661
▁fragr	-9662
▁issue	-9663
▁limit	-9664
▁loyal	-9665
▁mirth	-9666
▁model	-9667
▁mould	-9668
▁panic	-9669
▁teleg	-9670
▁tutor	-9671
▁Almost	-9672
▁Bright	-9673
▁Mother	-9674
▁Naples	-9675
▁Should	-9676
▁adding	-9677
▁bandit	-9678
▁crowds	-9679
▁hounds	-9680
▁hypocr	-9681
▁images	-9682
▁lodged	-9683
▁luxury	-9684
▁mercer	-9685
▁peeped	-9686
▁refres	-9687
▁repast	-9688
▁ridden	-9689
▁sharks	-9690
▁shrill	-9691
▁soothe	-9692
▁Auteuil	-9693
▁bedside	-9694
▁gleamed	-9695
▁hostess	-9696
▁mansion	-9697
▁refrain	-9698
▁rejoice	-9699
▁schools	-9700
▁washing	-9701
pressible	-9702
▁American	-9703
▁Mihailov	-9704
▁Rochelle	-9705
▁afforded	-9706
▁aversion	-9707
▁behavior	-9708
▁coldness	-9709
▁document	-9710
▁insolent	-9711
▁lifeless	-9712
▁paternal	-9713
▁wrinkled	-9714
▁excessive	-9715
▁hereafter	-9716
▁apparition	-9717
▁churchyard	-9718
▁describing	-9719
▁gentleness	-9720
▁development	-9721
▁Dmitrievitch	-9722
▁apprehension	-9723
▁reconciliation	-9724
AT	-9725
CE	-9726
ada	-9727
ded	-9728
ems	-9729
fol	-9730
gen	-9731
urt	-9732
▁Cr	-9733
▁Es	-9734
acks	-9735
adov	-9736
mate	-9737
oday	-9738
part	-9739
ravo	-9740
▁Tit	-9741
▁gor	-9742
▁gru	-9743
▁job	-9744
▁pip	-9745
arovo	-9746
inces	-9747
itals	-9748
rifon	-9749
▁Cast	-9750
▁Gard	-9751
▁Half	-9752
▁Hist	-9753
▁Rect	-9754
▁airs	-9755
▁bars	-9756
▁capr	-9757
▁ejac	-9758
▁gait	-9759
▁goal	-9760
▁mane	-9761
▁verd	-9762
▁Mason	-9763
▁Stahl	-9764
▁abode	-9765
▁ashes	-9766
▁chape	-9767
▁curls	-9768
▁fiery	-9769
▁louis	-9770
▁magic	-9771
▁mirac	-9772
▁posts	-9773
▁samov	-9774
▁sting	-9775
▁tooth	-9776
▁Temple	-9777
▁assent	-9778
▁bearer	-9779
▁create	-9780
▁elders	-9781
▁faster	-9782
▁keenly	-9783
▁medium	-9784
▁merits	-9785
▁offend	-9786
▁overfl	-9787
▁raptur	-9788
▁remedy	-9789
▁sickly	-9790
▁thrice	-9791
ucharovo	-9792
▁Germans	-9793
▁buttons	-9794
▁comment	-9795
▁concert	-9796
▁drowned	-9797
▁partial	-9798
▁romance	-9799
▁Brighton	-9800
▁applause	-9801
▁avoiding	-9802
▁calamity	-9803
▁chambers	-9804
▁lingered	-9805
▁merciful	-9806
▁overlook	-9807
▁overtook	-9808
▁pleasing	-9809
▁recovery	-9810
▁strictly	-9811
▁unseemly	-9812
▁yielding	-9813
▁Certainly	-9814
▁architect	-9815
▁conquered	-9816
▁conscient	-9817
▁disadvant	-9818
▁entreated	-9819
▁multitude	-9820
▁physician	-9821
▁prevailed	-9822
▁regretted	-9823
▁resources	-9824
▁shivering	-9825
▁springing	-9826
▁background	-9827
▁flattering	-9828
▁indicating	-9829
▁penetrated	-9830
▁presenting	-9831
▁revolution	-9832
▁conspicuous	-9833
▁precautions	-9834
▁reluctantly	-9835
En	-9836
Sh	-9837
Tis	-9838
hem	-9839
loo	-9840
rey	-9841
door	-9842
enet	-9843
esar	-9844
fena	-9845
gnat	-9846
imon	-9847
isis	-9848
ober	-9849
zvon	-9850
▁Koz	-9851
▁Lav	-9852
▁Off	-9853
▁Put	-9854
▁Wen	-9855
▁bee	-9856
▁nov	-9857
▁tie	-9858
allen	-9859
aport	-9860
ellow	-9861
eries	-9862
ernal	-9863
ilful	-9864
knife	-9865
notes	-9866
think	-9867
ubber	-9868
▁Cons	-9869
▁foul	-9870
▁hush	-9871
▁lung	-9872
Pardon	-9873
helieu	-9874
iation	-9875
rafena	-9876
veying	-9877
▁Felix	-9878
▁Pfuel	-9879
▁couch	-9880
▁defer	-9881
▁disin	-9882
▁estim	-9883
▁maids	-9884
▁negot	-9885
▁physi	-9886
▁prost	-9887
▁repay	-9888
▁rouse	-9889
▁route	-9890
▁trunk	-9891
idelity	-9892
▁Firkin	-9893
▁Nikola	-9894
▁borrow	-9895
▁crisis	-9896
▁faults	-9897
▁garret	-9898
▁groups	-9899
▁heroic	-9900
▁malice	-9901
▁purity	-9902
▁resume	-9903
▁screen	-9904
▁seamen	-9905
▁simult	-9906
▁tastes	-9907
bilities	-9908
▁Rectory	-9909
▁gateway	-9910
▁modesty	-9911
▁panting	-9912
▁praised	-9913
▁rightly	-9914
▁supreme	-9915
▁trifles	-9916
▁variety	-9917
▁vindict	-9918
▁Parisian	-9919
▁Samsonov	-9920
▁accursed	-9921
▁alliance	-9922
▁bursting	-9923
▁earliest	-9924
▁endeavor	-9925
▁flushing	-9926
▁husbands	-9927
▁meetings	-9928
▁recently	-9929
▁uniforms	-9930
▁Richelieu	-9931
▁innkeeper	-9932
▁promising	-9933
▁sarcastic	-9934
▁accordance	-9935
▁accusation	-9936
▁diplomatic	-9937
▁	-9938
e	-9939
t	-9940
a	-9941
o	-9942
n	-9943
i	-9944
h	-9945
s	-9946
r	-9947
d	-9948
l	-9949
u	-9950
m	-9951
c	-9952
w	-9953
f	-9954
y	-9955
g	-9956
,	-9957
p	-9958
b	-9959
.	-9960
v	-9961
"	-9962
k	-9963
I	-9964
-	-9965
'	-9966
A	-9967
T	-9968
;	-9969
M	-9970
H	-9971
?	-9972
x	-9973
S	-9974
!	-9975
B	-9976
W	-9977
P	-9978
C	-9979
q	-9980
D	-9981
j	-9982
L	-9983
N	-9984
R	-9985
F	-9986
Y	-9987
O	-9988
E	-9989
z	-9990
G	-9991
V	-9992
:	-9993
K	-9994
J	-9995
0	-9996
