<unk>	0
<s>	0
</s>	0
▁t	-0
he	-1
▁a	-2
in	-3
▁w	-4
▁s	-5
▁the	-6
re	-7
▁o	-8
ou	-9
ha	-10
nd	-11
er	-12
▁m	-13
ed	-14
is	-15
▁b	-16
it	-17
en	-18
▁f	-19
▁c	-20
▁to	-21
on	-22
or	-23
▁d	-24
ing	-25
▁of	-26
▁h	-27
▁and	-28
ll	-29
▁I	-30
▁he	-31
an	-32
▁p	-33
es	-34
ar	-35
as	-36
▁in	-37
▁ha	-38
▁y	-39
▁l	-40
▁n	-41
at	-42
▁you	-43
hat	-44
om	-45
▁be	-46
ot	-47
▁e	-48
ly	-49
ve	-50
im	-51
le	-52
ut	-53
▁g	-54
ow	-55
ce	-56
▁re	-57
st	-58
id	-59
se	-60
▁that	-61
ent	-62
▁was	-63
▁th	-64
▁on	-65
ld	-66
▁his	-67
ch	-68
▁it	-69
gh	-70
▁wh	-71
ion	-72
ith	-73
▁T	-74
▁for	-75
▁not	-76
▁with	-77
ay	-78
ri	-79
et	-80
▁A	-81
▁M	-82
ver	-83
▁as	-84
al	-85
▁u	-86
ir	-87
ad	-88
▁me	-89
▁him	-90
ill	-91
▁had	-92
ur	-93
ct	-94
▁at	-95
her	-96
▁is	-97
▁my	-98
▁sa	-99
▁an	-100
ght	-101
ro	-102
▁st	-103
ere	-104
▁H	-105
ould	-106
▁her	-107
▁The	-108
▁de	-109
▁have	-110
ain	-111
li	-112
▁se	-113
ter	-114
▁su	-115
if	-116
▁B	-117
▁k	-118
▁so	-119
am	-120
▁W	-121
ess	-122
ak	-123
▁but	-124
pe	-125
oo	-126
▁whi	-127
▁con	-128
▁C	-129
ore	-130
ra	-131
nt	-132
▁all	-133
▁said	-134
▁S	-135
rom	-136
ic	-137
▁ex	-138
▁do	-139
os	-140
ant	-141
ell	-142
lf	-143
▁which	-144
ome	-145
▁by	-146
ist	-147
▁D	-148
qu	-149
▁your	-150
▁who	-151
▁she	-152
ble	-153
ge	-154
ous	-155
▁from	-156
res	-157
▁this	-158
il	-159
pp	-160
▁F	-161
all	-162
th	-163
red	-164
ard	-165
▁li	-166
▁man	-167
▁will	-168
ul	-169
▁Y	-170
ust	-171
and	-172
very	-173
ation	-174
est	-175
▁He	-176
▁v	-177
▁kn	-178
us	-179
em	-180
▁are	-181
▁whe	-182
▁al	-183
self	-184
▁sh	-185
▁one	-186
▁ne	-187
ort	-188
ck	-189
our	-190
▁or	-191
▁were	-192
..	-193
▁no	-194
ers	-195
ity	-196
▁r	-197
▁P	-198
ov	-199
▁would	-200
ast	-201
▁we	-202
▁G	-203
▁been	-204
▁fe	-205
ven	-206
art	-207
ef	-208
▁what	-209
out	-210
au	-211
▁up	-212
▁am	-213
▁they	-214
▁And	-215
ive	-216
one	-217
▁int	-218
ount	-219
ind	-220
ke	-221
▁N	-222
▁wor	-223
▁know	-224
▁them	-225
▁j	-226
ight	-227
ont	-228
ame	-229
ough	-230
▁com	-231
▁ab	-232
ather	-233
ect	-234
▁But	-235
ran	-236
▁L	-237
ost	-238
hed	-239
▁ag	-240
ered	-241
ate	-242
la	-243
ol	-244
▁un	-245
pt	-246
▁E	-247
ound	-248
▁O	-249
ood	-250
▁if	-251
han	-252
ked	-253
ong	-254
ert	-255
un	-256
od	-257
▁pro	-258
ure	-259
▁there	-260
▁V	-261
▁af	-262
▁then	-263
▁when	-264
um	-265
ars	-266
end	-267
urn	-268
cc	-269
ig	-270
▁did	-271
▁It	-272
ass	-273
el	-274
ved	-275
reat	-276
ence	-277
▁only	-278
▁go	-279
▁could	-280
▁You	-281
hing	-282
▁im	-283
ake	-284
▁tim	-285
ond	-286
able	-287
▁fa	-288
ine	-289
▁qu	-290
▁more	-291
▁has	-292
▁sha	-293
other	-294
▁any	-295
itt	-296
▁out	-297
▁see	-298
▁ar	-299
ther	-300
▁le	-301
fore	-302
▁sp	-303
ng	-304
▁dis	-305
ance	-306
▁their	-307
▁loo	-308
▁too	-309
▁ad	-310
▁can	-311
▁count	-312
▁per	-313
ress	-314
▁now	-315
▁very	-316
ry	-317
▁some	-318
ab	-319
ru	-320
▁tw	-321
▁us	-322
ide	-323
ought	-324
ci	-325
▁time	-326
ose	-327
▁say	-328
▁hand	-329
ove	-330
ep	-331
▁again	-332
way	-333
ally	-334
ice	-335
▁than	-336
▁rep	-337
ried	-338
ish	-339
▁like	-340
▁mad	-341
ree	-342
ie	-343
▁before	-344
▁ro	-345
hi	-346
ite	-347
▁br	-348
▁every	-349
▁rem	-350
▁should	-351
op	-352
▁pr	-353
ag	-354
age	-355
▁how	-356
▁into	-357
▁day	-358
▁en	-359
ment	-360
wn	-361
▁such	-362
▁must	-363
own	-364
nder	-365
▁even	-366
ink	-367
▁other	-368
ated	-369
ving	-370
ness	-371
▁father	-372
▁cont	-373
ward	-374
▁about	-375
▁po	-376
ap	-377
▁himself	-378
ire	-379
are	-380
▁des	-381
▁over	-382
▁fir	-383
▁off	-384
ud	-385
▁after	-386
ced	-387
▁R	-388
ise	-389
ife	-390
▁pre	-391
ps	-392
▁imp	-393
ang	-394
▁Th	-395
ff	-396
ful	-397
▁shall	-398
ened	-399
ions	-400
rist	-401
▁young	-402
▁two	-403
▁What	-404
me	-405
▁No	-406
▁under	-407
uch	-408
▁fri	-409
▁spe	-410
▁ob	-411
▁comp	-412
lyos	-413
lyosha	-414
▁K	-415
▁ey	-416
oll	-417
▁ret	-418
ings	-419
▁Alyosha	-420
▁come	-421
▁let	-422
ary	-423
ign	-424
cy	-425
▁Mr	-426
▁ent	-427
oss	-428
ave	-429
▁sm	-430
▁may	-431
▁res	-432
▁Mor	-433
▁bec	-434
▁beg	-435
▁first	-436
▁great	-437
onte	-438
▁long	-439
▁acc	-440
▁its	-441
▁ap	-442
▁made	-443
▁pass	-444
ber	-445
itch	-446
▁though	-447
oy	-448
▁exp	-449
ady	-450
▁much	-451
pect	-452
ants	-453
▁cl	-454
van	-455
ull	-456
▁att	-457
▁word	-458
▁think	-459
▁Monte	-460
▁Yes	-461
▁thought	-462
▁pe	-463
▁Crist	-464
▁sc	-465
king	-466
▁gr	-467
ath	-468
ac	-469
lie	-470
▁op	-471
▁Vill	-472
ord	-473
ies	-474
▁just	-475
▁tell	-476
▁Cristo	-477
hen	-478
▁our	-479
efort	-480
▁She	-481
▁Villefort	-482
▁cha	-483
ittle	-484
den	-485
▁without	-486
av	-487
led	-488
▁ind	-489
▁never	-490
▁little	-491
less	-492
▁old	-493
▁friend	-494
▁happ	-495
▁might	-496
ious	-497
▁good	-498
▁ri	-499
oment	-500
▁moment	-501
ily	-502
ach	-503
ne	-504
▁gl	-505
▁own	-506
▁here	-507
▁part	-508
▁most	-509
▁Al	-510
▁bet	-511
ouse	-512
urned	-513
omet	-514
▁well	-515
▁eyes	-516
ack	-517
med	-518
lied	-519
te	-520
▁mon	-521
▁mar	-522
▁cons	-523
▁last	-524
ors	-525
eth	-526
▁seem	-527
thing	-528
ject	-529
rel	-530
▁life	-531
▁thr	-532
▁Ivan	-533
▁nothing	-534
ared	-535
▁Oh	-536
--	-537
▁pla	-538
▁down	-539
wards	-540
▁upon	-541
ible	-542
▁Mad	-543
▁ser	-544
▁cried	-545
angl	-546
▁bl	-547
ovitch	-548
▁Dangl	-549
▁Mity	-550
▁pres	-551
ied	-552
ning	-553
▁Danglars	-554
▁chi	-555
▁belie	-556
▁still	-557
▁Wh	-558
▁make	-559
▁ra	-560
▁heart	-561
▁house	-562
▁exc	-563
▁these	-564
▁appe	-565
▁replied	-566
ause	-567
bert	-568
▁rec	-569
▁love	-570
▁somet	-571
ks	-572
▁pers	-573
▁ho	-574
▁three	-575
ons	-576
▁same	-577
▁feel	-578
iss	-579
▁In	-580
▁once	-581
ory	-582
▁away	-583
▁inst	-584
ase	-585
▁went	-586
▁mean	-587
▁ass	-588
ained	-589
▁car	-590
▁J	-591
dden	-592
ret	-593
▁fl	-594
▁end	-595
▁myself	-596
▁sudden	-597
iz	-598
ince	-599
▁where	-600
ty	-601
▁app	-602
▁That	-603
▁being	-604
owed	-605
▁dear	-606
ears	-607
▁Mitya	-608
ue	-609
ged	-610
▁Be	-611
▁sec	-612
▁Well	-613
▁underst	-614
oub	-615
▁asked	-616
ick	-617
▁saw	-618
les	-619
ished	-620
▁Albert	-621
▁door	-622
sw	-623
liz	-624
▁heard	-625
▁ear	-626
eft	-627
▁Morrel	-628
▁room	-629
▁take	-630
ves	-631
▁pl	-632
man	-633
▁tr	-634
▁looked	-635
fect	-636
▁give	-637
ertain	-638
▁Eliz	-639
ted	-640
ever	-641
▁left	-642
▁Fran	-643
mer	-644
ces	-645
we	-646
haps	-647
▁speak	-648
▁whom	-649
▁way	-650
▁They	-651
most	-652
abeth	-653
▁Elizabeth	-654
▁wr	-655
▁cour	-656
▁co	-657
ew	-658
▁Dants	-659
▁Then	-660
▁vis	-661
▁child	-662
00	-663
...	-664
per	-665
▁conf	-666
▁ac	-667
▁tak	-668
alent	-669
ock	-670
▁cr	-671
▁those	-672
▁came	-673
▁ke	-674
▁want	-675
▁back	-676
▁ev	-677
▁add	-678
▁answ	-679
▁dont	-680
air	-681
▁suddenly	-682
▁ple	-683
▁dist	-684
▁Madame	-685
▁call	-686
▁head	-687
▁soon	-688
▁yet	-689
▁told	-690
ater	-691
▁gu	-692
▁God	-693
▁This	-694
ways	-695
light	-696
ner	-697
ited	-698
cei	-699
▁em	-700
▁believe	-701
ens	-702
cl	-703
▁hands	-704
▁My	-705
aught	-706
▁forg	-707
▁dre	-708
▁poss	-709
oth	-710
▁gi	-711
▁mind	-712
▁found	-713
▁wom	-714
iness	-715
▁another	-716
lt	-717
▁1	-718
▁ever	-719
▁while	-720
oney	-721
▁ref	-722
▁At	-723
▁mother	-724
mit	-725
cer	-726
orr	-727
yod	-728
▁If	-729
yodor	-730
ian	-731
▁Fyodor	-732
ired	-733
▁always	-734
der	-735
▁something	-736
▁Valent	-737
▁almost	-738
▁mur	-739
▁wa	-740
▁understand	-741
iff	-742
▁took	-743
▁hour	-744
men	-745
▁money	-746
ction	-747
ently	-748
▁sir	-749
▁face	-750
▁exce	-751
▁Why	-752
ix	-753
▁'	-754
▁perhaps	-755
▁foll	-756
▁seemed	-757
ison	-758
▁through	-759
▁look	-760
▁right	-761
▁men	-762
entle	-763
eed	-764
▁since	-765
ised	-766
oice	-767
ier	-768
▁night	-769
ully	-770
ousand	-771
▁inf	-772
ched	-773
▁...	-774
hes	-775
....	-776
▁tal	-777
cha	-778
▁place	-779
▁words	-780
▁read	-781
▁Valentine	-782
▁thousand	-783
▁min	-784
▁supp	-785
▁began	-786
▁towards	-787
int	-788
urp	-789
ren	-790
▁ter	-791
aint	-792
erous	-793
▁felt	-794
▁There	-795
▁Do	-796
ention	-797
▁whole	-798
▁His	-799
ople	-800
▁fam	-801
▁many	-802
▁Franz	-803
▁letter	-804
▁suff	-805
▁world	-806
ute	-807
▁comm	-808
▁As	-809
ined	-810
▁rest	-811
und	-812
ured	-813
ations	-814
ark	-815
az	-816
ile	-817
ition	-818
▁going	-819
▁seen	-820
ressed	-821
▁put	-822
▁contin	-823
ott	-824
▁How	-825
▁gra	-826
ister	-827
▁find	-828
▁death	-829
▁quite	-830
▁sil	-831
▁serv	-832
gn	-833
▁ins	-834
▁sub	-835
day	-836
ult	-837
▁bo	-838
riage	-839
▁fell	-840
▁years	-841
▁brother	-842
not	-843
vers	-844
ract	-845
▁mor	-846
▁light	-847
ither	-848
▁ext	-849
ins	-850
▁ide	-851
▁tre	-852
sel	-853
ued	-854
▁sat	-855
▁certain	-856
▁gen	-857
▁inc	-858
ense	-859
▁does	-860
▁gentle	-861
▁voice	-862
▁ca	-863
▁occ	-864
▁having	-865
ia	-866
▁yourself	-867
▁pa	-868
▁hon	-869
▁Ah	-870
▁pleas	-871
▁new	-872
▁knew	-873
ately	-874
▁When	-875
▁ch	-876
▁get	-877
▁remem	-878
▁We	-879
igh	-880
▁because	-881
▁name	-882
ms	-883
▁aw	-884
▁why	-885
▁lau	-886
▁reg	-887
▁present	-888
▁dec	-889
▁mis	-890
▁quest	-891
ceived	-892
▁dra	-893
▁people	-894
irt	-895
ling	-896
▁sent	-897
▁passed	-898
▁To	-899
▁For	-900
▁half	-901
▁against	-902
▁son	-903
▁turned	-904
iv	-905
▁2	-906
▁sign	-907
▁On	-908
▁woman	-909
▁diff	-910
▁So	-911
oved	-912
▁har	-913
▁kind	-914
irl	-915
atter	-916
▁visit	-917
▁fort	-918
▁returned	-919
▁alone	-920
▁stran	-921
▁sim	-922
akov	-923
▁Cha	-924
▁set	-925
ating	-926
▁really	-927
▁open	-928
▁doub	-929
ail	-930
osed	-931
▁inter	-932
aster	-933
▁done	-934
▁Par	-935
▁turn	-936
▁cannot	-937
▁girl	-938
▁person	-939
ering	-940
▁es	-941
▁hear	-942
▁indeed	-943
up	-944
oud	-945
orrow	-946
▁better	-947
▁disc	-948
▁expect	-949
ili	-950
▁prom	-951
lic	-952
▁nat	-953
▁course	-954
ear	-955
laim	-956
ual	-957
▁Ch	-958
fort	-959
▁war	-960
une	-961
▁care	-962
▁gave	-963
▁chan	-964
▁return	-965
▁dep	-966
here	-967
pped	-968
uring	-969
fully	-970
▁days	-971
▁anything	-972
ger	-973
▁herself	-974
▁morning	-975
mp	-976
▁yes	-977
▁leave	-978
▁ut	-979
▁ill	-980
▁la	-981
ene	-982
orm	-983
▁wish	-984
ery	-985
▁Gr	-986
▁wind	-987
▁bre	-988
▁inqu	-989
▁inv	-990
▁everything	-991
arcy	-992
▁prison	-993
▁Ill	-994
▁Darcy	-995
▁hope	-996
dy	-997
ents	-998
ower	-999
tered	-1000
▁poor	-1001
▁doubt	-1002
pl	-1003
▁taken	-1004
ax	-1005
mb	-1006
rib	-1007
▁list	-1008
so	-1009
atch	-1010
▁Cad	-1011
ety	-1012
▁whose	-1013
ingle	-1014
▁cor	-1015
ures	-1016
▁act	-1017
▁hum	-1018
▁Caderous	-1019
ason	-1020
ict	-1021
▁wal	-1022
▁sister	-1023
▁express	-1024
ple	-1025
uth	-1026
icul	-1027
▁least	-1028
ka	-1029
ial	-1030
ether	-1031
ready	-1032
▁det	-1033
▁tra	-1034
▁daught	-1035
▁Caderousse	-1036
▁obs	-1037
▁tru	-1038
▁hast	-1039
▁thing	-1040
ident	-1041
▁arri	-1042
oun	-1043
▁sure	-1044
▁fo	-1045
▁kill	-1046
ane	-1047
▁given	-1048
▁already	-1049
▁friends	-1050
gg	-1051
ows	-1052
▁both	-1053
▁each	-1054
▁Father	-1055
its	-1056
owing	-1057
▁appear	-1058
▁continued	-1059
▁far	-1060
ably	-1061
▁che	-1062
▁cond	-1063
cerf	-1064
▁fear	-1065
▁Morcerf	-1066
enn	-1067
▁stru	-1068
▁rather	-1069
▁brought	-1070
▁ask	-1071
▁family	-1072
▁boy	-1073
aut	-1074
▁spo	-1075
ned	-1076
▁Ed	-1077
arly	-1078
▁few	-1079
▁ran	-1080
▁Grus	-1081
ying	-1082
▁stre	-1083
▁Dmit	-1084
merdy	-1085
undred	-1086
aven	-1087
▁month	-1088
▁bed	-1089
merdyakov	-1090
ook	-1091
▁adv	-1092
▁entered	-1093
▁excell	-1094
▁cle	-1095
▁wait	-1096
▁Smerdyakov	-1097
▁hundred	-1098
▁looking	-1099
ray	-1100
▁four	-1101
na	-1102
ken	-1103
▁rel	-1104
▁called	-1105
erest	-1106
▁however	-1107
.--	-1108
ody	-1109
▁evening	-1110
▁el	-1111
▁idea	-1112
▁Dmitri	-1113
ween	-1114
▁step	-1115
ild	-1116
ranc	-1117
▁fact	-1118
cut	-1119
cept	-1120
▁gener	-1121
ached	-1122
▁Grushen	-1123
xt	-1124
ten	-1125
▁Is	-1126
▁also	-1127
▁Mrs	-1128
▁enough	-1129
▁3	-1130
▁Its	-1131
▁smil	-1132
▁dr	-1133
▁sw	-1134
▁hel	-1135
imes	-1136
▁appeared	-1137
▁St	-1138
▁sou	-1139
▁keep	-1140
▁earth	-1141
lect	-1142
▁aff	-1143
use	-1144
▁Ive	-1145
▁till	-1146
▁consid	-1147
▁between	-1148
erc	-1149
▁All	-1150
▁acqu	-1151
▁smile	-1152
▁reason	-1153
▁question	-1154
ina	-1155
ting	-1156
▁bar	-1157
▁dead	-1158
▁perfect	-1159
axim	-1160
empt	-1161
idence	-1162
ey	-1163
ennet	-1164
▁surp	-1165
▁Bennet	-1166
rew	-1167
used	-1168
▁dev	-1169
▁5	-1170
▁Andre	-1171
▁obser	-1172
▁Fyodorovitch	-1173
ides	-1174
▁exclaim	-1175
▁repe	-1176
▁means	-1177
▁second	-1178
▁conv	-1179
overed	-1180
▁opened	-1181
oc	-1182
▁true	-1183
▁Maxim	-1184
▁carriage	-1185
▁dire	-1186
▁five	-1187
▁answer	-1188
ds	-1189
▁laugh	-1190
ss	-1191
ical	-1192
ended	-1193
▁requ	-1194
▁Paris	-1195
rig	-1196
ulf	-1197
▁interest	-1198
du	-1199
ided	-1200
▁char	-1201
▁Noirt	-1202
▁appro	-1203
▁often	-1204
ude	-1205
ility	-1206
▁prop	-1207
ern	-1208
▁opp	-1209
itted	-1210
gether	-1211
▁side	-1212
▁affect	-1213
▁ir	-1214
▁tri	-1215
▁fall	-1216
▁town	-1217
▁honor	-1218
▁remember	-1219
oly	-1220
uri	-1221
▁Grushenka	-1222
▁real	-1223
▁franc	-1224
▁surpr	-1225
▁added	-1226
ool	-1227
▁mak	-1228
▁ten	-1229
▁eff	-1230
cious	-1231
▁francs	-1232
▁point	-1233
▁instant	-1234
ctor	-1235
▁Now	-1236
▁desp	-1237
▁happy	-1238
▁secret	-1239
ace	-1240
val	-1241
lex	-1242
▁things	-1243
mond	-1244
▁abs	-1245
▁Miss	-1246
▁home	-1247
▁daughter	-1248
▁sum	-1249
▁De	-1250
ster	-1251
▁expl	-1252
▁Edmond	-1253
▁meet	-1254
▁need	-1255
ip	-1256
ub	-1257
ctly	-1258
ingley	-1259
▁thats	-1260
▁Bingley	-1261
▁Not	-1262
▁live	-1263
▁answered	-1264
▁spir	-1265
▁beaut	-1266
▁table	-1267
enty	-1268
▁case	-1269
▁work	-1270
▁exclaimed	-1271
▁got	-1272
▁wife	-1273
▁creat	-1274
▁become	-1275
▁Im	-1276
▁dark	-1277
▁fore	-1278
▁mist	-1279
▁prev	-1280
▁bu	-1281
▁convers	-1282
▁respect	-1283
to	-1284
▁joy	-1285
omp	-1286
▁cal	-1287
▁delight	-1288
▁possess	-1289
ized	-1290
▁4	-1291
▁pri	-1292
▁use	-1293
▁dest	-1294
of	-1295
irc	-1296
▁sle	-1297
▁unc	-1298
▁best	-1299
avl	-1300
rible	-1301
▁Pavl	-1302
▁whether	-1303
ib	-1304
ead	-1305
▁less	-1306
selves	-1307
▁help	-1308
▁among	-1309
▁Andrea	-1310
▁Pavlovitch	-1311
▁te	-1312
medi	-1313
▁eld	-1314
▁capt	-1315
▁power	-1316
▁tor	-1317
▁crim	-1318
▁wont	-1319
▁manner	-1320
ield	-1321
▁arm	-1322
urs	-1323
ually	-1324
▁next	-1325
vel	-1326
ceed	-1327
ross	-1328
▁small	-1329
▁Thats	-1330
▁Mar	-1331
▁def	-1332
▁lost	-1333
▁Count	-1334
▁during	-1335
▁matter	-1336
▁strange	-1337
ments	-1338
ollect	-1339
▁object	-1340
old	-1341
▁sl	-1342
cing	-1343
▁thir	-1344
▁others	-1345
▁feeling	-1346
▁ang	-1347
▁bes	-1348
▁gone	-1349
unt	-1350
▁adm	-1351
▁esc	-1352
▁Pro	-1353
uss	-1354
ught	-1355
▁wond	-1356
ank	-1357
ash	-1358
▁Noirtier	-1359
▁remained	-1360
ively	-1361
▁stand	-1362
▁differe	-1363
▁subject	-1364
ency	-1365
▁str	-1366
▁full	-1367
▁became	-1368
rying	-1369
▁ord	-1370
▁une	-1371
▁Beau	-1372
itting	-1373
▁soul	-1374
▁immedi	-1375
ilian	-1376
▁circ	-1377
▁therefore	-1378
▁bro	-1379
▁fin	-1380
▁tran	-1381
▁stood	-1382
▁fortune	-1383
otion	-1384
▁eas	-1385
▁nor	-1386
▁sort	-1387
▁blood	-1388
▁round	-1389
▁compan	-1390
▁remain	-1391
▁happened	-1392
pter	-1393
▁air	-1394
▁pap	-1395
▁afterwards	-1396
right	-1397
▁known	-1398
osition	-1399
▁sens	-1400
▁received	-1401
▁Jane	-1402
▁account	-1403
▁comple	-1404
room	-1405
▁times	-1406
▁longer	-1407
over	-1408
▁hor	-1409
▁thus	-1410
▁contr	-1411
▁heaven	-1412
▁followed	-1413
▁Maximilian	-1414
▁Let	-1415
▁draw	-1416
ossible	-1417
▁happiness	-1418
amp	-1419
ois	-1420
▁beh	-1421
▁With	-1422
▁Chapter	-1423
sp	-1424
▁fan	-1425
▁pray	-1426
▁begin	-1427
▁worth	-1428
▁swe	-1429
▁truth	-1430
isf	-1431
ement	-1432
▁deep	-1433
▁bring	-1434
▁fathers	-1435
▁gri	-1436
arden	-1437
▁Merc	-1438
▁sound	-1439
▁bus	-1440
▁coming	-1441
▁fav	-1442
▁pale	-1443
▁master	-1444
▁particul	-1445
ole	-1446
▁Of	-1447
▁run	-1448
▁unt	-1449
▁ready	-1450
cess	-1451
ushed	-1452
▁Alex	-1453
▁dream	-1454
▁short	-1455
ade	-1456
▁lear	-1457
▁resol	-1458
▁tears	-1459
▁Mercds	-1460
▁feelings	-1461
the	-1462
▁law	-1463
▁else	-1464
utes	-1465
▁bel	-1466
▁par	-1467
▁six	-1468
▁watch	-1469
▁possible	-1470
▁together	-1471
▁gentlemen	-1472
▁conversation	-1473
▁Her	-1474
▁simp	-1475
▁offic	-1476
▁captain	-1477
▁imag	-1478
▁expression	-1479
land	-1480
▁lar	-1481
▁either	-1482
▁charact	-1483
▁Lu	-1484
▁ph	-1485
cely	-1486
vern	-1487
▁die	-1488
▁murd	-1489
▁listen	-1490
bb	-1491
▁abb	-1492
▁lad	-1493
▁hold	-1494
▁struck	-1495
als	-1496
ates	-1497
▁ast	-1498
▁impossible	-1499
de	-1500
▁wit	-1501
▁hard	-1502
▁lips	-1503
▁play	-1504
▁order	-1505
ination	-1506
▁Beaucha	-1507
▁sit	-1508
▁form	-1509
▁kept	-1510
▁used	-1511
▁doctor	-1512
▁pleasure	-1513
▁certainly	-1514
elle	-1515
▁anx	-1516
secut	-1517
▁high	-1518
▁satisf	-1519
▁children	-1520
att	-1521
▁quick	-1522
▁garden	-1523
▁sometimes	-1524
rif	-1525
itude	-1526
▁lady	-1527
▁scar	-1528
▁immediately	-1529
oor	-1530
▁ma	-1531
ored	-1532
owulf	-1533
▁able	-1534
▁spoke	-1535
ances	-1536
though	-1537
▁conce	-1538
▁An	-1539
▁fif	-1540
▁fix	-1541
▁land	-1542
▁seeing	-1543
▁attention	-1544
▁bit	-1545
▁ste	-1546
▁pain	-1547
ney	-1548
cend	-1549
raid	-1550
▁cap	-1551
▁met	-1552
▁Beauchamp	-1553
▁dro	-1554
▁near	-1555
▁placed	-1556
▁consider	-1557
▁di	-1558
ased	-1559
▁One	-1560
▁Come	-1561
▁grand	-1562
▁complete	-1563
og	-1564
000	-1565
arted	-1566
▁Your	-1567
▁afraid	-1568
ati	-1569
ung	-1570
rupt	-1571
▁Who	-1572
▁tou	-1573
▁twenty	-1574
,000	-1575
fter	-1576
▁court	-1577
▁silence	-1578
rely	-1579
▁hes	-1580
▁lay	-1581
▁mer	-1582
emois	-1583
▁exist	-1584
ya	-1585
▁eye	-1586
▁hop	-1587
aring	-1588
▁prep	-1589
▁minutes	-1590
emoiselle	-1591
▁hur	-1592
▁pay	-1593
▁fellow	-1594
▁character	-1595
mon	-1596
▁jo	-1597
band	-1598
ines	-1599
▁eng	-1600
▁talk	-1601
▁wall	-1602
▁murder	-1603
▁different	-1604
▁vi	-1605
▁hus	-1606
ented	-1607
▁purp	-1608
▁sight	-1609
▁Beowulf	-1610
nce	-1611
▁fr	-1612
▁sto	-1613
▁exam	-1614
▁hours	-1615
▁human	-1616
▁confess	-1617
pend	-1618
▁ocl	-1619
▁prof	-1620
▁stud	-1621
▁ground	-1622
▁oclock	-1623
▁window	-1624
iful	-1625
uten	-1626
▁Ivanov	-1627
▁saying	-1628
▁jud	-1629
▁taking	-1630
II	-1631
▁sur	-1632
▁wis	-1633
▁opin	-1634
▁year	-1635
▁didnt	-1636
▁elder	-1637
▁simply	-1638
▁country	-1639
▁prisoner	-1640
▁terrible	-1641
ump	-1642
▁ru	-1643
ising	-1644
▁hero	-1645
▁large	-1646
oura	-1647
▁disp	-1648
▁foot	-1649
▁ought	-1650
▁perfectly	-1651
iced	-1652
▁sof	-1653
▁Here	-1654
▁cant	-1655
ishment	-1656
▁general	-1657
▁scarcely	-1658
▁inn	-1659
▁sleep	-1660
itation	-1661
▁import	-1662
▁months	-1663
▁strong	-1664
▁mention	-1665
▁themselves	-1666
cket	-1667
▁free	-1668
▁witness	-1669
▁excellency	-1670
iously	-1671
▁observed	-1672
ev	-1673
▁hat	-1674
▁arms	-1675
▁gold	-1676
▁story	-1677
▁accept	-1678
▁arrived	-1679
▁affection	-1680
ury	-1681
ging	-1682
▁bla	-1683
▁Koly	-1684
▁send	-1685
oubles	-1686
▁Saint	-1687
▁break	-1688
▁servant	-1689
erm	-1690
for	-1691
bray	-1692
ring	-1693
▁cold	-1694
▁Kater	-1695
▁occas	-1696
▁circum	-1697
▁husband	-1698
▁ago	-1699
▁ann	-1700
▁fre	-1701
ceive	-1702
ouble	-1703
▁peas	-1704
▁prob	-1705
▁viol	-1706
▁allow	-1707
▁aston	-1708
▁Debray	-1709
▁art	-1710
▁grat	-1711
▁doing	-1712
▁behind	-1713
▁Katerina	-1714
ee	-1715
▁sk	-1716
▁forget	-1717
▁silent	-1718
ogn	-1719
airs	-1720
▁lie	-1721
▁soci	-1722
▁minute	-1723
▁prosecut	-1724
▁mag	-1725
▁fire	-1726
▁stri	-1727
▁loved	-1728
▁making	-1729
▁spirit	-1730
▁cur	-1731
aving	-1732
terday	-1733
▁cause	-1734
▁close	-1735
▁sever	-1736
▁today	-1737
▁around	-1738
▁raised	-1739
▁although	-1740
▁business	-1741
ote	-1742
▁Ly	-1743
crib	-1744
▁instead	-1745
oom	-1746
▁baron	-1747
ingly	-1748
▁king	-1749
▁prot	-1750
iew	-1751
ries	-1752
ickha	-1753
ining	-1754
▁past	-1755
ernand	-1756
▁black	-1757
▁circumst	-1758
▁Mademoiselle	-1759
ys	-1760
ale	-1761
ific	-1762
▁sail	-1763
▁dread	-1764
▁Wickha	-1765
▁pocket	-1766
▁counten	-1767
▁repeated	-1768
akit	-1769
▁held	-1770
▁stay	-1771
▁Rakit	-1772
▁utter	-1773
▁slight	-1774
▁Fernand	-1775
▁suppose	-1776
▁speaking	-1777
alc	-1778
lus	-1779
inary	-1780
▁curi	-1781
▁rose	-1782
▁steps	-1783
▁nature	-1784
▁within	-1785
▁opinion	-1786
arent	-1787
▁tone	-1788
▁Kolya	-1789
▁fixed	-1790
▁glass	-1791
▁contrary	-1792
asp	-1793
ming	-1794
▁Kar	-1795
▁equ	-1796
▁pun	-1797
▁Coll	-1798
▁Lady	-1799
▁feet	-1800
▁Collins	-1801
▁marriage	-1802
ourn	-1803
teau	-1804
▁sun	-1805
▁natur	-1806
▁conceal	-1807
▁sitting	-1808
▁turning	-1809
▁Per	-1810
▁est	-1811
ledge	-1812
▁drew	-1813
▁yesterday	-1814
▁appearance	-1815
▁ed	-1816
appe	-1817
azov	-1818
▁sea	-1819
ities	-1820
▁Russ	-1821
▁plan	-1822
▁prov	-1823
rigory	-1824
retched	-1825
body	-1826
▁bra	-1827
ously	-1828
▁kiss	-1829
▁apart	-1830
▁ladies	-1831
▁stopped	-1832
▁recollect	-1833
▁ce	-1834
▁Car	-1835
ution	-1836
▁From	-1837
amazov	-1838
morrow	-1839
▁Grigory	-1840
ek	-1841
ope	-1842
ustom	-1843
▁Chteau	-1844
▁necess	-1845
▁purpose	-1846
▁roubles	-1847
eng	-1848
▁ende	-1849
▁rich	-1850
▁scene	-1851
▁regard	-1852
▁Karamazov	-1853
ape	-1854
hile	-1855
orses	-1856
▁mans	-1857
▁madame	-1858
▁carried	-1859
▁several	-1860
ager	-1861
▁calm	-1862
▁pret	-1863
▁effect	-1864
▁endeav	-1865
▁promise	-1866
▁Ivanovna	-1867
▁expected	-1868
gr	-1869
gra	-1870
that	-1871
▁bur	-1872
iting	-1873
▁bank	-1874
▁above	-1875
▁accomp	-1876
▁rememb	-1877
▁Rakitin	-1878
gar	-1879
teen	-1880
▁After	-1881
▁knows	-1882
▁spite	-1883
▁wished	-1884
▁talking	-1885
▁gentleman	-1886
berg	-1887
▁Eng	-1888
rench	-1889
▁mill	-1890
▁proc	-1891
▁desire	-1892
▁recogn	-1893
io	-1894
pid	-1895
▁By	-1896
▁sy	-1897
mber	-1898
▁emb	-1899
▁fat	-1900
▁glad	-1901
▁lead	-1902
ounded	-1903
▁until	-1904
▁inquired	-1905
▁countenance	-1906
uct	-1907
▁ele	-1908
▁French	-1909
utenberg	-1910
ik	-1911
ush	-1912
aken	-1913
cially	-1914
▁living	-1915
▁streng	-1916
▁quickly	-1917
vell	-1918
▁mid	-1919
▁trans	-1920
▁killed	-1921
▁wanted	-1922
otten	-1923
▁alar	-1924
▁entire	-1925
▁except	-1926
ucc	-1927
▁du	-1928
▁firm	-1929
▁guil	-1930
▁cross	-1931
▁marry	-1932
▁wonder	-1933
▁reflect	-1934
▁occasion	-1935
hip	-1936
ize	-1937
anti	-1938
▁und	-1939
asure	-1940
▁self	-1941
cience	-1942
▁faith	-1943
▁occup	-1944
▁walked	-1945
▁despair	-1946
erv	-1947
▁ve	-1948
▁Lyd	-1949
▁breat	-1950
▁chair	-1951
▁sorrow	-1952
▁reached	-1953
▁uttered	-1954
▁tomorrow	-1955
▁Ali	-1956
▁obli	-1957
▁determ	-1958
ges	-1959
ains	-1960
▁gaz	-1961
▁mine	-1962
▁unha	-1963
▁white	-1964
▁married	-1965
▁thoughts	-1966
▁forgotten	-1967
ma	-1968
ror	-1969
aged	-1970
ages	-1971
ieur	-1972
▁Are	-1973
▁dri	-1974
avalc	-1975
▁stra	-1976
▁agree	-1977
▁grief	-1978
▁mount	-1979
▁rapid	-1980
▁horses	-1981
▁smiled	-1982
▁misfort	-1983
▁beautiful	-1984
ler	-1985
▁hid	-1986
▁Good	-1987
▁Cavalc	-1988
▁concer	-1989
▁fright	-1990
▁laughing	-1991
ior	-1992
illed	-1993
▁fine	-1994
▁seems	-1995
▁super	-1996
▁disappe	-1997
zy	-1998
now	-1999
▁av	-2000
▁Did	-2001
▁led	-2002
▁pen	-2003
▁red	-2004
lusha	-2005
▁body	-2006
▁espe	-2007
ressing	-2008
▁Ilusha	-2009
joy	-2010
like	-2011
urch	-2012
inted	-2013
▁Have	-2014
▁Every	-2015
▁eager	-2016
▁paper	-2017
▁strength	-2018
▁fut	-2019
▁maj	-2020
▁wat	-2021
▁change	-2022
▁Wickham	-2023
gel	-2024
ignor	-2025
▁spot	-2026
act	-2027
orn	-2028
▁lo	-2029
alth	-2030
iece	-2031
▁Bert	-2032
▁Will	-2033
▁show	-2034
▁crime	-2035
▁meant	-2036
▁sense	-2037
aud	-2038
ief	-2039
roy	-2040
attle	-2041
ically	-2042
▁water	-2043
▁women	-2044
▁accord	-2045
▁former	-2046
▁unhapp	-2047
▁Gutenberg	-2048
▁dut	-2049
▁pol	-2050
▁qui	-2051
▁hair	-2052
▁eight	-2053
▁Alexey	-2054
▁Bertucc	-2055
▁service	-2056
bed	-2057
▁died	-2058
▁drun	-2059
▁enem	-2060
▁advan	-2061
▁Cavalcanti	-2062
▁especially	-2063
▁prosecutor	-2064
▁understood	-2065
01	-2066
ici	-2067
ugn	-2068
ular	-2069
pected	-2070
▁shout	-2071
▁tremb	-2072
lim	-2073
lice	-2074
▁low	-2075
▁mod	-2076
▁murm	-2077
▁prec	-2078
▁quar	-2079
▁angry	-2080
▁extre	-2081
▁youth	-2082
▁Project	-2083
▁waiting	-2084
▁thinking	-2085
ues	-2086
▁cry	-2087
essel	-2088
where	-2089
▁Dont	-2090
▁future	-2091
▁accompan	-2092
▁acquaint	-2093
▁surprise	-2094
hood	-2095
rill	-2096
▁Yet	-2097
▁mut	-2098
osity	-2099
▁dare	-2100
▁fing	-2101
▁says	-2102
ceeded	-2103
▁Where	-2104
▁neigh	-2105
▁escape	-2106
▁vessel	-2107
▁creature	-2108
▁evidence	-2109
▁sin	-2110
▁weak	-2111
ission	-2112
▁noble	-2113
▁usual	-2114
▁neighb	-2115
▁believed	-2116
▁Bertuccio	-2117
arr	-2118
eful	-2119
ital	-2120
lish	-2121
sequ	-2122
▁bad	-2123
▁sac	-2124
▁favor	-2125
▁bitter	-2126
▁forgive	-2127
▁persons	-2128
▁society	-2129
eal	-2130
aded	-2131
▁Lord	-2132
▁bear	-2133
▁bene	-2134
▁fail	-2135
▁jour	-2136
▁late	-2137
ounced	-2138
▁tried	-2139
lu	-2140
▁Ge	-2141
rodu	-2142
ength	-2143
itten	-2144
▁Thou	-2145
▁cast	-2146
▁gloom	-2147
▁hardly	-2148
▁itself	-2149
ches	-2150
rest	-2151
▁age	-2152
▁floor	-2153
▁descend	-2154
▁standing	-2155
ume	-2156
ghed	-2157
inal	-2158
rend	-2159
▁Bar	-2160
▁inform	-2161
▁drawing	-2162
▁forward	-2163
night	-2164
▁deli	-2165
▁fool	-2166
▁sett	-2167
▁const	-2168
▁later	-2169
▁corner	-2170
▁length	-2171
ony	-2172
▁ben	-2173
▁din	-2174
▁band	-2175
▁fair	-2176
▁along	-2177
▁chief	-2178
▁suffer	-2179
▁journey	-2180
▁listened	-2181
apt	-2182
erer	-2183
▁purs	-2184
▁sing	-2185
▁persu	-2186
▁laughed	-2187
▁entirely	-2188
,--	-2189
amed	-2190
usion	-2191
▁sweet	-2192
▁talked	-2193
▁introdu	-2194
02	-2195
▁bott	-2196
▁port	-2197
▁sake	-2198
▁concl	-2199
▁lived	-2200
▁conduct	-2201
▁destroy	-2202
▁surprised	-2203
cu	-2204
uc	-2205
fen	-2206
▁tem	-2207
eness	-2208
ourage	-2209
▁bound	-2210
▁drink	-2211
▁uneas	-2212
▁assist	-2213
▁questions	-2214
aly	-2215
▁Sp	-2216
▁sal	-2217
ative	-2218
▁paid	-2219
▁pity	-2220
▁post	-2221
▁comes	-2222
▁threw	-2223
▁govern	-2224
▁intell	-2225
▁please	-2226
▁interrupt	-2227
els	-2228
▁Go	-2229
▁dA	-2230
▁num	-2231
▁cell	-2232
erable	-2233
▁assure	-2234
oh	-2235
ests	-2236
tain	-2237
▁cre	-2238
▁pur	-2239
▁reve	-2240
▁warm	-2241
▁leaving	-2242
▁instantly	-2243
▁Pe	-2244
ards	-2245
▁col	-2246
▁deg	-2247
▁mir	-2248
▁ones	-2249
▁whis	-2250
▁arran	-2251
▁enjoy	-2252
▁anyone	-2253
Ren	-2254
rate	-2255
▁enc	-2256
▁jew	-2257
▁horr	-2258
▁latter	-2259
▁street	-2260
▁describ	-2261
be	-2262
ron	-2263
come	-2264
ibly	-2265
nect	-2266
osit	-2267
resh	-2268
antly	-2269
ified	-2270
inced	-2271
▁susp	-2272
▁view	-2273
Renaud	-2274
▁enter	-2275
▁quiet	-2276
▁Christ	-2277
▁attempt	-2278
ts	-2279
▁cra	-2280
▁fal	-2281
▁rev	-2282
▁val	-2283
▁beha	-2284
▁fond	-2285
▁produ	-2286
▁France	-2287
▁smiling	-2288
▁Sir	-2289
▁box	-2290
▁sole	-2291
▁decla	-2292
▁pride	-2293
▁reply	-2294
▁write	-2295
▁direct	-2296
▁besides	-2297
▁covered	-2298
▁position	-2299
▁presence	-2300
ph	-2301
bit	-2302
ices	-2303
illes	-2304
osing	-2305
rance	-2306
▁evil	-2307
itated	-2308
▁bless	-2309
▁proud	-2310
▁Though	-2311
▁formed	-2312
▁nearly	-2313
▁justice	-2314
▁protect	-2315
▁unhappy	-2316
bs	-2317
▁Ex	-2318
▁Just	-2319
▁Lise	-2320
▁save	-2321
▁English	-2322
▁passage	-2323
▁excellent	-2324
▁remembered	-2325
cip	-2326
▁mo	-2327
ners	-2328
▁sol	-2329
▁Eugn	-2330
▁incl	-2331
▁Lydia	-2332
▁devil	-2333
▁battle	-2334
▁seized	-2335
▁written	-2336
▁servants	-2337
kn	-2338
▁Py	-2339
▁note	-2340
▁sold	-2341
▁sugg	-2342
▁tend	-2343
▁clear	-2344
▁extra	-2345
▁Cather	-2346
▁closed	-2347
▁depart	-2348
▁natural	-2349
▁receive	-2350
▁travell	-2351
otr	-2352
par	-2353
ric	-2354
ton	-2355
▁Hay	-2356
▁bir	-2357
▁lose	-2358
▁news	-2359
▁prin	-2360
▁succ	-2361
▁fancy	-2362
▁unable	-2363
▁comfort	-2364
▁impress	-2365
▁moments	-2366
ans	-2367
eks	-2368
▁Hr	-2369
nest	-2370
what	-2371
▁mem	-2372
▁move	-2373
▁seat	-2374
▁Hroth	-2375
▁Pyotr	-2376
▁state	-2377
▁strugg	-2378
▁monaster	-2379
▁murmured	-2380
▁following	-2381
▁necessary	-2382
▁disappeared	-2383
▁acquaintance	-2384
aves	-2385
semb	-2386
tern	-2387
▁cop	-2388
▁del	-2389
ardin	-2390
ested	-2391
▁Rome	-2392
▁dang	-2393
▁innoc	-2394
▁attack	-2395
▁merely	-2396
▁extreme	-2397
▁convinced	-2398
erve	-2399
▁pub	-2400
▁girls	-2401
▁ideas	-2402
▁wrong	-2403
▁Eugnie	-2404
▁belong	-2405
▁command	-2406
▁consequ	-2407
▁procure	-2408
▁baroness	-2409
▁greatest	-2410
▁stranger	-2411
▁bowed	-2412
▁thank	-2413
▁third	-2414
iration	-2415
▁dinner	-2416
▁giving	-2417
▁likely	-2418
▁simple	-2419
▁knowledge	-2420
▁completely	-2421
hel	-2422
fast	-2423
▁Ind	-2424
▁cut	-2425
▁suc	-2426
ality	-2427
ardon	-2428
▁rend	-2429
aching	-2430
▁forth	-2431
▁occur	-2432
▁offer	-2433
▁peace	-2434
▁follow	-2435
▁pleased	-2436
▁important	-2437
ug	-2438
lac	-2439
lled	-2440
ember	-2441
▁agre	-2442
▁deal	-2443
▁road	-2444
▁walk	-2445
▁wild	-2446
▁grave	-2447
▁stone	-2448
▁police	-2449
▁noticed	-2450
▁beginning	-2451
cul	-2452
son	-2453
mand	-2454
yond	-2455
unate	-2456
▁wishes	-2457
▁Perhaps	-2458
▁promised	-2459
▁curiosity	-2460
ingu	-2461
ience	-2462
isten	-2463
ocked	-2464
▁fast	-2465
▁week	-2466
br	-2467
app	-2468
uls	-2469
vri	-2470
Mran	-2471
ching	-2472
iment	-2473
vrign	-2474
▁cost	-2475
▁easy	-2476
▁weep	-2477
erence	-2478
▁incre	-2479
▁filled	-2480
▁terror	-2481
▁Hrothgar	-2482
▁suffering	-2483
▁approached	-2484
dle	-2485
ini	-2486
ino	-2487
▁Le	-2488
angu	-2489
iety	-2490
▁den	-2491
▁exe	-2492
▁sad	-2493
▁situ	-2494
▁proof	-2495
▁rushed	-2496
▁allowed	-2497
▁arrival	-2498
▁connect	-2499
▁advanced	-2500
▁directly	-2501
▁distance	-2502
▁straight	-2503
inct	-2504
umed	-2505
ortun	-2506
▁aunt	-2507
▁soft	-2508
ainted	-2509
▁study	-2510
▁trust	-2511
▁wrote	-2512
▁beyond	-2513
▁counts	-2514
▁easily	-2515
▁greater	-2516
▁knowing	-2517
▁neither	-2518
▁murdered	-2519
tic	-2520
istol	-2521
oured	-2522
▁duty	-2523
▁wood	-2524
vrigny	-2525
▁angel	-2526
▁bright	-2527
▁depend	-2528
▁success	-2529
▁suffici	-2530
▁murderer	-2531
▁monastery	-2532
▁particularly	-2533
ism	-2534
culi	-2535
iter	-2536
upid	-2537
▁sch	-2538
actly	-2539
▁Tell	-2540
▁spee	-2541
▁unex	-2542
ealous	-2543
▁impati	-2544
▁orders	-2545
▁peculi	-2546
▁pistol	-2547
▁sisters	-2548
mn	-2549
aped	-2550
outh	-2551
▁Far	-2552
▁Liz	-2553
▁awa	-2554
▁dog	-2555
▁sus	-2556
redit	-2557
▁path	-2558
▁Hayde	-2559
▁anger	-2560
▁horse	-2561
▁party	-2562
▁sword	-2563
seilles	-2564
▁affair	-2565
▁beauty	-2566
▁apparent	-2567
▁discovered	-2568
jo	-2569
▁La	-2570
▁Nik	-2571
isted	-2572
known	-2573
▁These	-2574
▁early	-2575
▁guess	-2576
▁lying	-2577
▁showed	-2578
▁theres	-2579
▁decided	-2580
▁dressed	-2581
▁earnest	-2582
▁passing	-2583
▁serious	-2584
▁contempt	-2585
▁extraord	-2586
▁kindness	-2587
▁mistaken	-2588
▁wretched	-2589
▁Catherine	-2590
▁companion	-2591
nat	-2592
iers	-2593
▁civ	-2594
▁pal	-2595
▁rid	-2596
owers	-2597
▁Only	-2598
▁gall	-2599
▁pull	-2600
ration	-2601
▁spent	-2602
▁demand	-2603
▁guilty	-2604
▁remark	-2605
▁anxious	-2606
uded	-2607
well	-2608
▁leg	-2609
▁Long	-2610
▁ball	-2611
▁burn	-2612
▁ring	-2613
▁seek	-2614
▁tort	-2615
▁moved	-2616
▁offered	-2617
▁touched	-2618
▁Marseilles	-2619
fe	-2620
head	-2621
▁med	-2622
▁auth	-2623
▁coff	-2624
▁shud	-2625
aining	-2626
▁hopes	-2627
▁notes	-2628
▁advant	-2629
▁gloomy	-2630
▁peasant	-2631
▁expressed	-2632
▁presented	-2633
▁satisfied	-2634
kin	-2635
▁Re	-2636
▁var	-2637
erved	-2638
▁Char	-2639
▁cott	-2640
▁hell	-2641
▁rock	-2642
▁haste	-2643
▁mirac	-2644
▁posit	-2645
▁Listen	-2646
▁entreat	-2647
▁treasure	-2648
▁astonishment	-2649
by	-2650
rop	-2651
lace	-2652
oted	-2653
▁Lou	-2654
▁cru	-2655
▁div	-2656
▁eat	-2657
▁lif	-2658
▁pict	-2659
▁build	-2660
▁drunk	-2661
▁langu	-2662
▁beneath	-2663
▁resolved	-2664
▁sor	-2665
▁boys	-2666
▁hist	-2667
▁resp	-2668
ending	-2669
▁yours	-2670
▁meaning	-2671
▁prepared	-2672
▁probably	-2673
▁existence	-2674
▁circumstances	-2675
fer	-2676
iam	-2677
hamed	-2678
icult	-2679
▁drag	-2680
▁phil	-2681
▁influ	-2682
▁makes	-2683
▁separ	-2684
▁chance	-2685
▁motion	-2686
▁courage	-2687
▁learned	-2688
ER	-2689
will	-2690
▁fit	-2691
icked	-2692
osite	-2693
▁furn	-2694
▁laid	-2695
▁glance	-2696
▁misery	-2697
▁public	-2698
▁ashamed	-2699
▁jealous	-2700
▁trouble	-2701
▁countess	-2702
▁misfortune	-2703
▁extraordinary	-2704
wo	-2705
ima	-2706
olay	-2707
▁fig	-2708
orted	-2709
pping	-2710
▁slow	-2711
▁vent	-2712
idently	-2713
▁detail	-2714
▁stupid	-2715
▁watching	-2716
▁trembling	-2717
▁conscience	-2718
▁determined	-2719
.'	-2720
lan	-2721
rot	-2722
rud	-2723
olog	-2724
ploy	-2725
▁Mis	-2726
▁gre	-2727
▁coat	-2728
▁tast	-2729
▁sorry	-2730
▁breath	-2731
▁regret	-2732
▁Nikolay	-2733
▁Russian	-2734
▁engaged	-2735
▁brothers	-2736
▁perceived	-2737
▁unexpected	-2738
▁lu	-2739
cial	-2740
▁lov	-2741
chief	-2742
▁gate	-2743
▁Indeed	-2744
▁arrest	-2745
▁credit	-2746
▁employ	-2747
▁execut	-2748
▁notice	-2749
ertainly	-2750
▁emotion	-2751
▁meeting	-2752
▁opening	-2753
▁darkness	-2754
▁muttered	-2755
▁opposite	-2756
▁difficult	-2757
ask	-2758
umb	-2759
elve	-2760
▁vict	-2761
rendel	-2762
▁false	-2763
▁guard	-2764
▁treat	-2765
▁author	-2766
▁effort	-2767
▁suspic	-2768
▁waited	-2769
▁Grendel	-2770
▁imagine	-2771
▁obliged	-2772
▁officer	-2773
▁violent	-2774
▁opportun	-2775
▁Ar	-2776
▁Ju	-2777
▁Hes	-2778
▁Rue	-2779
▁lab	-2780
▁ven	-2781
▁beat	-2782
▁blue	-2783
▁vain	-2784
▁fifty	-2785
▁frequ	-2786
▁terms	-2787
▁worthy	-2788
▁assured	-2789
▁excited	-2790
▁fifteen	-2791
▁delighted	-2792
oat	-2793
oid	-2794
ots	-2795
vent	-2796
▁Bes	-2797
▁Ily	-2798
▁Was	-2799
▁fur	-2800
▁hall	-2801
▁iron	-2802
▁perm	-2803
ishing	-2804
▁seven	-2805
▁distur	-2806
▁speech	-2807
▁reading	-2808
▁charming	-2809
▁instance	-2810
▁intellig	-2811
▁intended	-2812
▁peculiar	-2813
▁suffered	-2814
▁whatever	-2815
een	-2816
ding	-2817
etto	-2818
▁Col	-2819
▁kne	-2820
▁mot	-2821
▁mus	-2822
▁anim	-2823
▁thee	-2824
▁broke	-2825
▁envel	-2826
▁fanci	-2827
▁judge	-2828
▁piece	-2829
▁polit	-2830
▁saved	-2831
▁Gardin	-2832
▁Parfen	-2833
▁repeat	-2834
▁tender	-2835
▁twelve	-2836
▁monster	-2837
▁spirits	-2838
▁dAvrigny	-2839
▁finished	-2840
▁breakfast	-2841
▁Parfenovitch	-2842
ieu	-2843
iry	-2844
hall	-2845
lend	-2846
read	-2847
venge	-2848
▁cous	-2849
▁fate	-2850
▁pron	-2851
▁wine	-2852
▁Faria	-2853
▁appre	-2854
▁fault	-2855
▁fever	-2856
▁broken	-2857
▁forced	-2858
▁millions	-2859
▁Certainly	-2860
▁listening	-2861
amma	-2862
ises	-2863
▁hot	-2864
▁try	-2865
▁ver	-2866
chant	-2867
olute	-2868
while	-2869
▁Some	-2870
▁shad	-2871
▁shut	-2872
▁burst	-2873
▁beside	-2874
▁condem	-2875
▁horror	-2876
▁memory	-2877
▁exactly	-2878
▁occupied	-2879
▁miserable	-2880
sa	-2881
osc	-2882
you	-2883
arch	-2884
hens	-2885
▁cent	-2886
▁crow	-2887
▁diam	-2888
▁thou	-2889
▁cloud	-2890
▁exper	-2891
▁Mityas	-2892
▁changed	-2893
▁mentioned	-2894
▁possessed	-2895
cas	-2896
rov	-2897
ires	-2898
ompl	-2899
▁mal	-2900
cause	-2901
▁none	-2902
▁aware	-2903
▁fresh	-2904
▁health	-2905
▁spoken	-2906
▁apartment	-2907
ias	-2908
ohl	-2909
olk	-2910
wed	-2911
▁Em	-2912
▁er	-2913
arer	-2914
quis	-2915
unic	-2916
ormed	-2917
ounce	-2918
▁Hohl	-2919
▁Mosc	-2920
▁boat	-2921
▁priv	-2922
▁fully	-2923
▁recei	-2924
▁thick	-2925
▁clever	-2926
▁hatred	-2927
▁single	-2928
▁Hohlakov	-2929
▁according	-2930
▁interrupted	-2931
▁opportunity	-2932
uff	-2933
▁Ag	-2934
▁hy	-2935
case	-2936
hand	-2937
osop	-2938
usted	-2939
▁Alas	-2940
▁stat	-2941
▁weap	-2942
▁mouth	-2943
▁repro	-2944
▁youve	-2945
▁Moscow	-2946
▁attent	-2947
▁happen	-2948
▁poison	-2949
▁Besides	-2950
▁diamond	-2951
▁evident	-2952
▁explain	-2953
▁history	-2954
▁accustom	-2955
▁advantage	-2956
▁evidently	-2957
ime	-2958
live	-2959
▁gro	-2960
▁pat	-2961
cknow	-2962
erted	-2963
▁sick	-2964
iction	-2965
▁ignor	-2966
▁caught	-2967
▁common	-2968
▁myster	-2969
▁render	-2970
▁seated	-2971
▁request	-2972
▁unknown	-2973
▁watched	-2974
gan	-2975
▁Me	-2976
eral	-2977
▁win	-2978
▁Cors	-2979
▁Pepp	-2980
▁feat	-2981
▁host	-2982
▁Lizzy	-2983
▁aloud	-2984
▁enemy	-2985
▁noise	-2986
oundrel	-2987
▁Alexand	-2988
▁Ilyitch	-2989
▁hearing	-2990
▁concealed	-2991
▁possession	-2992
▁information	-2993
iny	-2994
iant	-2995
ists	-2996
uted	-2997
▁fly	-2998
▁lod	-2999
▁sla	-3000
sieur	-3001
▁book	-3002
▁monk	-3003
▁nerv	-3004
▁reck	-3005
▁scre	-3006
▁dying	-3007
▁start	-3008
▁trial	-3009
▁works	-3010
▁acknow	-3011
▁recall	-3012
▁splend	-3013
▁Nothing	-3014
▁telling	-3015
▁windows	-3016
▁monsieur	-3017
▁scoundrel	-3018
ky	-3019
ics	-3020
omm	-3021
onel	-3022
oose	-3023
▁inj	-3024
under	-3025
▁lord	-3026
ashion	-3027
▁bread	-3028
▁restr	-3029
▁design	-3030
▁pardon	-3031
▁priest	-3032
▁Peppino	-3033
▁quarter	-3034
▁criminal	-3035
▁deceived	-3036
▁agreeable	-3037
▁doubtless	-3038
▁accompanied	-3039
af	-3040
bur	-3041
ets	-3042
wor	-3043
arily	-3044
▁Vamp	-3045
▁amaz	-3046
▁hung	-3047
▁lean	-3048
▁loud	-3049
▁surr	-3050
▁carry	-3051
▁dress	-3052
▁stair	-3053
onsense	-3054
▁Heaven	-3055
▁notary	-3056
▁Because	-3057
▁collect	-3058
▁passion	-3059
▁prevent	-3060
▁philosop	-3061
pse	-3062
que	-3063
▁et	-3064
rois	-3065
▁lim	-3066
▁van	-3067
iable	-3068
ision	-3069
izing	-3070
▁line	-3071
itable	-3072
▁delay	-3073
ability	-3074
ibility	-3075
▁papers	-3076
▁sought	-3077
▁walking	-3078
▁dreadful	-3079
▁addressed	-3080
▁accustomed	-3081
.,	-3082
go	-3083
oke	-3084
uel	-3085
anes	-3086
lief	-3087
▁Can	-3088
▁pra	-3089
ashed	-3090
▁Geat	-3091
▁Than	-3092
▁heav	-3093
▁jump	-3094
▁mort	-3095
▁becom	-3096
▁breast	-3097
▁degree	-3098
▁Barrois	-3099
▁communic	-3100
▁entrance	-3101
▁somewhat	-3102
▁committed	-3103
▁Villeforts	-3104
zen	-3105
▁30	-3106
▁Id	-3107
▁Had	-3108
alian	-3109
othes	-3110
▁Very	-3111
▁aside	-3112
▁cheer	-3113
▁prove	-3114
▁shame	-3115
▁betrot	-3116
▁indiff	-3117
▁obtain	-3118
▁solemn	-3119
▁further	-3120
▁pressed	-3121
▁envelope	-3122
▁peasants	-3123
ien	-3124
mes	-3125
▁15	-3126
oned	-3127
▁Him	-3128
▁hig	-3129
▁vol	-3130
bourn	-3131
▁bell	-3132
▁blow	-3133
▁lawy	-3134
▁magn	-3135
▁Never	-3136
▁blame	-3137
▁crowd	-3138
▁elect	-3139
▁equal	-3140
▁fight	-3141
▁swear	-3142
▁charge	-3143
▁famili	-3144
▁libert	-3145
▁magist	-3146
▁report	-3147
▁sacrif	-3148
▁unfort	-3149
▁Italian	-3150
▁address	-3151
▁chamber	-3152
▁escaped	-3153
▁settled	-3154
▁shouted	-3155
▁Longbourn	-3156
▁influence	-3157
ls	-3158
lig	-3159
lot	-3160
osp	-3161
cked	-3162
field	-3163
ument	-3164
▁vill	-3165
father	-3166
ossima	-3167
▁gazed	-3168
▁major	-3169
▁uncle	-3170
▁ceased	-3171
▁custom	-3172
▁explan	-3173
▁refuse	-3174
▁trying	-3175
▁absence	-3176
▁anxiety	-3177
▁greatly	-3178
▁absolute	-3179
▁forehead	-3180
▁hastened	-3181
▁descended	-3182
▁acquainted	-3183
rp	-3184
ilt	-3185
ker	-3186
pin	-3187
vere	-3188
wise	-3189
▁ris	-3190
▁wel	-3191
using	-3192
▁dign	-3193
▁neck	-3194
▁perf	-3195
▁pros	-3196
▁symp	-3197
action	-3198
▁Vampa	-3199
▁event	-3200
▁freed	-3201
▁advice	-3202
▁pretty	-3203
▁accompl	-3204
▁ordered	-3205
▁started	-3206
▁distingu	-3207
▁daughters	-3208
▁gratitude	-3209
▁relations	-3210
▁confidence	-3211
pr	-3212
vi	-3213
aled	-3214
ames	-3215
leep	-3216
ours	-3217
▁cab	-3218
ament	-3219
isely	-3220
pered	-3221
▁Emman	-3222
▁awful	-3223
▁benef	-3224
▁across	-3225
▁engage	-3226
▁number	-3227
▁attract	-3228
▁liberty	-3229
▁pointed	-3230
▁princip	-3231
▁handsome	-3232
▁prisoners	-3233
▁procureur	-3234
▁succeeded	-3235
iod	-3236
illy	-3237
▁ban	-3238
▁fle	-3239
▁fro	-3240
▁thy	-3241
pinay	-3242
▁inha	-3243
▁mess	-3244
▁ruin	-3245
▁vale	-3246
00,000	-3247
▁monks	-3248
▁plain	-3249
▁yield	-3250
▁confir	-3251
▁disgra	-3252
▁dpinay	-3253
▁school	-3254
▁desired	-3255
▁fancied	-3256
▁hurried	-3257
▁manners	-3258
▁declared	-3259
▁informed	-3260
▁rendered	-3261
▁shoulders	-3262
▁staircase	-3263
▁20	-3264
▁Fe	-3265
▁Se	-3266
▁da	-3267
aces	-3268
hire	-3269
ript	-3270
▁Pet	-3271
▁neg	-3272
▁Pass	-3273
▁Take	-3274
▁coun	-3275
▁empt	-3276
▁exha	-3277
▁holy	-3278
▁Italy	-3279
▁alarm	-3280
▁looks	-3281
▁spect	-3282
▁worse	-3283
aughter	-3284
▁Church	-3285
▁betray	-3286
▁events	-3287
▁period	-3288
▁purcha	-3289
▁thirty	-3290
▁appears	-3291
▁proceed	-3292
▁rapidly	-3293
▁innocent	-3294
▁language	-3295
▁minister	-3296
▁situation	-3297
▁witnesses	-3298
▁impression	-3299
,'	-3300
ses	-3301
ooks	-3302
play	-3303
rank	-3304
unes	-3305
uous	-3306
▁Nap	-3307
▁dam	-3308
▁deb	-3309
▁irr	-3310
aking	-3311
aming	-3312
asped	-3313
cient	-3314
cript	-3315
▁Mary	-3316
▁educ	-3317
▁mark	-3318
▁alive	-3319
▁avoid	-3320
▁force	-3321
▁knees	-3322
▁mater	-3323
▁trees	-3324
▁Russia	-3325
▁asleep	-3326
▁caused	-3327
▁deeply	-3328
▁excuse	-3329
▁kissed	-3330
▁proved	-3331
▁spring	-3332
▁getting	-3333
▁wouldnt	-3334
▁Emmanuel	-3335
▁occurred	-3336
▁supposed	-3337
▁visitors	-3338
▁conscious	-3339
▁considered	-3340
▁positively	-3341
▁recognized	-3342
▁resolution	-3343
uz	-3344
dom	-3345
ige	-3346
▁Ad	-3347
iven	-3348
unge	-3349
▁wid	-3350
ieces	-3351
▁sofa	-3352
▁tear	-3353
▁Lucas	-3354
▁Somet	-3355
▁While	-3356
▁fallen	-3357
▁famous	-3358
▁threat	-3359
▁Gardiner	-3360
▁discover	-3361
▁president	-3362
▁particular	-3363
▁Sm	-3364
ilar	-3365
▁Abb	-3366
▁fun	-3367
▁Lond	-3368
▁jail	-3369
▁narr	-3370
▁Misov	-3371
▁blind	-3372
▁asking	-3373
▁banker	-3374
▁doesnt	-3375
▁figure	-3376
▁gained	-3377
▁heroes	-3378
▁hidden	-3379
▁island	-3380
▁transl	-3381
▁triump	-3382
▁company	-3383
▁display	-3384
▁eagerly	-3385
▁letters	-3386
▁mothers	-3387
▁visited	-3388
acy	-3389
ify	-3390
vol	-3391
▁1.	-3392
▁ta	-3393
aked	-3394
iled	-3395
oman	-3396
ones	-3397
choly	-3398
igned	-3399
ories	-3400
▁mass	-3401
▁stop	-3402
▁fatal	-3403
▁valet	-3404
▁wound	-3405
▁youll	-3406
▁cousin	-3407
▁disapp	-3408
▁honest	-3409
▁remind	-3410
▁slowly	-3411
▁thrown	-3412
▁reality	-3413
▁interesting	-3414
ives	-3415
keep	-3416
anced	-3417
iding	-3418
▁Mons	-3419
▁deed	-3420
▁virt	-3421
vation	-3422
▁Julie	-3423
▁Louis	-3424
▁Their	-3425
▁hoped	-3426
▁venge	-3427
▁attend	-3428
▁marked	-3429
▁proper	-3430
▁served	-3431
▁thanks	-3432
▁capable	-3433
▁couldnt	-3434
▁fashion	-3435
▁heavens	-3436
▁related	-3437
▁retired	-3438
▁revenge	-3439
▁Monsieur	-3440
▁everyone	-3441
▁superior	-3442
▁carefully	-3443
▁Alexandrov	-3444
▁grandfather	-3445
▁circumstance	-3446
hy	-3447
kes	-3448
lly	-3449
▁Am	-3450
ases	-3451
athe	-3452
hend	-3453
itty	-3454
rent	-3455
▁Two	-3456
▁bow	-3457
▁sty	-3458
▁Pres	-3459
▁inde	-3460
▁pati	-3461
▁wide	-3462
▁coach	-3463
▁excit	-3464
▁lives	-3465
▁melan	-3466
▁danger	-3467
▁hither	-3468
▁fingers	-3469
▁require	-3470
▁visitor	-3471
▁writing	-3472
▁accepted	-3473
▁disgrace	-3474
▁mistress	-3475
▁betrothed	-3476
▁condition	-3477
▁generally	-3478
▁intention	-3479
▁apparently	-3480
▁frequently	-3481
▁melancholy	-3482
▁explanation	-3483
no	-3484
ze	-3485
vey	-3486
ford	-3487
hest	-3488
wing	-3489
▁Kat	-3490
▁due	-3491
astic	-3492
▁Gree	-3493
▁Luig	-3494
▁Such	-3495
▁brow	-3496
▁hang	-3497
lessly	-3498
▁faint	-3499
▁gives	-3500
▁pract	-3501
▁tempt	-3502
▁Theres	-3503
▁compre	-3504
▁finger	-3505
▁victim	-3506
▁complim	-3507
▁features	-3508
▁departure	-3509
▁explained	-3510
▁vengeance	-3511
▁companions	-3512
law	-3513
thy	-3514
yev	-3515
▁10	-3516
▁25	-3517
ator	-3518
▁Man	-3519
▁aud	-3520
iring	-3521
oring	-3522
▁bold	-3523
▁rank	-3524
yright	-3525
▁Would	-3526
▁learn	-3527
▁overw	-3528
▁spend	-3529
▁Gentle	-3530
▁Illust	-3531
▁action	-3532
▁afford	-3533
▁prince	-3534
kerchief	-3535
together	-3536
▁freedom	-3537
▁inspect	-3538
▁nervous	-3539
▁painful	-3540
▁horrible	-3541
▁produced	-3542
▁assistance	-3543
▁magistrate	-3544
III	-3545
but	-3546
oni	-3547
rees	-3548
▁See	-3549
▁cat	-3550
▁dom	-3551
▁imm	-3552
▁top	-3553
acher	-3554
arest	-3555
ences	-3556
imate	-3557
▁ship	-3558
▁wand	-3559
▁Luigi	-3560
▁compl	-3561
▁delic	-3562
▁liked	-3563
▁twice	-3564
▁church	-3565
▁endure	-3566
▁majest	-3567
▁temper	-3568
▁alarmed	-3569
▁consent	-3570
▁keeping	-3571
▁quitted	-3572
▁running	-3573
▁Gentlemen	-3574
▁Englishman	-3575
▁excitement	-3576
▁importance	-3577
▁motionless	-3578
▁mysterious	-3579
▁sufficient	-3580
▁understanding	-3581
ok	-3582
sh	-3583
▁id	-3584
aire	-3585
▁orig	-3586
▁stro	-3587
▁aband	-3588
▁brain	-3589
▁impro	-3590
▁Nether	-3591
▁assemb	-3592
▁choose	-3593
▁crying	-3594
▁recomm	-3595
▁undert	-3596
▁clothes	-3597
▁holding	-3598
▁profess	-3599
▁support	-3600
▁useless	-3601
▁generous	-3602
▁magnific	-3603
▁nonsense	-3604
▁overwhel	-3605
▁splendid	-3606
▁proceeded	-3607
▁conviction	-3608
▁Netherfield	-3609
fa	-3610
ift	-3611
ague	-3612
rass	-3613
▁Fen	-3614
▁Pha	-3615
count	-3616
osure	-3617
▁diss	-3618
▁obey	-3619
▁trem	-3620
ancing	-3621
stairs	-3622
ushing	-3623
▁dance	-3624
▁reach	-3625
▁speed	-3626
▁London	-3627
▁agreed	-3628
▁corpse	-3629
▁feared	-3630
▁middle	-3631
▁rising	-3632
▁calling	-3633
▁million	-3634
▁propert	-3635
▁building	-3636
▁Christian	-3637
▁execution	-3638
▁altogether	-3639
▁continually	-3640
▁Illustration	-3641
▁Su	-3642
coat	-3643
osom	-3644
ship	-3645
▁mil	-3646
▁tow	-3647
▁uni	-3648
ading	-3649
inite	-3650
place	-3651
ulous	-3652
▁Past	-3653
▁hide	-3654
▁Bened	-3655
▁board	-3656
▁throw	-3657
▁warri	-3658
ruction	-3659
▁amount	-3660
▁assass	-3661
▁havent	-3662
▁jewels	-3663
▁prefer	-3664
▁Colonel	-3665
▁William	-3666
▁devoted	-3667
▁officers	-3668
▁everybody	-3669
▁handkerchief	-3670
rat	-3671
▁Or	-3672
cean	-3673
chan	-3674
held	-3675
rose	-3676
▁Our	-3677
▁bab	-3678
▁cup	-3679
▁unf	-3680
▁vig	-3681
lotte	-3682
retch	-3683
▁excl	-3684
▁forb	-3685
▁fulf	-3686
▁rise	-3687
▁safe	-3688
rassot	-3689
▁Kitty	-3690
▁admit	-3691
▁drawn	-3692
▁knife	-3693
▁rooms	-3694
▁sharp	-3695
▁shore	-3696
▁teeth	-3697
▁touch	-3698
▁whats	-3699
▁Signor	-3700
▁bottom	-3701
▁consol	-3702
▁indign	-3703
▁Krassot	-3704
▁intense	-3705
▁previous	-3706
▁profound	-3707
▁struggle	-3708
▁Benedetto	-3709
▁Charlotte	-3710
▁destroyed	-3711
▁recognize	-3712
▁reflected	-3713
▁slightest	-3714
▁whispered	-3715
▁admiration	-3716
▁astonished	-3717
HA	-3718
ays	-3719
let	-3720
▁ec	-3721
▁ep	-3722
▁ur	-3723
cyld	-3724
lict	-3725
rief	-3726
▁Con	-3727
▁Kal	-3728
▁squ	-3729
ening	-3730
▁Look	-3731
▁Tere	-3732
▁cand	-3733
▁decl	-3734
▁grew	-3735
▁myst	-3736
▁sigh	-3737
▁Shall	-3738
▁arose	-3739
▁boast	-3740
▁cruel	-3741
▁drove	-3742
▁mamma	-3743
▁mourn	-3744
▁share	-3745
▁parent	-3746
▁flowers	-3747
▁guessed	-3748
▁hastily	-3749
▁lighted	-3750
▁pistols	-3751
▁property	-3752
▁fortnight	-3753
▁imagination	-3754
abl	-3755
onor	-3756
orse	-3757
uish	-3758
▁ard	-3759
▁gay	-3760
▁pan	-3761
house	-3762
▁dish	-3763
▁grie	-3764
▁phys	-3765
▁rene	-3766
▁Passy	-3767
▁Phara	-3768
▁class	-3769
▁dunge	-3770
▁embra	-3771
▁front	-3772
▁During	-3773
▁highly	-3774
▁pulled	-3775
▁cottage	-3776
▁entering	-3777
▁merchant	-3778
▁concerning	-3779
▁frightened	-3780
▁punishment	-3781
▁approaching	-3782
▁consequence	-3783
ba	-3784
ait	-3785
azz	-3786
how	-3787
loo	-3788
▁50	-3789
burg	-3790
cher	-3791
empl	-3792
side	-3793
▁Pol	-3794
▁env	-3795
ganov	-3796
stand	-3797
▁enth	-3798
▁folk	-3799
▁hate	-3800
formed	-3801
iculty	-3802
igelac	-3803
▁Katya	-3804
▁agony	-3805
▁birth	-3806
▁bosom	-3807
▁brave	-3808
▁claim	-3809
▁grant	-3810
▁kings	-3811
▁taste	-3812
▁toler	-3813
▁walls	-3814
▁Teresa	-3815
▁firmly	-3816
▁jailer	-3817
▁resist	-3818
▁burning	-3819
▁compass	-3820
▁enemies	-3821
▁fearful	-3822
▁project	-3823
▁similar	-3824
▁Kalganov	-3825
▁examined	-3826
▁extended	-3827
▁governor	-3828
▁described	-3829
▁expecting	-3830
▁difficulty	-3831
▁pronounced	-3832
▁unfortunate	-3833
gu	-3834
gers	-3835
hich	-3836
oint	-3837
ters	-3838
▁May	-3839
ailed	-3840
▁grad	-3841
▁jury	-3842
▁mere	-3843
▁Pastr	-3844
▁ocean	-3845
▁pursu	-3846
▁takes	-3847
▁Corsic	-3848
▁favour	-3849
▁summer	-3850
▁uncons	-3851
▁uneasy	-3852
▁Higelac	-3853
▁Pharaon	-3854
▁affairs	-3855
▁inquiry	-3856
▁removed	-3857
▁sailors	-3858
▁torment	-3859
▁required	-3860
▁announced	-3861
▁comprehend	-3862
ox	-3863
tw	-3864
ley	-3865
▁etc	-3866
ulted	-3867
ursed	-3868
▁gain	-3869
▁pill	-3870
▁thro	-3871
asures	-3872
▁amuse	-3873
▁brill	-3874
▁depri	-3875
▁habit	-3876
▁lower	-3877
▁midst	-3878
▁penet	-3879
▁withd	-3880
▁youre	-3881
▁advent	-3882
▁cheeks	-3883
▁failed	-3884
▁lovely	-3885
▁search	-3886
▁shadow	-3887
▁amiable	-3888
▁inquire	-3889
▁cheerful	-3890
▁ignorant	-3891
▁magnificent	-3892
▁unconscious	-3893
▁intelligence	-3894
gy	-3895
aff	-3896
urd	-3897
ruct	-3898
▁Thy	-3899
▁wed	-3900
asing	-3901
iries	-3902
oused	-3903
▁Bour	-3904
▁Even	-3905
▁loss	-3906
▁rejo	-3907
ienced	-3908
▁dared	-3909
▁imper	-3910
▁lines	-3911
▁mercy	-3912
▁owner	-3913
▁value	-3914
▁distin	-3915
▁enthus	-3916
▁insult	-3917
▁motive	-3918
▁tranqu	-3919
▁weapon	-3920
▁wicked	-3921
▁However	-3922
▁Maximov	-3923
▁capital	-3924
▁overcome	-3925
▁possibly	-3926
▁shoulder	-3927
▁singular	-3928
▁suspicion	-3929
▁interested	-3930
▁considerable	-3931
▁satisfaction	-3932
hum	-3933
itz	-3934
set	-3935
uil	-3936
▁40	-3937
▁sn	-3938
kind	-3939
mony	-3940
▁Pal	-3941
▁cou	-3942
antic	-3943
assed	-3944
gment	-3945
▁bare	-3946
▁flew	-3947
▁indu	-3948
▁rage	-3949
▁dwell	-3950
▁hurry	-3951
▁indic	-3952
▁lover	-3953
▁shook	-3954
▁Peters	-3955
▁double	-3956
▁exceed	-3957
▁exchan	-3958
▁result	-3959
▁stairs	-3960
▁tavern	-3961
▁ancient	-3962
▁anguish	-3963
▁mistake	-3964
▁special	-3965
▁contempl	-3966
▁instinct	-3967
▁contained	-3968
▁creatures	-3969
▁direction	-3970
▁exhausted	-3971
▁Krassotkin	-3972
▁uneasiness	-3973
TER	-3974
▁pi	-3975
ivid	-3976
▁ice	-3977
ature	-3978
ighed	-3979
▁Thee	-3980
▁ease	-3981
▁fart	-3982
▁tall	-3983
▁thin	-3984
▁trif	-3985
ashing	-3986
keeper	-3987
uments	-3988
▁Youre	-3989
▁brand	-3990
▁heavy	-3991
▁invol	-3992
▁saint	-3993
▁shown	-3994
▁storm	-3995
▁calcul	-3996
▁hearts	-3997
▁jumped	-3998
▁sailor	-3999
▁unless	-4000
▁picture	-4001
▁precaut	-4002
▁quietly	-4003
▁science	-4004
▁various	-4005
▁weeping	-4006
▁Alyoshas	-4007
▁neighbor	-4008
▁pleasant	-4009
▁powerful	-4010
▁precious	-4011
▁President	-4012
▁extremely	-4013
▁inquiries	-4014
▁persuaded	-4015
▁recovered	-4016
jud	-4017
rab	-4018
uge	-4019
▁Ma	-4020
▁Bor	-4021
▁Cat	-4022
▁Sat	-4023
▁aid	-4024
▁Give	-4025
▁Prov	-4026
▁bent	-4027
▁sank	-4028
▁sham	-4029
▁shed	-4030
tering	-4031
▁empty	-4032
▁paces	-4033
▁absurd	-4034
▁ascend	-4035
▁guests	-4036
▁intend	-4037
▁shaking	-4038
▁shudder	-4039
▁steward	-4040
▁sympath	-4041
▁whisper	-4042
▁humanity	-4043
▁official	-4044
▁gradually	-4045
▁addressing	-4046
▁misfortunes	-4047
tm	-4048
ode	-4049
roe	-4050
▁El	-4051
raph	-4052
▁CHA	-4053
▁Mok	-4054
▁Tru	-4055
endar	-4056
istin	-4057
peror	-4058
▁cler	-4059
▁gest	-4060
▁join	-4061
▁lies	-4062
▁luck	-4063
▁quit	-4064
▁tong	-4065
inated	-4066
▁artic	-4067
▁catch	-4068
▁guilt	-4069
▁loves	-4070
▁music	-4071
▁timid	-4072
▁wants	-4073
▁weeks	-4074
▁Mokroe	-4075
▁begged	-4076
▁beheld	-4077
▁pieces	-4078
▁talent	-4079
▁wholly	-4080
▁arrange	-4081
▁beloved	-4082
▁leading	-4083
▁perform	-4084
▁putting	-4085
▁refused	-4086
▁younger	-4087
▁reproach	-4088
▁agitation	-4089
▁naturally	-4090
▁ourselves	-4091
▁absolutely	-4092
▁beforehand	-4093
▁compassion	-4094
yr	-4095
ano	-4096
lix	-4097
▁wo	-4098
PTER	-4099
five	-4100
with	-4101
▁Bus	-4102
▁der	-4103
▁ere	-4104
▁fet	-4105
▁liv	-4106
▁lot	-4107
▁mix	-4108
▁tit	-4109
anish	-4110
verse	-4111
viour	-4112
▁Bapt	-4113
▁Cler	-4114
▁Geor	-4115
▁fier	-4116
▁harm	-4117
▁irre	-4118
▁pier	-4119
▁sink	-4120
▁Scyld	-4121
▁brief	-4122
▁fatig	-4123
▁glory	-4124
▁grace	-4125
▁maint	-4126
▁coffin	-4127
▁defend	-4128
▁establ	-4129
▁exclam	-4130
▁preced	-4131
▁signal	-4132
▁utmost	-4133
▁weight	-4134
▁wretch	-4135
▁CHAPTER	-4136
▁Clerval	-4137
▁distrib	-4138
▁disturb	-4139
▁dropped	-4140
▁illness	-4141
▁masters	-4142
▁private	-4143
▁retreat	-4144
▁village	-4145
▁Pastrini	-4146
▁arranged	-4147
▁forgiven	-4148
▁mountains	-4149
▁permission	-4150
▁experienced	-4151
▁particulars	-4152
asc	-4153
com	-4154
ades	-4155
hant	-4156
uses	-4157
▁Sud	-4158
▁tro	-4159
itary	-4160
oving	-4161
rence	-4162
ronic	-4163
▁bore	-4164
▁ears	-4165
▁food	-4166
▁goes	-4167
▁rang	-4168
ledged	-4169
▁Still	-4170
▁Youve	-4171
▁drive	-4172
▁flung	-4173
▁groan	-4174
▁names	-4175
▁slept	-4176
▁style	-4177
ception	-4178
▁Busoni	-4179
▁behold	-4180
▁gendar	-4181
▁resemb	-4182
▁thirst	-4183
▁clearly	-4184
▁grateful	-4185
▁material	-4186
▁concluded	-4187
▁education	-4188
▁inspector	-4189
▁conclusion	-4190
bor	-4191
pon	-4192
lini	-4193
osen	-4194
rang	-4195
▁Gen	-4196
▁Spe	-4197
▁cow	-4198
▁fra	-4199
▁phr	-4200
▁sho	-4201
▁vex	-4202
eless	-4203
ource	-4204
overy	-4205
▁Mery	-4206
▁bill	-4207
▁eleg	-4208
▁nine	-4209
▁obsc	-4210
▁prud	-4211
▁Fenya	-4212
▁Greek	-4213
▁Whats	-4214
▁antic	-4215
▁begun	-4216
▁etern	-4217
▁remar	-4218
▁spare	-4219
lection	-4220
▁Island	-4221
▁Sudden	-4222
▁dreams	-4223
▁hyster	-4224
▁reject	-4225
▁signed	-4226
▁Meryton	-4227
▁details	-4228
▁dungeon	-4229
▁finding	-4230
▁foolish	-4231
▁remorse	-4232
▁univers	-4233
▁accident	-4234
▁Baptistin	-4235
▁apprehens	-4236
▁behaviour	-4237
▁increased	-4238
▁Providence	-4239
▁government	-4240
uk	-4241
eem	-4242
ids	-4243
▁Br	-4244
arse	-4245
▁rul	-4246
agger	-4247
▁Luci	-4248
▁moon	-4249
▁obst	-4250
▁temp	-4251
▁vast	-4252
licity	-4253
▁Marfa	-4254
▁chest	-4255
▁grown	-4256
▁guest	-4257
▁indul	-4258
▁named	-4259
▁revol	-4260
utation	-4261
▁bottle	-4262
▁excess	-4263
▁leaves	-4264
▁praise	-4265
▁anticip	-4266
▁concern	-4267
▁created	-4268
▁crossed	-4269
▁employed	-4270
▁persuade	-4271
▁prospect	-4272
▁sentence	-4273
▁returning	-4274
▁stretched	-4275
▁invitation	-4276
zv	-4277
▁45	-4278
!...	-4279
urov	-4280
▁Has	-4281
▁gle	-4282
▁sav	-4283
etyuk	-4284
shire	-4285
▁grow	-4286
▁helm	-4287
▁prog	-4288
▁pure	-4289
▁sons	-4290
▁yell	-4291
mother	-4292
▁conqu	-4293
▁crown	-4294
▁facts	-4295
▁serve	-4296
▁thief	-4297
hearted	-4298
unately	-4299
▁Edward	-4300
▁Fetyuk	-4301
▁Pember	-4302
▁Smurov	-4303
▁decide	-4304
▁height	-4305
▁invest	-4306
▁joined	-4307
▁played	-4308
▁waters	-4309
▁convuls	-4310
▁curious	-4311
▁dignity	-4312
▁discuss	-4313
▁wounded	-4314
▁Suddenly	-4315
▁approach	-4316
▁bringing	-4317
▁departed	-4318
▁directed	-4319
▁Pemberley	-4320
▁condemned	-4321
▁fortunate	-4322
▁sacrifice	-4323
▁sensation	-4324
▁surrounded	-4325
▁Fetyukovitch	-4326
ils	-4327
yal	-4328
▁Ab	-4329
▁Ne	-4330
grat	-4331
▁Jac	-4332
▁fee	-4333
▁obt	-4334
▁sli	-4335
dered	-4336
urity	-4337
yevna	-4338
▁Arab	-4339
▁Stay	-4340
▁city	-4341
▁dull	-4342
▁gray	-4343
▁nose	-4344
▁pack	-4345
▁Catal	-4346
▁signs	-4347
▁widow	-4348
▁Really	-4349
▁buried	-4350
▁convey	-4351
▁desper	-4352
▁esteem	-4353
▁forgot	-4354
▁office	-4355
▁sprang	-4356
▁taught	-4357
▁tongue	-4358
▁Justine	-4359
▁bandits	-4360
▁farther	-4361
▁utterly	-4362
▁Bingleys	-4363
▁describe	-4364
▁Sometimes	-4365
▁brilliant	-4366
▁childhood	-4367
▁entertain	-4368
▁otherwise	-4369
▁prevented	-4370
▁shuddered	-4371
▁difference	-4372
▁electronic	-4373
▁friendship	-4374
▁recollection	-4375
opt	-4376
iber	-4377
lord	-4378
quet	-4379
resp	-4380
▁Bon	-4381
▁Yan	-4382
▁arg	-4383
▁por	-4384
▁sky	-4385
bited	-4386
rious	-4387
▁comr	-4388
▁legs	-4389
▁shot	-4390
ocking	-4391
ointed	-4392
vering	-4393
▁Roman	-4394
▁Since	-4395
▁Thank	-4396
▁assur	-4397
▁bench	-4398
▁frown	-4399
▁moral	-4400
▁slave	-4401
▁stern	-4402
attered	-4403
▁attach	-4404
▁honour	-4405
▁humble	-4406
▁interp	-4407
▁senses	-4408
▁winter	-4409
lessness	-4410
▁curtain	-4411
▁falling	-4412
▁invited	-4413
▁playing	-4414
▁remains	-4415
▁seeking	-4416
▁familiar	-4417
▁proposed	-4418
▁accompany	-4419
▁frightful	-4420
▁traveller	-4421
▁violently	-4422
▁apartments	-4423
▁engagement	-4424
▁introduced	-4425
▁disposition	-4426
▁expectation	-4427
ada	-4428
phe	-4429
ugg	-4430
▁35	-4431
cuse	-4432
give	-4433
llen	-4434
olit	-4435
▁uns	-4436
apart	-4437
ribly	-4438
▁earl	-4439
▁shru	-4440
▁song	-4441
pelled	-4442
▁Found	-4443
▁Three	-4444
▁forty	-4445
▁liege	-4446
▁worst	-4447
▁chosen	-4448
▁intent	-4449
▁interv	-4450
▁wealth	-4451
cription	-4452
▁raising	-4453
▁station	-4454
▁thunder	-4455
▁torture	-4456
▁wedding	-4457
▁welcome	-4458
▁Bonapart	-4459
▁actually	-4460
▁affected	-4461
▁coachman	-4462
▁movement	-4463
▁sensible	-4464
▁viscount	-4465
▁whenever	-4466
▁confusion	-4467
▁wonderful	-4468
▁impatience	-4469
▁reflection	-4470
▁indifference	-4471
ium	-4472
laf	-4473
▁Sc	-4474
VIII	-4475
ulse	-4476
▁Kuz	-4477
▁Rem	-4478
▁Ros	-4479
▁obv	-4480
▁rob	-4481
▁tea	-4482
▁Gods	-4483
▁comb	-4484
▁dism	-4485
▁race	-4486
▁adopt	-4487
▁annoy	-4488
▁beard	-4489
▁books	-4490
▁cries	-4491
▁exerc	-4492
▁rival	-4493
▁sides	-4494
▁truly	-4495
▁waist	-4496
fulness	-4497
▁Lucien	-4498
▁Yanina	-4499
▁apolog	-4500
▁incred	-4501
▁mighty	-4502
▁repres	-4503
▁ruined	-4504
▁settle	-4505
▁spread	-4506
▁bedroom	-4507
▁defense	-4508
▁emperor	-4509
▁example	-4510
▁admitted	-4511
▁agitated	-4512
▁faithful	-4513
▁ordinary	-4514
▁personal	-4515
▁amazement	-4516
▁precisely	-4517
▁suspected	-4518
▁Petersburg	-4519
bl	-4520
ft	-4521
ians	-4522
iend	-4523
▁fem	-4524
▁key	-4525
▁lou	-4526
rated	-4527
▁Aute	-4528
▁Carc	-4529
▁Pole	-4530
▁heat	-4531
▁hosp	-4532
▁isnt	-4533
▁kins	-4534
▁poet	-4535
▁snow	-4536
▁tomb	-4537
icious	-4538
iments	-4539
oubled	-4540
▁Felix	-4541
▁desir	-4542
▁inher	-4543
▁Napole	-4544
▁eleven	-4545
▁higher	-4546
▁patron	-4547
▁resent	-4548
▁supper	-4549
▁Auteuil	-4550
▁accused	-4551
▁assumed	-4552
▁mankind	-4553
▁matters	-4554
▁miracle	-4555
▁quarrel	-4556
▁visible	-4557
▁betrayed	-4558
▁contract	-4559
▁provided	-4560
▁sleeping	-4561
▁sympathy	-4562
▁wondered	-4563
▁Noirtiers	-4564
▁agreement	-4565
▁neighbour	-4566
▁remaining	-4567
▁separated	-4568
▁somewhere	-4569
▁delightful	-4570
▁politeness	-4571
EN	-4572
ex	-4573
asy	-4574
get	-4575
nes	-4576
oms	-4577
oul	-4578
▁Pr	-4579
▁oh	-4580
atic	-4581
cies	-4582
gged	-4583
ille	-4584
▁doc	-4585
▁god	-4586
▁pit	-4587
ounds	-4588
▁Mean	-4589
▁coll	-4590
▁disd	-4591
▁drop	-4592
▁ener	-4593
▁fish	-4594
▁furi	-4595
▁grou	-4596
▁nice	-4597
▁sche	-4598
▁shes	-4599
▁test	-4600
orough	-4601
▁below	-4602
▁color	-4603
▁ended	-4604
▁hotel	-4605
▁instr	-4606
▁labor	-4607
▁price	-4608
▁relig	-4609
▁subst	-4610
▁wasnt	-4611
▁waves	-4612
▁coward	-4613
▁embarr	-4614
▁finish	-4615
▁forbid	-4616
▁palace	-4617
▁sooner	-4618
▁virtue	-4619
▁warmly	-4620
▁Rosings	-4621
▁awfully	-4622
▁counsel	-4623
▁drunken	-4624
▁equally	-4625
▁leaning	-4626
▁majesty	-4627
▁regular	-4628
▁respons	-4629
▁resumed	-4630
▁Carconte	-4631
▁bitterly	-4632
▁civility	-4633
▁dressing	-4634
▁goodness	-4635
▁investig	-4636
▁judgment	-4637
▁mountain	-4638
▁receiving	-4639
▁sentiment	-4640
▁commission	-4641
▁distinguished	-4642
AR	-4643
If	-4644
va	-4645
mps	-4646
ovs	-4647
oses	-4648
▁Tur	-4649
▁fru	-4650
▁stu	-4651
efore	-4652
istic	-4653
lieve	-4654
mense	-4655
orney	-4656
rifon	-4657
▁King	-4658
▁Thus	-4659
▁born	-4660
▁cele	-4661
▁dine	-4662
▁libr	-4663
▁miss	-4664
▁risk	-4665
▁wise	-4666
▁wore	-4667
▁Baron	-4668
▁grott	-4669
▁match	-4670
▁parag	-4671
▁swall	-4672
▁trace	-4673
▁vigor	-4674
▁Trifon	-4675
▁assert	-4676
▁belief	-4677
▁desert	-4678
▁dragon	-4679
▁elders	-4680
▁jewell	-4681
▁market	-4682
▁relate	-4683
▁stones	-4684
standing	-4685
▁blessed	-4686
▁degrees	-4687
▁showing	-4688
▁someone	-4689
▁suggest	-4690
▁usually	-4691
▁hitherto	-4692
▁infinite	-4693
▁obtained	-4694
▁relation	-4695
▁soldiers	-4696
▁solitude	-4697
▁believing	-4698
▁Foundation	-4699
▁sensations	-4700
ob	-4701
cks	-4702
his	-4703
▁TH	-4704
phew	-4705
reet	-4706
▁Sam	-4707
▁big	-4708
▁emp	-4709
▁hun	-4710
▁pet	-4711
erezv	-4712
iance	-4713
inate	-4714
▁Capt	-4715
▁Dear	-4716
▁Poor	-4717
▁True	-4718
▁cart	-4719
▁ecst	-4720
▁lake	-4721
▁stol	-4722
▁youd	-4723
▁Super	-4724
▁champ	-4725
▁fears	-4726
▁feast	-4727
▁frame	-4728
▁overt	-4729
▁parts	-4730
▁refer	-4731
▁title	-4732
▁Darcys	-4733
▁Perezv	-4734
▁Samson	-4735
▁admire	-4736
▁forest	-4737
▁interf	-4738
▁nephew	-4739
▁retire	-4740
▁reward	-4741
▁secure	-4742
▁summon	-4743
▁unwill	-4744
▁content	-4745
▁costume	-4746
▁dislike	-4747
▁knocked	-4748
▁attorney	-4749
▁laughter	-4750
▁progress	-4751
▁striking	-4752
▁trembled	-4753
▁Meanwhile	-4754
▁attracted	-4755
▁concerned	-4756
▁connected	-4757
▁honorable	-4758
▁paragraph	-4759
▁preserved	-4760
▁Everything	-4761
▁confession	-4762
▁everywhere	-4763
▁sufferings	-4764
▁overwhelmed	-4765
▁accomplished	-4766
eps	-4767
nas	-4768
pet	-4769
rec	-4770
zed	-4771
hili	-4772
itor	-4773
▁unp	-4774
ables	-4775
acity	-4776
iture	-4777
lling	-4778
▁More	-4779
▁cord	-4780
▁joke	-4781
▁lamp	-4782
▁laws	-4783
worthy	-4784
▁beast	-4785
▁corre	-4786
▁depth	-4787
▁earli	-4788
▁fiend	-4789
▁green	-4790
▁guide	-4791
▁hated	-4792
▁incon	-4793
▁silly	-4794
▁space	-4795
ceiving	-4796
looking	-4797
respond	-4798
▁Excuse	-4799
▁bought	-4800
▁celebr	-4801
▁crimes	-4802
▁driven	-4803
▁lately	-4804
▁longed	-4805
▁nearer	-4806
▁needed	-4807
▁prayer	-4808
▁prejud	-4809
▁social	-4810
▁whence	-4811
untarily	-4812
▁Forgive	-4813
▁closely	-4814
▁declare	-4815
▁immense	-4816
▁mystery	-4817
▁objects	-4818
▁venture	-4819
▁Perezvon	-4820
▁intimate	-4821
▁moreover	-4822
▁regarded	-4823
▁warriors	-4824
▁confessed	-4825
▁dangerous	-4826
▁endeavour	-4827
▁Valentines	-4828
▁correspond	-4829
▁travelling	-4830
▁destruction	-4831
▁indignation	-4832
▁sufficiently	-4833
ald	-4834
ste	-4835
ival	-4836
lded	-4837
▁Eur	-4838
▁Pan	-4839
▁bew	-4840
▁dIf	-4841
▁gun	-4842
▁hed	-4843
chair	-4844
ouses	-4845
▁Pray	-4846
▁Wait	-4847
▁army	-4848
▁brig	-4849
▁cere	-4850
▁deny	-4851
▁fury	-4852
▁insp	-4853
▁pest	-4854
▁suit	-4855
▁tele	-4856
▁yard	-4857
ensive	-4858
rified	-4859
▁Jacop	-4860
▁civil	-4861
▁conci	-4862
▁didst	-4863
▁doors	-4864
▁faces	-4865
▁fence	-4866
▁queen	-4867
▁royal	-4868
alities	-4869
▁Before	-4870
▁beings	-4871
▁hasten	-4872
▁lawyer	-4873
▁learnt	-4874
▁modern	-4875
▁native	-4876
▁poured	-4877
▁severe	-4878
▁softly	-4879
▁worked	-4880
▁Captain	-4881
▁becomes	-4882
▁inhabit	-4883
▁library	-4884
▁neglect	-4885
▁restore	-4886
▁soldier	-4887
▁Napoleon	-4888
▁arrested	-4889
▁constant	-4890
▁perceive	-4891
▁probability	-4892
ES	-4893
sy	-4894
oon	-4895
rog	-4896
▁Sh	-4897
aths	-4898
more	-4899
past	-4900
pper	-4901
▁Nor	-4902
▁kit	-4903
▁owe	-4904
▁unm	-4905
after	-4906
icing	-4907
iling	-4908
itive	-4909
▁Many	-4910
▁Thom	-4911
▁clut	-4912
▁genu	-4913
▁mant	-4914
▁oper	-4915
▁rain	-4916
▁stir	-4917
asping	-4918
itions	-4919
▁accus	-4920
▁exact	-4921
▁madam	-4922
▁pause	-4923
▁purse	-4924
▁raise	-4925
▁George	-4926
▁choice	-4927
▁paused	-4928
▁pillow	-4929
▁rolled	-4930
▁yellow	-4931
ointment	-4932
▁Another	-4933
▁anybody	-4934
▁glanced	-4935
▁sincere	-4936
▁stepped	-4937
▁triumph	-4938
▁announce	-4939
▁attached	-4940
▁decision	-4941
▁hospital	-4942
▁pictures	-4943
▁recalled	-4944
▁composure	-4945
▁confirmed	-4946
▁discovery	-4947
▁hesitated	-4948
▁impressed	-4949
▁innocence	-4950
▁interview	-4951
▁statement	-4952
▁suggested	-4953
▁Elizabeths	-4954
▁exceedingly	-4955
▁affectionate	-4956
aw	-4957
ats	-4958
edy	-4959
elt	-4960
nal	-4961
acle	-4962
akes	-4963
bbed	-4964
cent	-4965
just	-4966
long	-4967
▁Hur	-4968
▁Ipp	-4969
▁bid	-4970
▁dim	-4971
▁rom	-4972
▁saf	-4973
▁wip	-4974
agues	-4975
asons	-4976
itate	-4977
▁Elba	-4978
▁cool	-4979
▁dawn	-4980
▁doct	-4981
▁duel	-4982
▁gaze	-4983
astrop	-4984
ciated	-4985
ulated	-4986
▁Phili	-4987
▁Speak	-4988
▁Which	-4989
▁built	-4990
▁cases	-4991
▁drops	-4992
▁fetch	-4993
▁field	-4994
▁group	-4995
▁heads	-4996
▁irres	-4997
▁spark	-4998
▁vague	-4999
▁Europe	-5000
▁permit	-5001
▁prompt	-5002
▁reckon	-5003
▁smiles	-5004
▁surely	-5005
▁Ippolit	-5006
▁amongst	-5007
▁bearing	-5008
▁dearest	-5009
▁deserve	-5010
▁eternal	-5011
▁individ	-5012
▁lawyers	-5013
▁mounted	-5014
▁readily	-5015
▁succeed	-5016
▁treated	-5017
▁becoming	-5018
▁belonged	-5019
▁carrying	-5020
▁feverish	-5021
▁insulted	-5022
▁jealousy	-5023
▁regiment	-5024
▁touching	-5025
▁weakness	-5026
▁disturbed	-5027
▁earnestly	-5028
▁exception	-5029
▁necessity	-5030
▁performed	-5031
▁connection	-5032
my	-5033
ams	-5034
bre	-5035
ilf	-5036
isp	-5037
oli	-5038
oqu	-5039
rup	-5040
sed	-5041
emen	-5042
▁Bra	-5043
▁Wed	-5044
▁voy	-5045
▁crit	-5046
▁fill	-5047
▁gift	-5048
▁kitc	-5049
▁ming	-5050
▁rely	-5051
▁sees	-5052
▁shop	-5053
▁tale	-5054
▁torn	-5055
▁unif	-5056
▁wept	-5057
arling	-5058
▁Tcher	-5059
▁crazy	-5060
▁eloqu	-5061
▁exert	-5062
▁shirt	-5063
▁Jacopo	-5064
▁dining	-5065
▁hermit	-5066
▁loving	-5067
▁places	-5068
▁sacred	-5069
▁thrust	-5070
▁actions	-5071
▁benevol	-5072
▁condemn	-5073
▁dancing	-5074
▁despise	-5075
▁endured	-5076
▁message	-5077
▁observe	-5078
▁parents	-5079
▁distress	-5080
▁dwelling	-5081
▁formerly	-5082
▁marrying	-5083
▁pointing	-5084
▁probable	-5085
▁restrain	-5086
▁suggests	-5087
▁thorough	-5088
▁upstairs	-5089
▁catastrop	-5090
▁principal	-5091
▁seriously	-5092
▁tranquill	-5093
▁questioned	-5094
▁remarkable	-5095
▁Pavlovitchs	-5096
▁consolation	-5097
▁recollected	-5098
▁consideration	-5099
1.	-5100
do	-5101
ec	-5102
ny	-5103
ta	-5104
acc	-5105
amb	-5106
key	-5107
▁55	-5108
▁Ki	-5109
fena	-5110
road	-5111
▁don	-5112
▁dry	-5113
▁gar	-5114
▁ing	-5115
▁lof	-5116
ailor	-5117
inent	-5118
ivity	-5119
ourse	-5120
▁Agra	-5121
▁Gene	-5122
▁Hert	-5123
▁Once	-5124
▁aven	-5125
▁base	-5126
▁chim	-5127
▁lock	-5128
▁obed	-5129
▁shri	-5130
▁sire	-5131
▁trad	-5132
ential	-5133
▁acted	-5134
▁consp	-5135
▁gates	-5136
▁manif	-5137
▁smugg	-5138
ational	-5139
▁Bourgh	-5140
▁Goodby	-5141
▁Kirill	-5142
▁accent	-5143
▁bandit	-5144
▁career	-5145
▁coffee	-5146
▁compar	-5147
▁judges	-5148
▁lifted	-5149
▁lively	-5150
▁modest	-5151
▁narrow	-5152
▁obeyed	-5153
▁pestle	-5154
▁phrase	-5155
▁powers	-5156
▁pursue	-5157
▁source	-5158
▁specul	-5159
▁stolen	-5160
▁Alberts	-5161
▁complex	-5162
▁genuine	-5163
▁gesture	-5164
▁outside	-5165
▁ridicul	-5166
▁uniform	-5167
fordshire	-5168
▁Agrafena	-5169
▁Remember	-5170
▁attended	-5171
▁bestowed	-5172
▁creation	-5173
▁devotion	-5174
▁offended	-5175
▁desperate	-5176
▁intellect	-5177
▁celebrated	-5178
▁Kirillovitch	-5179
▁Hertfordshire	-5180
aet	-5181
alf	-5182
bly	-5183
col	-5184
pap	-5185
▁Cs	-5186
▁ty	-5187
ends	-5188
lers	-5189
osal	-5190
rust	-5191
▁Com	-5192
▁Fer	-5193
▁Fin	-5194
▁amb	-5195
▁orn	-5196
▁scr	-5197
ooded	-5198
▁Gaet	-5199
▁amid	-5200
▁athe	-5201
▁cher	-5202
▁lest	-5203
▁meth	-5204
▁sust	-5205
▁task	-5206
▁warn	-5207
evitch	-5208
rewell	-5209
▁armor	-5210
▁clock	-5211
▁hoard	-5212
▁owing	-5213
▁persp	-5214
▁press	-5215
▁river	-5216
aration	-5217
▁Having	-5218
▁Lydias	-5219
▁arrive	-5220
▁comply	-5221
▁footst	-5222
▁locked	-5223
▁moving	-5224
▁paraly	-5225
▁savage	-5226
▁sublim	-5227
▁Bennets	-5228
▁Geatmen	-5229
▁Without	-5230
▁article	-5231
▁congrat	-5232
▁destiny	-5233
▁distant	-5234
▁finally	-5235
▁growing	-5236
▁portion	-5237
▁selfish	-5238
▁telegra	-5239
▁audience	-5240
▁contents	-5241
▁demanded	-5242
▁disposed	-5243
▁drinking	-5244
▁farewell	-5245
▁instruct	-5246
▁jeweller	-5247
▁purchase	-5248
▁restored	-5249
▁violence	-5250
▁Scyldings	-5251
▁furniture	-5252
▁reputation	-5253
▁examination	-5254
▁acknowledged	-5255
15	-5256
fl	-5257
boy	-5258
hor	-5259
ius	-5260
kas	-5261
rim	-5262
row	-5263
▁Te	-5264
ient	-5265
iest	-5266
mash	-5267
oped	-5268
ural	-5269
▁Cop	-5270
▁Gra	-5271
▁cli	-5272
▁ela	-5273
▁fow	-5274
▁reb	-5275
▁rub	-5276
▁smo	-5277
▁tot	-5278
▁wra	-5279
bbing	-5280
eling	-5281
verty	-5282
▁Aust	-5283
▁Does	-5284
▁asso	-5285
▁bond	-5286
▁chem	-5287
▁hurt	-5288
▁inex	-5289
▁pair	-5290
▁poem	-5291
▁rule	-5292
▁seld	-5293
affold	-5294
asting	-5295
iberia	-5296
▁Could	-5297
▁Those	-5298
▁broad	-5299
▁capri	-5300
▁disag	-5301
▁drank	-5302
▁folly	-5303
▁image	-5304
▁inval	-5305
▁punct	-5306
▁theat	-5307
▁unple	-5308
▁Boriss	-5309
▁Geneva	-5310
▁absent	-5311
▁bowing	-5312
▁flight	-5313
▁fourth	-5314
▁freely	-5315
▁gently	-5316
▁grotto	-5317
▁hunger	-5318
▁livres	-5319
▁method	-5320
▁Gaetano	-5321
▁Siberia	-5322
▁Spanish	-5323
▁Thomson	-5324
▁applied	-5325
▁beating	-5326
▁conject	-5327
▁disdain	-5328
▁dragged	-5329
▁impulse	-5330
▁kingdom	-5331
▁persist	-5332
▁poverty	-5333
▁setting	-5334
▁somehow	-5335
▁wearing	-5336
▁acquired	-5337
▁armchair	-5338
▁composed	-5339
▁continue	-5340
▁gracious	-5341
▁imagined	-5342
▁incident	-5343
▁independ	-5344
▁scaffold	-5345
▁throwing	-5346
▁Tchermash	-5347
▁adventure	-5348
▁assurance	-5349
▁conducted	-5350
▁permitted	-5351
▁respected	-5352
▁unwilling	-5353
▁attentions	-5354
▁constantly	-5355
▁intentions	-5356
▁attentively	-5357
▁inclination	-5358
▁Borissovitch	-5359
▁perspiration	-5360
▁Alexandrovitch	-5361
ND	-5362
rd	-5363
bad	-5364
che	-5365
isc	-5366
mpt	-5367
nya	-5368
ros	-5369
irst	-5370
ived	-5371
olet	-5372
▁Sin	-5373
▁aim	-5374
▁ess	-5375
▁lin	-5376
▁lux	-5377
▁pil	-5378
ators	-5379
atory	-5380
erent	-5381
umber	-5382
▁degr	-5383
▁fren	-5384
▁mild	-5385
inging	-5386
▁birds	-5387
▁hadnt	-5388
▁salon	-5389
▁stiff	-5390
▁torch	-5391
▁access	-5392
▁circle	-5393
▁disple	-5394
▁estate	-5395
▁flying	-5396
▁insist	-5397
▁mortal	-5398
▁retain	-5399
▁safety	-5400
▁seldom	-5401
▁sighed	-5402
▁stared	-5403
▁strict	-5404
▁thinks	-5405
▁united	-5406
ertained	-5407
▁England	-5408
▁Forster	-5409
▁crushed	-5410
▁darling	-5411
▁fatigue	-5412
▁granted	-5413
▁hanging	-5414
▁highest	-5415
▁madness	-5416
▁plainly	-5417
▁streets	-5418
▁teacher	-5419
▁Parisian	-5420
▁awaiting	-5421
▁deprived	-5422
▁deserted	-5423
▁fastened	-5424
▁mournful	-5425
▁pleasing	-5426
▁revealed	-5427
▁signific	-5428
▁solitary	-5429
▁withdrew	-5430
▁youthful	-5431
▁anxiously	-5432
▁immediate	-5433
▁meanwhile	-5434
▁preparing	-5435
▁strangers	-5436
▁thousands	-5437
▁waistcoat	-5438
▁distinctly	-5439
▁individual	-5440
▁philosophy	-5441
▁precaution	-5442
withstanding	-5443
▁Smerdyakovs	-5444
▁acknowledge	-5445
▁endeavoured	-5446
▁exclamation	-5447
▁reflections	-5448
▁Alexandrovna	-5449
▁Tchermashnya	-5450
amm	-5451
pel	-5452
▁Sw	-5453
asha	-5454
bour	-5455
chie	-5456
ites	-5457
lore	-5458
rier	-5459
rous	-5460
▁Coc	-5461
▁asc	-5462
▁bag	-5463
▁bod	-5464
▁rig	-5465
erves	-5466
licit	-5467
uable	-5468
urday	-5469
uting	-5470
▁Vict	-5471
▁buff	-5472
▁crew	-5473
▁maid	-5474
▁nois	-5475
▁oath	-5476
▁rapt	-5477
▁sell	-5478
mooded	-5479
twenty	-5480
▁Marya	-5481
▁absor	-5482
▁alter	-5483
▁awake	-5484
▁boots	-5485
▁liber	-5486
▁rocks	-5487
▁shake	-5488
▁shant	-5489
▁stock	-5490
▁Cocles	-5491
▁Sinbad	-5492
▁active	-5493
▁cavern	-5494
▁contro	-5495
▁gazing	-5496
▁hiding	-5497
▁impert	-5498
▁mechan	-5499
▁polite	-5500
▁punish	-5501
▁rarely	-5502
▁roused	-5503
▁stayed	-5504
▁unlike	-5505
▁vanity	-5506
▁behaved	-5507
▁measure	-5508
▁mingled	-5509
▁pursued	-5510
▁satisfy	-5511
▁singing	-5512
▁unpleas	-5513
▁wishing	-5514
▁assembly	-5515
▁breaking	-5516
▁friendly	-5517
▁intently	-5518
▁irresist	-5519
▁Copyright	-5520
▁abandoned	-5521
▁authority	-5522
▁collected	-5523
▁displayed	-5524
▁tolerably	-5525
▁treasures	-5526
▁catastrophe	-5527
▁established	-5528
▁introduction	-5529
▁tranquillity	-5530
.-	-5531
So	-5532
TH	-5533
bo	-5534
ante	-5535
fall	-5536
psed	-5537
usal	-5538
▁THE	-5539
▁fac	-5540
▁hab	-5541
▁rum	-5542
aling	-5543
athed	-5544
icted	-5545
▁Fitz	-5546
▁Rene	-5547
▁Shes	-5548
▁ferv	-5549
▁game	-5550
▁hers	-5551
▁unse	-5552
bation	-5553
orious	-5554
riages	-5555
▁admir	-5556
▁deeds	-5557
▁incap	-5558
▁lofty	-5559
▁minds	-5560
▁sorts	-5561
▁uncom	-5562
athered	-5563
william	-5564
▁anyway	-5565
▁duties	-5566
▁proofs	-5567
▁sentin	-5568
▁strike	-5569
▁throat	-5570
▁visits	-5571
▁womans	-5572
▁Carlini	-5573
▁Philips	-5574
▁advance	-5575
▁awaited	-5576
▁clasped	-5577
▁concier	-5578
▁contrad	-5579
▁follows	-5580
▁produce	-5581
▁proport	-5582
▁tremble	-5583
▁willing	-5584
▁Corsican	-5585
▁Samsonov	-5586
▁Saturday	-5587
▁blessing	-5588
▁fourteen	-5589
▁realized	-5590
▁subjects	-5591
▁Ivanovnas	-5592
▁consisted	-5593
▁copyright	-5594
▁introduce	-5595
▁obviously	-5596
▁sincerely	-5597
▁strangely	-5598
▁Grushenkas	-5599
▁attachment	-5600
▁ridiculous	-5601
▁Fitzwilliam	-5602
▁compliments	-5603
▁indifferent	-5604
▁communication	-5605
▁consciousness	-5606
▁neighbourhood	-5607
ah	-5608
irm	-5609
umn	-5610
enes	-5611
gent	-5612
orne	-5613
papa	-5614
rium	-5615
umes	-5616
▁Bov	-5617
▁Dan	-5618
▁ant	-5619
▁ink	-5620
▁ren	-5621
acing	-5622
apont	-5623
nival	-5624
orrid	-5625
owder	-5626
▁Arch	-5627
▁Each	-5628
▁cult	-5629
▁disg	-5630
▁fant	-5631
▁hind	-5632
▁hint	-5633
▁keen	-5634
▁peop	-5635
▁snat	-5636
▁soup	-5637
▁swim	-5638
▁wear	-5639
▁yach	-5640
mitted	-5641
oubted	-5642
▁Allen	-5643
▁Ivans	-5644
▁burnt	-5645
▁calls	-5646
▁cards	-5647
▁check	-5648
▁cover	-5649
▁lodge	-5650
▁rever	-5651
▁scrut	-5652
▁smell	-5653
▁union	-5654
itating	-5655
iterary	-5656
natural	-5657
▁Andrey	-5658
▁attrib	-5659
▁condes	-5660
▁domest	-5661
▁extent	-5662
▁induce	-5663
▁parted	-5664
▁rested	-5665
▁scheme	-5666
▁silver	-5667
▁unjust	-5668
▁General	-5669
▁abandon	-5670
▁current	-5671
▁funeral	-5672
▁gallery	-5673
▁kitchen	-5674
▁leagues	-5675
▁placing	-5676
▁praying	-5677
▁pursuit	-5678
▁signals	-5679
▁sublime	-5680
▁suspect	-5681
ification	-5682
▁Carnival	-5683
▁Ferapont	-5684
▁addition	-5685
▁calmness	-5686
▁delicacy	-5687
▁disagree	-5688
▁favorite	-5689
▁gathered	-5690
▁increase	-5691
▁interval	-5692
▁uttering	-5693
▁belonging	-5694
▁carriages	-5695
▁congratul	-5696
▁exchanged	-5697
▁favorable	-5698
▁impatient	-5699
▁supposing	-5700
▁telegraph	-5701
▁instrument	-5702
▁description	-5703
11	-5704
3.	-5705
gl	-5706
onc	-5707
ped	-5708
▁En	-5709
▁vo	-5710
ancy	-5711
char	-5712
hold	-5713
rict	-5714
ucum	-5715
▁Wil	-5716
▁foi	-5717
▁nob	-5718
ected	-5719
ially	-5720
isher	-5721
lyses	-5722
ollow	-5723
uding	-5724
uming	-5725
▁Heor	-5726
▁Holy	-5727
▁Port	-5728
▁Sund	-5729
▁bade	-5730
▁dece	-5731
▁dogs	-5732
▁roof	-5733
▁rude	-5734
▁spit	-5735
▁star	-5736
▁worn	-5737
ension	-5738
iality	-5739
leness	-5740
▁About	-5741
▁Cucum	-5742
▁Hurst	-5743
▁Youll	-5744
▁abode	-5745
▁apply	-5746
▁chose	-5747
▁decor	-5748
▁forms	-5749
▁grasp	-5750
▁merit	-5751
▁shade	-5752
▁south	-5753
▁tired	-5754
ourable	-5755
theless	-5756
▁Champs	-5757
▁applic	-5758
▁assume	-5759
▁brandy	-5760
▁clouds	-5761
▁houses	-5762
▁illust	-5763
▁income	-5764
▁porter	-5765
▁prayed	-5766
▁repent	-5767
▁repose	-5768
▁season	-5769
▁transp	-5770
endation	-5771
▁Wilmore	-5772
▁bankers	-5773
▁confirm	-5774
▁efforts	-5775
▁extingu	-5776
▁inherit	-5777
▁receipt	-5778
▁renders	-5779
▁ringing	-5780
▁seeming	-5781
▁wanting	-5782
▁weather	-5783
▁landlord	-5784
▁original	-5785
▁passions	-5786
▁pressing	-5787
▁reminded	-5788
▁situated	-5789
▁surround	-5790
▁advancing	-5791
▁enjoyment	-5792
▁examining	-5793
▁favourite	-5794
▁furnished	-5795
▁hermitage	-5796
▁prevailed	-5797
▁breathless	-5798
▁complexion	-5799
▁sentiments	-5800
▁unpleasant	-5801
▁forgiveness	-5802
▁translation	-5803
ho	-5804
sc	-5805
cle	-5806
hal	-5807
olo	-5808
olt	-5809
was	-5810
▁Mi	-5811
▁OF	-5812
agne	-5813
izes	-5814
pher	-5815
▁200	-5816
▁501	-5817
▁502	-5818
▁Pen	-5819
▁Tom	-5820
▁sup	-5821
aches	-5822
amous	-5823
icism	-5824
neath	-5825
piece	-5826
uries	-5827
▁debt	-5828
▁emer	-5829
▁exhi	-5830
▁gent	-5831
▁grin	-5832
▁hill	-5833
▁inev	-5834
▁mult	-5835
▁ours	-5836
▁rele	-5837
▁soot	-5838
▁unto	-5839
▁wave	-5840
ifying	-5841
unning	-5842
▁Poles	-5843
▁Spada	-5844
▁bride	-5845
▁fruit	-5846
▁linen	-5847
▁stage	-5848
▁stead	-5849
▁train	-5850
▁yacht	-5851
chamber	-5852
itution	-5853
natured	-5854
▁corrid	-5855
▁frivol	-5856
▁kindly	-5857
▁origin	-5858
▁partly	-5859
▁remove	-5860
▁scream	-5861
▁theory	-5862
▁travel	-5863
▁voices	-5864
▁voyage	-5865
▁Arabian	-5866
▁Boville	-5867
▁careful	-5868
▁charged	-5869
▁corrupt	-5870
▁doctors	-5871
▁elegant	-5872
▁grasped	-5873
▁invalid	-5874
▁landing	-5875
▁prepare	-5876
▁recover	-5877
▁renewed	-5878
▁respond	-5879
▁attacked	-5880
▁comrades	-5881
▁delirium	-5882
▁desirous	-5883
▁distinct	-5884
▁husbands	-5885
▁offering	-5886
▁services	-5887
▁Frenchman	-5888
▁compelled	-5889
▁concierge	-5890
▁confident	-5891
▁grandpapa	-5892
▁incapable	-5893
▁occasions	-5894
▁protector	-5895
▁represent	-5896
▁compliment	-5897
▁hesitation	-5898
▁entertained	-5899
▁impatiently	-5900
▁responsible	-5901
▁apprehension	-5902
▁consequently	-5903
cg	-5904
The	-5905
agg	-5906
ded	-5907
ean	-5908
nel	-5909
ube	-5910
▁od	-5911
cast	-5912
eman	-5913
iasm	-5914
irty	-5915
mind	-5916
oves	-5917
work	-5918
▁Ger	-5919
▁Hun	-5920
▁bal	-5921
▁clo	-5922
▁pop	-5923
▁wet	-5924
actor	-5925
bourg	-5926
ental	-5927
joice	-5928
owner	-5929
theow	-5930
urely	-5931
zenst	-5932
▁Both	-5933
▁East	-5934
▁Five	-5935
▁Four	-5936
▁Vass	-5937
▁Were	-5938
▁alas	-5939
▁bend	-5940
▁cann	-5941
▁card	-5942
▁clim	-5943
▁curt	-5944
▁fasc	-5945
▁fund	-5946
▁merc	-5947
▁pall	-5948
▁peep	-5949
▁pred	-5950
▁sear	-5951
▁sere	-5952
▁sins	-5953
▁stif	-5954
▁term	-5955
▁tree	-5956
minded	-5957
▁Adieu	-5958
▁Again	-5959
▁branc	-5960
▁final	-5961
▁frank	-5962
▁horiz	-5963
▁louis	-5964
▁plans	-5965
▁scrup	-5966
▁shape	-5967
▁troop	-5968
▁urged	-5969
colored	-5970
ilities	-5971
utenant	-5972
▁Heorot	-5973
▁bestow	-5974
▁burden	-5975
▁calmly	-5976
▁coarse	-5977
▁commit	-5978
▁contri	-5979
▁crowns	-5980
▁fulfil	-5981
▁golden	-5982
▁handed	-5983
▁hoping	-5984
▁humili	-5985
▁imprud	-5986
▁impuls	-5987
▁lasted	-5988
▁malice	-5989
▁relief	-5990
▁select	-5991
▁stated	-5992
▁thence	-5993
ceptible	-5994
oubtedly	-5995
▁challen	-5996
▁deliber	-5997
▁desires	-5998
▁enjoyed	-5999
▁enthusi	-6000
▁examine	-6001
▁existed	-6002
▁fellows	-6003
▁grieved	-6004
▁happens	-6005
▁kinsman	-6006
▁motives	-6007
▁peoples	-6008
▁prudent	-6009
▁seconds	-6010
▁tonight	-6011
▁weapons	-6012
▁Herzenst	-6013
▁Superior	-6014
▁Wickhams	-6015
▁branches	-6016
▁ceremony	-6017
▁commence	-6018
▁exercise	-6019
▁preserve	-6020
▁remarked	-6021
▁security	-6022
▁shouting	-6023
▁snatched	-6024
▁strongly	-6025
▁summoned	-6026
▁suspense	-6027
▁terribly	-6028
▁treacher	-6029
▁valuable	-6030
▁ventured	-6031
▁Cucumetto	-6032
▁amusement	-6033
▁ascertain	-6034
▁hurriedly	-6035
▁containing	-6036
▁enthusiasm	-6037
▁previously	-6038
▁resentment	-6039
▁respecting	-6040
▁triumphant	-6041
▁observation	-6042
▁philosopher	-6043
▁remembrance	-6044
▁occasionally	-6045
▁respectfully	-6046
▁determination	-6047
▁investigating	-6048
4.	-6049
IN	-6050
rm	-6051
can	-6052
ese	-6053
hot	-6054
off	-6055
rid	-6056
▁Pi	-6057
▁ye	-6058
aunt	-6059
book	-6060
face	-6061
hail	-6062
kins	-6063
stri	-6064
urse	-6065
▁Ecg	-6066
▁Imp	-6067
▁Nay	-6068
▁Say	-6069
▁ble	-6070
▁fil	-6071
▁sly	-6072
▁unb	-6073
▁woe	-6074
aries	-6075
eding	-6076
enger	-6077
gging	-6078
heard	-6079
quise	-6080
unted	-6081
▁Csar	-6082
▁Make	-6083
▁Most	-6084
▁baby	-6085
▁carb	-6086
▁cash	-6087
▁damn	-6088
▁impr	-6089
▁jest	-6090
▁mood	-6091
▁pond	-6092
▁tore	-6093
herent	-6094
▁await	-6095
▁awoke	-6096
▁clerk	-6097
▁cloak	-6098
▁curse	-6099
▁disgu	-6100
▁disli	-6101
▁enorm	-6102
▁error	-6103
▁ideal	-6104
▁miles	-6105
▁north	-6106
▁ornam	-6107
▁scand	-6108
▁shone	-6109
▁shoot	-6110
eration	-6111
▁German	-6112
▁Mihail	-6113
▁People	-6114
▁Thanks	-6115
▁aspect	-6116
▁bewild	-6117
▁button	-6118
▁daring	-6119
▁eating	-6120
▁eldest	-6121
▁fierce	-6122
▁leaned	-6123
▁mantle	-6124
▁pounds	-6125
▁sounds	-6126
▁warmth	-6127
▁amusing	-6128
▁ecstasy	-6129
▁exagger	-6130
▁flatter	-6131
▁managed	-6132
▁marquis	-6133
▁prayers	-6134
▁propose	-6135
▁rejoice	-6136
▁secrets	-6137
▁shepher	-6138
▁staying	-6139
▁stories	-6140
▁Tomorrow	-6141
▁ascended	-6142
▁confined	-6143
▁inclined	-6144
▁interrog	-6145
▁reserved	-6146
▁resolute	-6147
▁slightly	-6148
▁tortured	-6149
▁certainty	-6150
▁champagne	-6151
▁continual	-6152
▁footsteps	-6153
▁political	-6154
▁supported	-6155
▁swallowed	-6156
▁universal	-6157
▁wondering	-6158
▁accusation	-6159
▁perceiving	-6160
▁profession	-6161
▁reasonable	-6162
▁Herzenstube	-6163
▁grandmother	-6164
▁disagreeable	-6165
▁notwithstanding	-6166
RO	-6167
amn	-6168
pef	-6169
she	-6170
▁eh	-6171
.--1	-6172
bery	-6173
emon	-6174
gnat	-6175
rily	-6176
sect	-6177
▁401	-6178
▁Hen	-6179
▁awk	-6180
▁cig	-6181
▁flo	-6182
▁gif	-6183
▁mas	-6184
▁ray	-6185
▁shr	-6186
adise	-6187
istoc	-6188
stead	-6189
vered	-6190
▁Kond	-6191
▁Sire	-6192
▁elev	-6193
▁hath	-6194
▁lust	-6195
▁nast	-6196
▁rela	-6197
▁subs	-6198
▁sunk	-6199
▁unre	-6200
▁unus	-6201
ailing	-6202
akened	-6203
cribed	-6204
inking	-6205
▁Ignat	-6206
▁abhor	-6207
▁achie	-6208
▁agent	-6209
▁dozen	-6210
▁greet	-6211
▁illum	-6212
▁journ	-6213
▁knock	-6214
▁oblig	-6215
▁stole	-6216
▁Bright	-6217
▁Doctor	-6218
▁Mother	-6219
▁Sunday	-6220
▁animal	-6221
▁consum	-6222
▁deadly	-6223
▁defect	-6224
▁depths	-6225
▁haught	-6226
▁nobody	-6227
▁picked	-6228
▁stupef	-6229
▁Brother	-6230
▁Cristos	-6231
▁Kondrat	-6232
▁awkward	-6233
▁buffoon	-6234
▁console	-6235
▁correct	-6236
▁enchant	-6237
▁expense	-6238
▁harmony	-6239
▁marvell	-6240
▁reasons	-6241
▁sending	-6242
▁wrapped	-6243
▁Ladyship	-6244
▁Morcerfs	-6245
▁assassin	-6246
▁attitude	-6247
▁conflict	-6248
▁contrast	-6249
▁daylight	-6250
▁delicate	-6251
▁endeavor	-6252
▁patience	-6253
▁sentinel	-6254
▁stopping	-6255
▁wandered	-6256
▁disappear	-6257
▁essential	-6258
▁gendarmes	-6259
▁ignorance	-6260
▁lightning	-6261
▁messenger	-6262
▁objection	-6263
▁observing	-6264
▁senseless	-6265
▁benefactor	-6266
▁bewildered	-6267
▁miraculous	-6268
▁tenderness	-6269
▁thoughtful	-6270
▁Bonapartist	-6271
▁considering	-6272
▁distinguish	-6273
▁intelligent	-6274
▁possibility	-6275
IS	-6276
RA	-6277
gi	-6278
ule	-6279
▁Cl	-6280
▁Li	-6281
▁ug	-6282
cell	-6283
elim	-6284
elon	-6285
inet	-6286
lies	-6287
osse	-6288
uing	-6289
▁201	-6290
▁Wig	-6291
▁ate	-6292
▁buy	-6293
▁cas	-6294
▁ens	-6295
▁fla	-6296
▁spr	-6297
▁wif	-6298
▁won	-6299
board	-6300
lance	-6301
thats	-6302
unged	-6303
▁Damn	-6304
▁Sept	-6305
▁agon	-6306
▁anch	-6307
▁cook	-6308
▁copy	-6309
▁dise	-6310
▁duke	-6311
▁enab	-6312
▁fled	-6313
▁heir	-6314
▁numb	-6315
▁pick	-6316
▁prey	-6317
▁rail	-6318
▁sobs	-6319
▁ways	-6320
acious	-6321
cholog	-6322
uously	-6323
▁First	-6324
▁Kuzma	-6325
▁cease	-6326
▁crush	-6327
▁devel	-6328
▁eaten	-6329
▁flock	-6330
▁insol	-6331
▁merry	-6332
▁miser	-6333
▁piast	-6334
▁sheet	-6335
▁sixty	-6336
▁stars	-6337
▁Perhot	-6338
▁States	-6339
▁abroad	-6340
▁abrupt	-6341
▁accuse	-6342
▁acting	-6343
▁actual	-6344
▁centre	-6345
▁darted	-6346
▁dishon	-6347
▁disord	-6348
▁energy	-6349
▁forese	-6350
▁helped	-6351
▁hungry	-6352
▁invite	-6353
▁loaded	-6354
▁malign	-6355
▁marvel	-6356
▁morrow	-6357
▁perpet	-6358
▁propri	-6359
▁scenes	-6360
▁summit	-6361
▁throne	-6362
▁Heading	-6363
▁Ilushas	-6364
▁Vassily	-6365
▁altered	-6366
▁aristoc	-6367
▁disgust	-6368
▁dismiss	-6369
▁divided	-6370
▁elapsed	-6371
▁encoura	-6372
▁flushed	-6373
▁forever	-6374
▁furious	-6375
▁gravely	-6376
▁plunged	-6377
▁privile	-6378
▁scandal	-6379
▁studies	-6380
▁absorbed	-6381
▁compared	-6382
▁confused	-6383
▁destined	-6384
▁diamonds	-6385
▁domestic	-6386
▁families	-6387
▁miracles	-6388
▁numerous	-6389
▁properly	-6390
▁trifling	-6391
▁wherever	-6392
▁attempted	-6393
▁eagerness	-6394
▁innkeeper	-6395
▁preceding	-6396
▁Ignatyevna	-6397
▁carelessly	-6398
▁downstairs	-6399
▁experience	-6400
▁thoroughly	-6401
▁authorities	-6402
▁neighborhood	-6403
▁Vassilyevitch	-6404
▁involuntarily	-6405
▁recollections	-6406
▁unconsciously	-6407
▁disappointment	-6408
rs	-6409
vo	-6410
yn	-6411
:--	-6412
bar	-6413
bow	-6414
het	-6415
pri	-6416
tel	-6417
upp	-6418
▁01	-6419
ails	-6420
enth	-6421
iate	-6422
port	-6423
then	-6424
▁202	-6425
▁400	-6426
▁402	-6427
▁Any	-6428
▁Mal	-6429
▁cho	-6430
▁dig	-6431
▁ecc	-6432
▁hut	-6433
▁iss	-6434
▁tap	-6435
agers	-6436
ghorn	-6437
ician	-6438
mbers	-6439
meric	-6440
notes	-6441
stein	-6442
▁Blac	-6443
▁Mond	-6444
▁clen	-6445
▁dict	-6446
▁mens	-6447
▁mode	-6448
▁silk	-6449
▁weve	-6450
icense	-6451
▁Flore	-6452
▁Henry	-6453
▁Janes	-6454
▁Selim	-6455
▁State	-6456
▁blows	-6457
▁cared	-6458
▁coast	-6459
▁demon	-6460
▁irrit	-6461
▁nurse	-6462
▁panie	-6463
▁reass	-6464
▁smoke	-6465
▁straw	-6466
▁trick	-6467
▁wrath	-6468
lasting	-6469
quisite	-6470
ulation	-6471
▁Americ	-6472
▁Louise	-6473
▁Victor	-6474
▁Wiglaf	-6475
▁advise	-6476
▁danced	-6477
▁divine	-6478
▁helmet	-6479
▁immort	-6480
▁insuff	-6481
▁openly	-6482
▁portra	-6483
▁precip	-6484
▁refuge	-6485
▁resign	-6486
▁reveal	-6487
▁toward	-6488
▁Colosse	-6489
▁Edmonds	-6490
▁Leghorn	-6491
▁angrily	-6492
▁counted	-6493
▁cunning	-6494
▁dischar	-6495
▁dreaded	-6496
▁hideous	-6497
▁improve	-6498
▁obscure	-6499
▁parting	-6500
▁patient	-6501
▁pretend	-6502
▁thither	-6503
▁unusual	-6504
▁afforded	-6505
▁awakened	-6506
▁conveyed	-6507
▁dishonor	-6508
▁insisted	-6509
▁invented	-6510
▁meantime	-6511
▁midnight	-6512
▁persecut	-6513
▁positive	-6514
▁practice	-6515
▁rejoiced	-6516
▁relative	-6517
▁shouldnt	-6518
▁dignified	-6519
▁exquisite	-6520
▁fantastic	-6521
▁inhabited	-6522
▁obedience	-6523
▁prejudice	-6524
▁pretended	-6525
▁religious	-6526
▁repeating	-6527
▁accomplish	-6528
▁comparison	-6529
▁dreadfully	-6530
▁hysterical	-6531
▁increasing	-6532
▁marvellous	-6533
▁endeavoring	-6534
▁characteristic	-6535
03	-6536
2.	-6537
erb	-6538
gen	-6539
pes	-6540
ris	-6541
sky	-6542
▁Pl	-6543
----	-6544
cern	-6545
mund	-6546
ripp	-6547
vert	-6548
▁500	-6549
▁Fau	-6550
▁Hel	-6551
▁Jew	-6552
▁Med	-6553
▁Old	-6554
▁cul	-6555
▁lam	-6556
▁psy	-6557
chest	-6558
icide	-6559
nited	-6560
sters	-6561
there	-6562
▁Hell	-6563
▁Hush	-6564
▁Mont	-6565
▁ador	-6566
▁ages	-6567
▁ante	-6568
▁bree	-6569
▁dust	-6570
▁fowl	-6571
▁huge	-6572
▁mead	-6573
▁pour	-6574
▁prow	-6575
▁rays	-6576
▁skin	-6577
▁ugly	-6578
asured	-6579
gelord	-6580
▁Geats	-6581
▁clean	-6582
▁daily	-6583
▁edges	-6584
▁leapt	-6585
▁quant	-6586
▁relie	-6587
▁renew	-6588
▁repla	-6589
▁risen	-6590
▁skill	-6591
▁slain	-6592
▁solic	-6593
▁stagg	-6594
▁swell	-6595
▁tells	-6596
▁trous	-6597
▁upset	-6598
▁Blacas	-6599
▁Street	-6600
▁fisher	-6601
▁losing	-6602
▁madman	-6603
▁paying	-6604
▁powder	-6605
▁pushed	-6606
▁shared	-6607
▁shield	-6608
▁strove	-6609
▁useful	-6610
▁wooden	-6611
▁Believe	-6612
▁Penelon	-6613
▁adopted	-6614
▁barrier	-6615
▁breathe	-6616
▁effects	-6617
▁foreign	-6618
▁happily	-6619
▁horizon	-6620
▁journal	-6621
▁prosper	-6622
▁provide	-6623
▁refusal	-6624
▁revived	-6625
▁shortly	-6626
▁withdra	-6627
▁working	-6628
▁worship	-6629
▁accounts	-6630
▁accursed	-6631
▁changing	-6632
▁clasping	-6633
▁depended	-6634
▁disliked	-6635
▁executed	-6636
▁gendarme	-6637
▁physical	-6638
▁rapidity	-6639
▁resigned	-6640
▁starting	-6641
▁tenderly	-6642
▁troubled	-6643
▁visiting	-6644
▁Colosseum	-6645
▁encourage	-6646
▁indicated	-6647
▁persisted	-6648
▁residence	-6649
▁reverence	-6650
▁spiritual	-6651
▁struggled	-6652
▁endeavored	-6653
▁simplicity	-6654
▁struggling	-6655
▁anticipated	-6656
▁application	-6657
▁connections	-6658
▁illustrious	-6659
▁inhabitants	-6660
▁recommended	-6661
▁respectable	-6662
IV	-6663
gd	-6664
gue	-6665
neg	-6666
rep	-6667
tle	-6668
uzz	-6669
xed	-6670
▁00	-6671
▁DA	-6672
▁eB	-6673
aker	-6674
cken	-6675
hern	-6676
mbre	-6677
omed	-6678
reme	-6679
spap	-6680
utch	-6681
vity	-6682
▁301	-6683
▁302	-6684
▁Pop	-6685
▁San	-6686
▁Var	-6687
▁Ven	-6688
▁War	-6689
▁aug	-6690
▁coo	-6691
▁lan	-6692
▁log	-6693
▁rag	-6694
alley	-6695
emark	-6696
gence	-6697
glass	-6698
sford	-6699
sword	-6700
urper	-6701
▁Finn	-6702
▁Love	-6703
▁Till	-6704
▁arch	-6705
▁dumb	-6706
▁lack	-6707
▁leis	-6708
▁mart	-6709
▁mour	-6710
▁quad	-6711
▁rush	-6712
▁scra	-6713
▁trib	-6714
▁veil	-6715
icient	-6716
inence	-6717
ources	-6718
ranean	-6719
▁Allow	-6720
▁Spain	-6721
▁borne	-6722
▁charm	-6723
▁cheek	-6724
▁colle	-6725
▁discl	-6726
▁exped	-6727
▁frost	-6728
▁gifts	-6729
▁hence	-6730
▁intim	-6731
▁limbs	-6732
▁noted	-6733
▁phant	-6734
▁stamm	-6735
▁sympt	-6736
▁weary	-6737
▁whist	-6738
▁wifes	-6739
▁worry	-6740
▁Naples	-6741
▁Should	-6742
▁Surely	-6743
▁ardent	-6744
▁attain	-6745
▁begins	-6746
▁doubts	-6747
▁encoun	-6748
▁female	-6749
▁folded	-6750
▁frenzy	-6751
▁genius	-6752
▁manage	-6753
▁nights	-6754
▁speaks	-6755
▁traces	-6756
kenstein	-6757
ormation	-6758
▁Archive	-6759
▁admired	-6760
▁earlmen	-6761
▁enabled	-6762
▁fainted	-6763
▁flashed	-6764
▁kissing	-6765
▁lantern	-6766
▁newspap	-6767
▁reserve	-6768
▁slumber	-6769
▁studied	-6770
▁suicide	-6771
▁thanked	-6772
▁usurper	-6773
▁Faubourg	-6774
▁Hunsford	-6775
▁Literary	-6776
▁despised	-6777
▁district	-6778
▁frequent	-6779
▁helpless	-6780
▁piastres	-6781
▁presents	-6782
▁procured	-6783
▁punctual	-6784
▁punished	-6785
▁quantity	-6786
▁reckoned	-6787
▁spiteful	-6788
▁stronger	-6789
▁uncommon	-6790
▁September	-6791
▁Something	-6792
▁answering	-6793
▁assembled	-6794
▁eloquence	-6795
▁frivolous	-6796
▁including	-6797
▁interests	-6798
▁liegelord	-6799
▁psycholog	-6800
▁purchased	-6801
▁scattered	-6802
▁signature	-6803
▁stammered	-6804
▁tolerable	-6805
▁tormented	-6806
▁trademark	-6807
▁distressed	-6808
▁forgetting	-6809
▁interposed	-6810
▁principles	-6811
▁restrained	-6812
▁suspicions	-6813
▁throughout	-6814
▁distinction	-6815
▁inheritance	-6816
▁prosecution	-6817
▁Frankenstein	-6818
▁consequences	-6819
▁irresistible	-6820
▁mademoiselle	-6821
▁instinctively	-6822
EO	-6823
IT	-6824
LF	-6825
hn	-6826
yl	-6827
aid	-6828
ari	-6829
hic	-6830
▁11	-6831
▁Ro	-6832
▁ik	-6833
afie	-6834
airn	-6835
azza	-6836
enny	-6837
eous	-6838
four	-6839
hips	-6840
iano	-6841
phan	-6842
ront	-6843
sthe	-6844
▁Des	-6845
▁Feb	-6846
▁Jes	-6847
▁Sit	-6848
▁ign	-6849
▁lat	-6850
▁sar	-6851
▁shi	-6852
▁tum	-6853
acles	-6854
aping	-6855
erbys	-6856
ilful	-6857
olate	-6858
orous	-6859
▁Adel	-6860
▁Htel	-6861
▁Soon	-6862
▁brut	-6863
▁glim	-6864
▁inco	-6865
▁knee	-6866
▁redu	-6867
▁refr	-6868
▁roll	-6869
arcely	-6870
efully	-6871
erving	-6872
otions	-6873
spring	-6874
utions	-6875
▁Danes	-6876
▁Night	-6877
▁Safie	-6878
▁adieu	-6879
▁arise	-6880
▁deput	-6881
▁dried	-6882
▁fifth	-6883
▁grass	-6884
▁inner	-6885
▁likes	-6886
▁mixed	-6887
▁novel	-6888
▁pains	-6889
▁repay	-6890
▁rigid	-6891
▁sends	-6892
▁shock	-6893
▁stout	-6894
▁upper	-6895
▁vexed	-6896
version	-6897
▁Derbys	-6898
▁Pardon	-6899
▁Piazza	-6900
▁advers	-6901
▁altern	-6902
▁appeal	-6903
▁brings	-6904
▁candle	-6905
▁cannon	-6906
▁couple	-6907
▁create	-6908
▁excite	-6909
▁fairly	-6910
▁feeble	-6911
▁formal	-6912
▁goodby	-6913
▁horrid	-6914
▁joking	-6915
▁joyful	-6916
▁mutual	-6917
▁orphan	-6918
▁profit	-6919
▁saving	-6920
▁spared	-6921
▁supply	-6922
▁Danemen	-6923
▁Morrels	-6924
▁chiefly	-6925
▁closing	-6926
▁dispute	-6927
▁doubted	-6928
▁embrace	-6929
▁furnish	-6930
▁grounds	-6931
▁hateful	-6932
▁heavily	-6933
▁killing	-6934
▁leisure	-6935
▁shining	-6936
▁sorrows	-6937
▁surface	-6938
▁vessels	-6939
▁warrior	-6940
▁yielded	-6941
▁Catalans	-6942
▁ambition	-6943
▁atheling	-6944
▁complain	-6945
▁corridor	-6946
▁curtains	-6947
▁embraced	-6948
▁enormous	-6949
▁exchange	-6950
▁learning	-6951
▁liegeman	-6952
▁liegemen	-6953
▁mischief	-6954
▁quadrill	-6955
▁reaching	-6956
▁relieved	-6957
▁reverend	-6958
▁trousers	-6959
▁unworthy	-6960
▁challenge	-6961
▁complaint	-6962
▁contented	-6963
▁documents	-6964
▁embarrass	-6965
▁extending	-6966
▁inquiring	-6967
▁protected	-6968
▁reception	-6969
▁reckoning	-6970
▁responded	-6971
▁secretary	-6972
▁terrified	-6973
▁unnatural	-6974
▁witnessed	-6975
▁Derbyshire	-6976
▁maintained	-6977
▁proportion	-6978
▁temptation	-6979
▁threatened	-6980
▁yourselves	-6981
▁approbation	-6982
▁comfortable	-6983
▁communicated	-6984
25	-6985
35	-6986
▁.	-6987
ara	-6988
ita	-6989
nik	-6990
tro	-6991
▁II	-6992
atha	-6993
bing	-6994
blev	-6995
hats	-6996
luck	-6997
omin	-6998
this	-6999
▁Son	-7000
▁Vru	-7001
▁aut	-7002
▁hyp	-7003
▁mat	-7004
▁sna	-7005
allel	-7006
anity	-7007
anted	-7008
ciate	-7009
enthe	-7010
going	-7011
hutch	-7012
olded	-7013
ruary	-7014
stant	-7015
tyard	-7016
▁Conf	-7017
▁None	-7018
▁Rosp	-7019
▁Sneg	-7020
▁Sohn	-7021
▁adjo	-7022
▁appl	-7023
▁brid	-7024
▁bund	-7025
▁dArm	-7026
▁dazz	-7027
▁edge	-7028
▁fist	-7029
▁fles	-7030
▁moan	-7031
▁mute	-7032
▁pref	-7033
▁ribb	-7034
▁sand	-7035
▁tiny	-7036
isions	-7037
verted	-7038
▁Leave	-7039
▁Mamma	-7040
▁Misha	-7041
▁appet	-7042
▁badly	-7043
▁chain	-7044
▁harsh	-7045
▁hasnt	-7046
▁hasty	-7047
▁loose	-7048
▁niece	-7049
▁seize	-7050
▁solid	-7051
▁tight	-7052
▁using	-7053
▁waste	-7054
▁wiped	-7055
blevsky	-7056
raction	-7057
▁Popolo	-7058
▁adored	-7059
▁amazed	-7060
▁beaten	-7061
▁causes	-7062
▁habits	-7063
▁incomp	-7064
▁insect	-7065
▁inward	-7066
▁lovers	-7067
▁member	-7068
▁offers	-7069
▁recent	-7070
▁repugn	-7071
▁riches	-7072
▁shaken	-7073
▁submit	-7074
▁traged	-7075
▁tumult	-7076
▁unseem	-7077
▁welcom	-7078
▁wounds	-7079
▁Snegiry	-7080
▁begging	-7081
▁carbine	-7082
▁chambre	-7083
▁consist	-7084
▁contain	-7085
▁control	-7086
▁deceive	-7087
▁disease	-7088
▁driving	-7089
▁earthly	-7090
▁honored	-7091
▁induced	-7092
▁members	-7093
▁mission	-7094
▁presume	-7095
▁readers	-7096
▁scrutin	-7097
▁seizing	-7098
▁tempted	-7099
▁Although	-7100
▁Brighton	-7101
▁February	-7102
▁emotions	-7103
▁frowning	-7104
▁maintain	-7105
▁preceded	-7106
▁rational	-7107
▁replaced	-7108
▁silently	-7109
▁animation	-7110
▁appearing	-7111
▁appointed	-7112
▁attending	-7113
▁courtyard	-7114
▁delivered	-7115
▁determine	-7116
▁donations	-7117
▁fearfully	-7118
▁forbidden	-7119
▁pronounce	-7120
▁smugglers	-7121
▁sorrowful	-7122
▁uncertain	-7123
▁Vrublevsky	-7124
▁affections	-7125
▁associated	-7126
▁contradict	-7127
▁discussion	-7128
▁expressive	-7129
▁generosity	-7130
▁incredible	-7131
▁inevitable	-7132
▁protection	-7133
▁remarkably	-7134
▁spectators	-7135
▁antechamber	-7136
▁embarrassed	-7137
▁marketplace	-7138
▁picturesque	-7139
▁precautions	-7140
▁undoubtedly	-7141
▁Kondratyevna	-7142
▁disappointed	-7143
▁instructions	-7144
▁mechanically	-7145
▁unexpectedly	-7146
0.	-7147
OR	-7148
co	-7149
▁z	-7150
EOW	-7151
ecd	-7152
eds	-7153
jor	-7154
vet	-7155
war	-7156
▁ax	-7157
▁gy	-7158
Twas	-7159
aved	-7160
back	-7161
bled	-7162
folk	-7163
gend	-7164
grim	-7165
oubt	-7166
pera	-7167
roid	-7168
stem	-7169
vice	-7170
▁300	-7171
▁Ass	-7172
▁Bet	-7173
▁Mak	-7174
▁Ric	-7175
▁Sal	-7176
▁Ten	-7177
▁Via	-7178
▁bou	-7179
▁bru	-7180
▁gig	-7181
▁hit	-7182
▁idi	-7183
▁loc	-7184
▁tax	-7185
▁von	-7186
▁wre	-7187
ashes	-7188
enced	-7189
esses	-7190
hered	-7191
iless	-7192
istry	-7193
might	-7194
mount	-7195
ontro	-7196
ulgar	-7197
▁Pont	-7198
▁Whom	-7199
▁date	-7200
▁desk	-7201
▁feud	-7202
▁fret	-7203
▁hunt	-7204
▁pang	-7205
▁rare	-7206
▁rust	-7207
▁size	-7208
▁spec	-7209
▁subd	-7210
▁triv	-7211
▁vice	-7212
ivered	-7213
racted	-7214
rehens	-7215
versed	-7216
▁Bravo	-7217
▁Eliza	-7218
▁Opera	-7219
▁anecd	-7220
▁bairn	-7221
▁culpr	-7222
▁fired	-7223
▁flash	-7224
▁gover	-7225
▁hears	-7226
▁keeps	-7227
▁ladys	-7228
▁lemon	-7229
▁liter	-7230
▁older	-7231
▁perse	-7232
▁ruler	-7233
▁shows	-7234
▁shrie	-7235
▁souls	-7236
▁sport	-7237
▁token	-7238
▁veins	-7239
▁waked	-7240
lighted	-7241
▁Easter	-7242
▁Excell	-7243
▁Sailor	-7244
▁affirm	-7245
▁amused	-7246
▁anchor	-7247
▁coldly	-7248
▁combat	-7249
▁deject	-7250
▁denied	-7251
▁devils	-7252
▁handle	-7253
▁invent	-7254
▁lament	-7255
▁martyr	-7256
▁medium	-7257
▁occupy	-7258
▁pallor	-7259
▁perple	-7260
▁points	-7261
▁prelim	-7262
▁record	-7263
▁remedy	-7264
▁repuls	-7265
▁stands	-7266
▁steady	-7267
▁vision	-7268
▁volunt	-7269
▁wasted	-7270
▁wisdom	-7271
recisely	-7272
▁Corsica	-7273
▁aroused	-7274
▁blushed	-7275
▁comment	-7276
▁comprom	-7277
▁courtes	-7278
▁cousins	-7279
▁crimson	-7280
▁delayed	-7281
▁earlier	-7282
▁enterpr	-7283
▁fearing	-7284
▁fishing	-7285
▁guarded	-7286
▁haughty	-7287
▁haunted	-7288
▁lightly	-7289
▁longing	-7290
▁outward	-7291
▁protest	-7292
▁prowess	-7293
▁timidly	-7294
▁tragedy	-7295
▁worried	-7296
▁Collinss	-7297
▁Countess	-7298
▁Scarcely	-7299
▁appetite	-7300
▁childish	-7301
▁conceive	-7302
▁converse	-7303
▁coolness	-7304
▁crossing	-7305
▁dArmilly	-7306
▁document	-7307
▁earliest	-7308
▁faltered	-7309
▁flashing	-7310
▁glancing	-7311
▁guardian	-7312
▁joyfully	-7313
▁marquise	-7314
▁memories	-7315
▁mourning	-7316
▁opinions	-7317
▁piercing	-7318
▁promises	-7319
▁rejected	-7320
▁relating	-7321
▁separate	-7322
▁unseemly	-7323
▁vanished	-7324
rehensible	-7325
▁admirable	-7326
▁cherished	-7327
▁conquered	-7328
▁cottagers	-7329
▁fulfilled	-7330
▁ministers	-7331
▁neighbors	-7332
▁personage	-7333
▁preferred	-7334
▁qualities	-7335
▁salvation	-7336
▁schoolboy	-7337
▁spectacle	-7338
▁treachery	-7339
▁benevolent	-7340
▁calculated	-7341
▁descending	-7342
▁entreaties	-7343
▁lieutenant	-7344
▁opposition	-7345
▁resistance	-7346
▁wickedness	-7347
▁everlasting	-7348
▁fashionable	-7349
▁immortality	-7350
▁enthusiastic	-7351
▁wretchedness	-7352
ON	-7353
ih	-7354
lo	-7355
ais	-7356
asm	-7357
avy	-7358
cho	-7359
con	-7360
ett	-7361
mat	-7362
ovd	-7363
spe	-7364
tre	-7365
uce	-7366
▁Af	-7367
▁Ha	-7368
▁Hy	-7369
▁Tw	-7370
afya	-7371
avri	-7372
emed	-7373
gest	-7374
oked	-7375
plom	-7376
ques	-7377
ture	-7378
vant	-7379
zing	-7380
▁Don	-7381
▁III	-7382
▁Off	-7383
▁Ong	-7384
▁Rom	-7385
▁cav	-7386
▁rad	-7387
▁sed	-7388
▁sex	-7389
aging	-7390
ainst	-7391
arded	-7392
arson	-7393
imacy	-7394
isons	-7395
mitch	-7396
ospel	-7397
ranch	-7398
troop	-7399
which	-7400
▁Turk	-7401
▁Varv	-7402
▁asks	-7403
▁bird	-7404
▁bord	-7405
▁bull	-7406
▁conj	-7407
▁hole	-7408
▁lend	-7409
▁mock	-7410
▁rate	-7411
▁rese	-7412
▁stab	-7413
▁tied	-7414
▁verd	-7415
▁vind	-7416
avriky	-7417
escrib	-7418
idents	-7419
rusted	-7420
▁Great	-7421
▁Honor	-7422
▁Makar	-7423
▁Satan	-7424
▁banks	-7425
▁besee	-7426
▁cabin	-7427
▁cares	-7428
▁copse	-7429
▁crack	-7430
▁dirty	-7431
▁disin	-7432
▁falls	-7433
▁feels	-7434
▁flood	-7435
▁jewel	-7436
▁march	-7437
▁marks	-7438
▁nasty	-7439
▁revel	-7440
▁reven	-7441
▁stick	-7442
▁talks	-7443
▁tower	-7444
▁uncon	-7445
▁woods	-7446
hutchka	-7447
▁50,000	-7448
▁Agafya	-7449
▁Agatha	-7450
▁Enough	-7451
▁bundle	-7452
▁cultiv	-7453
▁cursed	-7454
▁dashed	-7455
▁deputy	-7456
▁devour	-7457
▁dissip	-7458
▁driver	-7459
▁emphat	-7460
▁fixing	-7461
▁flower	-7462
▁foeman	-7463
▁gloves	-7464
▁harbor	-7465
▁hoarse	-7466
▁infant	-7467
▁insens	-7468
▁inside	-7469
▁landed	-7470
▁lawful	-7471
▁laying	-7472
▁packet	-7473
▁passes	-7474
▁perish	-7475
▁plenty	-7476
▁prepar	-7477
▁recomp	-7478
▁robbed	-7479
▁screen	-7480
▁sevent	-7481
▁traced	-7482
▁trifle	-7483
hattered	-7484
▁Catalan	-7485
▁Chamber	-7486
▁Fathers	-7487
▁Instead	-7488
▁Mavriky	-7489
▁Neither	-7490
▁brigand	-7491
▁chimney	-7492
▁draught	-7493
▁embroid	-7494
▁founded	-7495
▁injured	-7496
▁letting	-7497
▁mixture	-7498
▁nations	-7499
▁nearest	-7500
▁pulling	-7501
▁resting	-7502
▁sensual	-7503
▁sounded	-7504
▁supreme	-7505
▁suspend	-7506
▁tremend	-7507
▁Kuzmitch	-7508
▁Ongenthe	-7509
▁ardently	-7510
▁breathed	-7511
▁disorder	-7512
▁disposal	-7513
▁felicity	-7514
▁imprison	-7515
▁inconven	-7516
▁measures	-7517
▁shameful	-7518
▁shepherd	-7519
▁smallest	-7520
▁solemnly	-7521
▁somebody	-7522
▁Gardiners	-7523
▁adjoining	-7524
▁arranging	-7525
▁commanded	-7526
▁depressed	-7527
▁excessive	-7528
▁indescrib	-7529
▁intending	-7530
▁physician	-7531
▁rendering	-7532
▁solemnity	-7533
▁stupefied	-7534
▁Karamazovs	-7535
▁characters	-7536
▁directions	-7537
▁proceeding	-7538
▁declaration	-7539
45	-7540
CT	-7541
ED	-7542
RE	-7543
des	-7544
inc	-7545
psy	-7546
sha	-7547
▁02	-7548
▁VI	-7549
▁ge	-7550
?...	-7551
dene	-7552
nfer	-7553
noon	-7554
omen	-7555
oxys	-7556
▁Acc	-7557
▁Gre	-7558
▁Hre	-7559
▁lac	-7560
▁nod	-7561
▁san	-7562
▁tur	-7563
caire	-7564
ciple	-7565
erate	-7566
rough	-7567
▁Hold	-7568
▁Nmes	-7569
▁aged	-7570
▁encl	-7571
▁fare	-7572
▁frag	-7573
▁liqu	-7574
▁park	-7575
▁plot	-7576
▁surv	-7577
ardieu	-7578
cerity	-7579
ection	-7580
entric	-7581
ielder	-7582
liness	-7583
llable	-7584
umbled	-7585
urable	-7586
▁Healf	-7587
▁Major	-7588
▁Maria	-7589
▁abund	-7590
▁accum	-7591
▁avail	-7592
▁bears	-7593
▁dined	-7594
▁flesh	-7595
▁gayly	-7596
▁holds	-7597
▁opera	-7598
▁piano	-7599
▁rough	-7600
▁seats	-7601
▁stamp	-7602
▁steal	-7603
▁teach	-7604
▁track	-7605
▁waved	-7606
athsome	-7607
iveness	-7608
ouncing	-7609
umbling	-7610
▁Weders	-7611
▁angels	-7612
▁bearer	-7613
▁cellar	-7614
▁childs	-7615
▁client	-7616
▁commen	-7617
▁diplom	-7618
▁drawer	-7619
▁exists	-7620
▁gather	-7621
▁groans	-7622
▁hollow	-7623
▁indisc	-7624
▁indisp	-7625
▁keeper	-7626
▁leaped	-7627
▁legend	-7628
▁missed	-7629
▁poetry	-7630
▁rebell	-7631
▁requis	-7632
▁rights	-7633
▁states	-7634
▁stroke	-7635
▁tasted	-7636
▁thread	-7637
▁vulgar	-7638
▁warned	-7639
▁America	-7640
▁Charles	-7641
▁animals	-7642
▁annoyed	-7643
▁approve	-7644
▁belongs	-7645
▁conquer	-7646
▁conspir	-7647
▁customs	-7648
▁deepest	-7649
▁defence	-7650
▁dreamed	-7651
▁frowned	-7652
▁gallant	-7653
▁inflict	-7654
▁lodging	-7655
▁paroxys	-7656
▁partner	-7657
▁pockets	-7658
▁prolong	-7659
▁robbery	-7660
▁rushing	-7661
▁sinking	-7662
▁turnkey	-7663
▁weighed	-7664
▁whither	-7665
▁Ecgtheow	-7666
▁anywhere	-7667
▁captains	-7668
▁clenched	-7669
▁convince	-7670
▁deserved	-7671
▁eighteen	-7672
▁esteemed	-7673
▁exertion	-7674
▁glorious	-7675
▁hopeless	-7676
▁humility	-7677
▁lemonade	-7678
▁lifeless	-7679
▁likewise	-7680
▁measured	-7681
▁nobility	-7682
▁paradise	-7683
▁portrait	-7684
▁selected	-7685
▁suitable	-7686
▁symptoms	-7687
▁tortures	-7688
▁Beaucaire	-7689
▁Healfdene	-7690
▁Precisely	-7691
▁excepting	-7692
▁neglected	-7693
▁painfully	-7694
▁penetrate	-7695
▁shipowner	-7696
▁springing	-7697
▁stationed	-7698
▁sustained	-7699
▁Ongentheow	-7700
▁accomplice	-7701
▁aristocrat	-7702
▁encouraged	-7703
▁expressing	-7704
▁gentleness	-7705
▁incoherent	-7706
▁manifested	-7707
▁revolution	-7708
▁sacrificed	-7709
▁Makarovitch	-7710
▁accordingly	-7711
▁disgraceful	-7712
▁hospitality	-7713
▁remembering	-7714
▁undertaking	-7715
▁exclamations	-7716
▁indescribable	-7717
21	-7718
Be	-7719
wl	-7720
box	-7721
car	-7722
cca	-7723
cil	-7724
dig	-7725
has	-7726
lay	-7727
oir	-7728
por	-7729
ral	-7730
unk	-7731
uts	-7732
yes	-7733
▁13	-7734
▁Eh	-7735
▁Gl	-7736
▁IV	-7737
ache	-7738
anth	-7739
ault	-7740
bted	-7741
elly	-7742
hard	-7743
icer	-7744
ilet	-7745
isit	-7746
lter	-7747
oser	-7748
oyal	-7749
rife	-7750
stru	-7751
than	-7752
uild	-7753
wood	-7754
▁Ing	-7755
▁Met	-7756
▁adj	-7757
▁cyn	-7758
▁gla	-7759
▁ham	-7760
▁hol	-7761
▁hom	-7762
▁lav	-7763
▁tar	-7764
▁vac	-7765
▁vel	-7766
0,000	-7767
atisf	-7768
itute	-7769
nfort	-7770
quest	-7771
▁Cons	-7772
▁Like	-7773
▁Tues	-7774
▁abbs	-7775
▁aber	-7776
▁alle	-7777
▁caut	-7778
▁club	-7779
▁cure	-7780
▁erst	-7781
▁flat	-7782
▁grim	-7783
▁idle	-7784
▁meek	-7785
▁seve	-7786
▁tour	-7787
▁wake	-7788
actory	-7789
ground	-7790
lusion	-7791
necess	-7792
retion	-7793
▁Carol	-7794
▁Doubt	-7795
▁Pasha	-7796
▁accur	-7797
▁bonds	-7798
▁epile	-7799
▁exile	-7800
▁flame	-7801
▁grapp	-7802
▁ident	-7803
▁leads	-7804
▁legal	-7805
▁maybe	-7806
▁overp	-7807
▁pater	-7808
▁plate	-7809
▁stuff	-7810
▁towel	-7811
▁weigh	-7812
▁wings	-7813
istened	-7814
▁Gospel	-7815
▁Lizave	-7816
▁amidst	-7817
▁avenge	-7818
▁breeze	-7819
▁brigad	-7820
▁burned	-7821
▁conven	-7822
▁easier	-7823
▁filthy	-7824
▁gladly	-7825
▁guided	-7826
▁incess	-7827
▁larger	-7828
▁lights	-7829
▁loudly	-7830
▁marble	-7831
▁mental	-7832
▁oppose	-7833
▁safely	-7834
▁sealed	-7835
▁serene	-7836
▁square	-7837
▁stream	-7838
▁subtle	-7839
interest	-7840
retching	-7841
▁Through	-7842
▁Tuesday	-7843
▁achieve	-7844
▁bidding	-7845
▁bottles	-7846
▁century	-7847
▁checked	-7848
▁comrade	-7849
▁contact	-7850
▁element	-7851
▁exhaust	-7852
▁figures	-7853
▁lessons	-7854
▁persuas	-7855
▁pilgrim	-7856
▁process	-7857
▁quality	-7858
▁rapture	-7859
▁reduced	-7860
▁remarks	-7861
▁sadness	-7862
▁sixteen	-7863
▁trivial	-7864
formation	-7865
▁Everyone	-7866
▁abruptly	-7867
▁animated	-7868
▁articles	-7869
▁believes	-7870
▁besought	-7871
▁courtesy	-7872
▁cupboard	-7873
▁fortunes	-7874
▁frighten	-7875
▁generals	-7876
▁horribly	-7877
▁implicit	-7878
▁indebted	-7879
▁infamous	-7880
▁intimacy	-7881
▁knocking	-7882
▁military	-7883
▁passport	-7884
▁paternal	-7885
▁province	-7886
▁referred	-7887
▁register	-7888
▁reported	-7889
▁requires	-7890
▁shrugged	-7891
▁softened	-7892
▁sparkled	-7893
▁speedily	-7894
▁supplied	-7895
▁vexation	-7896
▁welcomed	-7897
▁youngest	-7898
▁afternoon	-7899
▁completed	-7900
▁countries	-7901
▁decidedly	-7902
▁eccentric	-7903
▁entreated	-7904
▁flattered	-7905
▁gratified	-7906
▁hysterics	-7907
▁interfere	-7908
▁intervals	-7909
▁malicious	-7910
▁obtaining	-7911
▁offspring	-7912
▁protested	-7913
▁readiness	-7914
▁recommend	-7915
▁righteous	-7916
▁sincerity	-7917
▁treatment	-7918
▁utterance	-7919
▁wandering	-7920
▁Impossible	-7921
▁aberration	-7922
▁accordance	-7923
▁conjecture	-7924
▁foundation	-7925
▁mournfully	-7926
▁respectful	-7927
▁differently	-7928
▁performance	-7929
▁aristocratic	-7930
▁arrangements	-7931
▁contemplated	-7932
▁extinguished	-7933
▁nevertheless	-7934
▁embarrassment	-7935
▁establishment	-7936
▁unfortunately	-7937
Ne	-7938
VI	-7939
▁i	-7940
axe	-7941
eer	-7942
gin	-7943
gre	-7944
ika	-7945
ols	-7946
why	-7947
▁Je	-7948
▁Rh	-7949
gion	-7950
look	-7951
mity	-7952
mons	-7953
olic	-7954
olst	-7955
onom	-7956
osif	-7957
otes	-7958
owry	-7959
some	-7960
▁Cal	-7961
▁Nub	-7962
▁Pre	-7963
▁Tis	-7964
▁Tus	-7965
▁Whe	-7966
▁cla	-7967
▁sob	-7968
ardan	-7969
asket	-7970
bable	-7971
blest	-7972
enses	-7973
ollen	-7974
olved	-7975
oping	-7976
ossip	-7977
trees	-7978
▁Cont	-7979
▁Geno	-7980
▁Near	-7981
▁Stop	-7982
▁Supp	-7983
▁Swed	-7984
▁Tepe	-7985
▁bury	-7986
▁busy	-7987
▁cush	-7988
▁deck	-7989
▁fits	-7990
▁heap	-7991
▁jack	-7992
▁manu	-7993
▁meat	-7994
▁owed	-7995
▁pink	-7996
▁puzz	-7997
▁rans	-7998
▁rout	-7999
▁subm	-8000
▁whil	-8001
▁worm	-8002
everal	-8003
idable	-8004
isible	-8005
itious	-8006
nferth	-8007
owered	-8008
prince	-8009
ricide	-8010
ulties	-8011
▁Hreth	-8012
▁Iosif	-8013
▁March	-8014
▁Think	-8015
▁angle	-8016
▁appar	-8017
▁balls	-8018
▁brood	-8019
▁cloth	-8020
▁debts	-8021
▁decay	-8022
▁elbow	-8023
▁equip	-8024
▁groom	-8025
▁hired	-8026
▁infer	-8027
▁medic	-8028
▁oppon	-8029
▁penit	-8030
▁races	-8031
▁recur	-8032
▁regul	-8033
▁rings	-8034
▁shell	-8035
▁swift	-8036
▁tones	-8037
▁turns	-8038
▁views	-8039
▁vigil	-8040
▁vivid	-8041
▁yards	-8042
anthrop	-8043
limited	-8044
olation	-8045
ression	-8046
▁Austen	-8047
▁Dardan	-8048
▁Inquis	-8049
▁Nubian	-8050
▁Tuscan	-8051
▁awaken	-8052
▁bodies	-8053
▁branch	-8054
▁brutal	-8055
▁colour	-8056
▁dances	-8057
▁detest	-8058
▁econom	-8059
▁fields	-8060
▁frozen	-8061
▁gilded	-8062
▁imposs	-8063
▁joyous	-8064
▁nerves	-8065
▁oblige	-8066
▁purple	-8067
▁unluck	-8068
▁velvet	-8069
▁waiter	-8070
▁wiping	-8071
ardinals	-8072
▁Exactly	-8073
▁answers	-8074
▁benefit	-8075
▁beseech	-8076
▁casting	-8077
▁commiss	-8078
▁consult	-8079
▁convict	-8080
▁exposed	-8081
▁fancies	-8082
▁frantic	-8083
▁glances	-8084
▁justify	-8085
▁priests	-8086
▁railway	-8087
▁refresh	-8088
▁regards	-8089
▁regions	-8090
▁slipped	-8091
▁snapped	-8092
▁sobbing	-8093
▁stained	-8094
▁staring	-8095
▁sternly	-8096
▁swollen	-8097
▁tempest	-8098
▁temples	-8099
▁theatre	-8100
▁trusted	-8101
▁Constant	-8102
▁Florence	-8103
▁Lizaveta	-8104
▁Nonsense	-8105
▁Tepelini	-8106
▁activity	-8107
▁alliance	-8108
▁argument	-8109
▁educated	-8110
▁gigantic	-8111
▁insolent	-8112
▁inspired	-8113
▁noticing	-8114
▁promptly	-8115
▁prudence	-8116
▁quitting	-8117
▁splendor	-8118
▁striving	-8119
▁thrashed	-8120
▁troubles	-8121
▁unnecess	-8122
▁Doubtless	-8123
▁Snegiryov	-8124
▁arguments	-8125
▁attentive	-8126
▁brigadier	-8127
▁consented	-8128
▁faculties	-8129
▁furiously	-8130
▁horseback	-8131
▁household	-8132
▁invisible	-8133
▁loathsome	-8134
▁merchants	-8135
▁nervously	-8136
▁obscurity	-8137
▁sensitive	-8138
▁staggered	-8139
▁steadfast	-8140
▁traversed	-8141
▁undertake	-8142
▁collection	-8143
▁condescend	-8144
▁conversing	-8145
▁displeased	-8146
▁employment	-8147
▁favourable	-8148
▁formidable	-8149
▁indulgence	-8150
▁penetrated	-8151
▁repugnance	-8152
▁secretaire	-8153
▁separation	-8154
▁surprising	-8155
▁communicate	-8156
▁independent	-8157
▁preliminary	-8158
▁resemblance	-8159
▁convulsively	-8160
▁independence	-8161
▁interruption	-8162
▁contemplation	-8163
IG	-8164
SE	-8165
gs	-8166
ww	-8167
adt	-8168
any	-8169
bye	-8170
cur	-8171
ham	-8172
hem	-8173
iet	-8174
inu	-8175
mar	-8176
two	-8177
uit	-8178
xic	-8179
▁Ac	-8180
▁Di	-8181
▁Dr	-8182
▁LI	-8183
▁dw	-8184
.--3	-8185
andy	-8186
ares	-8187
born	-8188
cile	-8189
emet	-8190
ette	-8191
gian	-8192
hole	-8193
host	-8194
lead	-8195
mean	-8196
ntin	-8197
rite	-8198
they	-8199
uite	-8200
verb	-8201
▁Ang	-8202
▁Mon	-8203
▁bas	-8204
▁bol	-8205
▁dug	-8206
▁fer	-8207
▁pin	-8208
▁sne	-8209
Danes	-8210
aired	-8211
alled	-8212
anter	-8213
asper	-8214
asted	-8215
iated	-8216
inine	-8217
oting	-8218
ption	-8219
range	-8220
sight	-8221
▁----	-8222
▁BEOW	-8223
▁Half	-8224
▁Help	-8225
▁Hret	-8226
▁Lyag	-8227
▁Next	-8228
▁Nina	-8229
▁Poss	-8230
▁Read	-8231
▁Weve	-8232
▁babe	-8233
▁cabb	-8234
▁cens	-8235
▁envy	-8236
▁fest	-8237
▁fold	-8238
▁gods	-8239
▁gown	-8240
▁lift	-8241
▁main	-8242
▁rasc	-8243
▁seam	-8244
▁tail	-8245
▁toil	-8246
▁trag	-8247
▁vest	-8248
liance	-8249
mighty	-8250
uesnel	-8251
▁Amlie	-8252
▁Corso	-8253
▁House	-8254
▁Jeune	-8255
▁Lecle	-8256
▁Porto	-8257
▁acute	-8258
▁analy	-8259
▁bills	-8260
▁blush	-8261
▁brown	-8262
▁clung	-8263
▁defer	-8264
▁depos	-8265
▁dowry	-8266
▁dwelt	-8267
▁erect	-8268
▁estim	-8269
▁evils	-8270
▁giant	-8271
▁idiot	-8272
▁inexp	-8273
▁ingen	-8274
▁livid	-8275
▁lucky	-8276
▁magic	-8277
▁onion	-8278
▁organ	-8279
▁reign	-8280
▁sadly	-8281
▁scorn	-8282
▁songs	-8283
cension	-8284
emetery	-8285
humored	-8286
oration	-8287
ounding	-8288
▁Legion	-8289
▁artist	-8290
▁bounds	-8291
▁castle	-8292
▁doomed	-8293
▁enable	-8294
▁facing	-8295
▁fitted	-8296
▁injury	-8297
▁league	-8298
▁refres	-8299
▁system	-8300
▁tailor	-8301
▁valley	-8302
▁wander	-8303
arsonage	-8304
inations	-8305
▁Himself	-8306
▁Hrethel	-8307
▁License	-8308
▁Several	-8309
▁afflict	-8310
▁attacks	-8311
▁bounded	-8312
▁creator	-8313
▁cruelly	-8314
▁emptied	-8315
▁enlight	-8316
▁exasper	-8317
▁glowing	-8318
▁liberal	-8319
▁limited	-8320
▁opposed	-8321
▁painted	-8322
▁parties	-8323
▁payment	-8324
▁proudly	-8325
▁recital	-8326
▁refrain	-8327
▁reverie	-8328
▁romance	-8329
▁sharply	-8330
▁signify	-8331
▁totally	-8332
▁victims	-8333
▁vindict	-8334
▁wouldst	-8335
▁DAvrigny	-8336
▁European	-8337
▁Grigorys	-8338
▁Perhotin	-8339
▁anecdote	-8340
▁assented	-8341
▁bankrupt	-8342
▁blushing	-8343
▁commands	-8344
▁currents	-8345
▁deceased	-8346
▁definite	-8347
▁elegance	-8348
▁elevated	-8349
▁enjoying	-8350
▁entreaty	-8351
▁feminine	-8352
▁firmness	-8353
▁graceful	-8354
▁improved	-8355
▁included	-8356
▁inferior	-8357
▁insanity	-8358
▁menacing	-8359
▁perished	-8360
▁politics	-8361
▁proclaim	-8362
▁proposal	-8363
▁pursuing	-8364
▁refusing	-8365
▁respects	-8366
▁romantic	-8367
▁screamed	-8368
▁secretly	-8369
▁severely	-8370
▁shrieked	-8371
▁thankful	-8372
▁adversary	-8373
▁breathing	-8374
▁captivity	-8375
▁centuries	-8376
▁distorted	-8377
▁expressly	-8378
▁hereafter	-8379
▁irritated	-8380
▁murdering	-8381
▁ornaments	-8382
▁presently	-8383
▁reasoning	-8384
▁redoubled	-8385
▁requisite	-8386
▁seventeen	-8387
▁unlimited	-8388
▁Constantin	-8389
▁advantages	-8390
▁bitterness	-8391
▁conditions	-8392
▁exclaiming	-8393
▁provisions	-8394
▁travellers	-8395
nfortunately	-8396
▁astonishing	-8397
▁drawingroom	-8398
▁effectually	-8399
▁embroidered	-8400
▁expressions	-8401
▁housekeeper	-8402
▁institution	-8403
▁confidential	-8404
▁difficulties	-8405
▁distributing	-8406
▁emphatically	-8407
▁overwhelming	-8408
▁contemptuously	-8409
':	-8410
,5	-8411
Son	-8412
eat	-8413
ird	-8414
mor	-8415
rem	-8416
rit	-8417
str	-8418
▁03	-8419
▁12	-8420
▁21	-8421
▁eg	-8422
acha	-8423
ceiv	-8424
cili	-8425
days	-8426
gone	-8427
idel	-8428
imas	-8429
iron	-8430
lain	-8431
lder	-8432
lets	-8433
lott	-8434
oday	-8435
odka	-8436
text	-8437
unch	-8438
urdy	-8439
▁Aug	-8440
▁Bah	-8441
▁Beh	-8442
▁Bel	-8443
▁VII	-8444
▁Vol	-8445
▁awe	-8446
▁dil	-8447
▁err	-8448
▁phi	-8449
▁plu	-8450
▁rav	-8451
▁ted	-8452
▁vow	-8453
▁wax	-8454
break	-8455
build	-8456
ersed	-8457
ilion	-8458
inces	-8459
inity	-8460
istak	-8461
raged	-8462
▁Borg	-8463
▁Carl	-8464
▁Comp	-8465
▁Gold	-8466
▁Must	-8467
▁Scot	-8468
▁Troy	-8469
▁bind	-8470
▁butt	-8471
▁curs	-8472
▁dash	-8473
▁dmon	-8474
▁dram	-8475
▁flow	-8476
▁fors	-8477
▁fuss	-8478
▁lets	-8479
▁load	-8480
▁mast	-8481
▁matt	-8482
▁mocc	-8483
▁nort	-8484
▁pace	-8485
▁pant	-8486
▁pear	-8487
▁sacr	-8488
▁serf	-8489
▁text	-8490
▁unaw	-8491
▁ward	-8492
▁whim	-8493
course	-8494
headed	-8495
looked	-8496
lottes	-8497
nected	-8498
usions	-8499
▁5,000	-8500
▁Among	-8501
▁Heres	-8502
▁arbor	-8503
▁cabri	-8504
▁couch	-8505
▁earls	-8506
▁elope	-8507
▁entit	-8508
▁flour	-8509
▁fools	-8510
▁goose	-8511
▁humor	-8512
▁indef	-8513
▁lifet	-8514
▁needs	-8515
▁overc	-8516
▁peril	-8517
▁posts	-8518
▁prize	-8519
▁schoo	-8520
▁score	-8521
▁shoes	-8522
▁store	-8523
▁swore	-8524
▁tramp	-8525
▁verse	-8526
nothing	-8527
ossimas	-8528
▁Grusha	-8529
▁Prince	-8530
▁Seeing	-8531
▁banner	-8532
▁barrow	-8533
▁brains	-8534
▁chairs	-8535
▁claims	-8536
▁copies	-8537
▁courte	-8538
▁dagger	-8539
▁deemed	-8540
▁encirc	-8541
▁galley	-8542
▁grieve	-8543
▁humour	-8544
▁injure	-8545
▁insinu	-8546
▁naught	-8547
▁notion	-8548
▁premed	-8549
▁raving	-8550
▁reader	-8551
▁reappe	-8552
▁remote	-8553
▁saints	-8554
▁solely	-8555
▁sovere	-8556
▁subter	-8557
▁tempor	-8558
▁terrif	-8559
▁theyll	-8560
▁theyve	-8561
▁thresh	-8562
▁waking	-8563
▁whilst	-8564
▁Lyagavy	-8565
▁acquire	-8566
▁alluded	-8567
▁articul	-8568
▁bending	-8569
▁contrib	-8570
▁cruelty	-8571
▁deprive	-8572
▁descent	-8573
▁despond	-8574
▁disconc	-8575
▁energet	-8576
▁footing	-8577
▁kinsmen	-8578
▁labours	-8579
▁mansion	-8580
▁phantom	-8581
▁pickaxe	-8582
▁pierced	-8583
▁pledged	-8584
▁popular	-8585
▁pretext	-8586
▁radiant	-8587
▁realize	-8588
▁release	-8589
▁saluted	-8590
▁shadows	-8591
▁shelter	-8592
▁surpass	-8593
▁tedious	-8594
▁variety	-8595
gutenberg	-8596
▁Dardanel	-8597
▁Moreover	-8598
▁allusion	-8599
▁attained	-8600
▁declined	-8601
▁detected	-8602
▁disguise	-8603
▁farthing	-8604
▁fatigued	-8605
▁heavenly	-8606
▁misunder	-8607
▁motioned	-8608
▁parallel	-8609
▁paroxysm	-8610
▁projects	-8611
▁religion	-8612
▁sanction	-8613
▁studying	-8614
▁teachers	-8615
▁teaching	-8616
▁tranquil	-8617
▁uneasily	-8618
▁unmistak	-8619
▁unreason	-8620
▁yielding	-8621
▁Hohlakovs	-8622
▁apologize	-8623
▁cardinals	-8624
▁commenced	-8625
▁conceived	-8626
▁delirious	-8627
▁dependent	-8628
▁desirable	-8629
▁enchanted	-8630
▁encounter	-8631
▁falsehood	-8632
▁fragments	-8633
▁genuinely	-8634
▁insulting	-8635
▁interpret	-8636
▁multitude	-8637
▁paralytic	-8638
▁paralyzed	-8639
▁pleasures	-8640
▁possesses	-8641
▁principle	-8642
▁promising	-8643
▁prospects	-8644
▁quivering	-8645
▁reassured	-8646
▁restraint	-8647
▁sacrament	-8648
▁searching	-8649
▁sparkling	-8650
▁substance	-8651
▁suspended	-8652
▁travelled	-8653
▁willingly	-8654
▁Charlottes	-8655
▁adventures	-8656
▁alteration	-8657
▁corruption	-8658
▁enterprise	-8659
▁generation	-8660
▁infinitely	-8661
▁objections	-8662
▁occasioned	-8663
▁personally	-8664
▁preference	-8665
▁prosperity	-8666
▁recompense	-8667
▁reflecting	-8668
▁shuddering	-8669
▁suggestion	-8670
▁thereafter	-8671
▁tremendous	-8672
▁affirmative	-8673
▁arrangement	-8674
▁benevolence	-8675
▁engagements	-8676
▁fortunately	-8677
▁intercourse	-8678
▁introducing	-8679
▁transformed	-8680
▁unnecessary	-8681
▁accidentally	-8682
▁carelessness	-8683
▁deliberately	-8684
▁expectations	-8685
▁grandfathers	-8686
▁impertinence	-8687
▁interference	-8688
▁philosophers	-8689
▁presentiment	-8690
▁acquaintances	-8691
▁Constantinople	-8692
23	-8693
AT	-8694
He	-8695
ki	-8696
oe	-8697
bel	-8698
bra	-8699
ems	-8700
equ	-8701
ico	-8702
met	-8703
rul	-8704
saw	-8705
upt	-8706
yas	-8707
▁Er	-8708
▁Gi	-8709
▁ti	-8710
aine	-8711
iors	-8712
mate	-8713
mine	-8714
nity	-8715
ovel	-8716
pent	-8717
rand	-8718
time	-8719
tree	-8720
twas	-8721
udge	-8722
yard	-8723
▁303	-8724
▁Ant	-8725
▁Bab	-8726
▁Mat	-8727
▁Sil	-8728
▁bef	-8729
▁exh	-8730
▁foe	-8731
▁mud	-8732
▁nay	-8733
▁row	-8734
▁spl	-8735
▁www	-8736
Mrans	-8737
about	-8738
gular	-8739
ieves	-8740
inous	-8741
ishes	-8742
lfell	-8743
ombre	-8744
rates	-8745
riend	-8746
▁Font	-8747
▁July	-8748
▁Life	-8749
▁Youd	-8750
▁afar	-8751
▁avow	-8752
▁balc	-8753
▁bite	-8754
▁boud	-8755
▁chin	-8756
▁choo	-8757
▁conc	-8758
▁cope	-8759
▁damp	-8760
▁exal	-8761
▁exec	-8762
▁eyel	-8763
▁hing	-8764
▁ling	-8765
▁mach	-8766
▁mask	-8767
▁mate	-8768
▁pipe	-8769
▁publ	-8770
▁resc	-8771
▁sack	-8772
▁sket	-8773
▁stoo	-8774
▁tick	-8775
▁type	-8776
▁unin	-8777
atched	-8778
battle	-8779
ermain	-8780
orable	-8781
rouble	-8782
struck	-8783
▁Heath	-8784
▁Other	-8785
▁beque	-8786
▁bloom	-8787
▁brass	-8788
▁cargo	-8789
▁chill	-8790
▁cicer	-8791
▁drown	-8792
▁funds	-8793
▁gleam	-8794
▁griev	-8795
▁heres	-8796
▁hills	-8797
▁impud	-8798
▁mirth	-8799
▁naked	-8800
▁noisy	-8801
▁plead	-8802
▁schol	-8803
▁skull	-8804
▁stare	-8805
▁trade	-8806
▁vehic	-8807
▁vodka	-8808
▁walks	-8809
olstadt	-8810
stained	-8811
▁August	-8812
▁Behind	-8813
▁Fortun	-8814
▁Franzs	-8815
▁Petrov	-8816
▁Theyre	-8817
▁bathed	-8818
▁befall	-8819
▁beggar	-8820
▁behalf	-8821
▁bushes	-8822
▁captiv	-8823
▁charms	-8824
▁collar	-8825
▁eighty	-8826
▁grandd	-8827
▁labour	-8828
▁leader	-8829
▁lesson	-8830
▁nieces	-8831
▁perfor	-8832
▁pierce	-8833
▁proble	-8834
▁propos	-8835
▁refund	-8836
▁revive	-8837
▁ribbon	-8838
▁roared	-8839
▁shores	-8840
▁sickly	-8841
▁snatch	-8842
▁sturdy	-8843
▁tragic	-8844
▁urgent	-8845
▁volume	-8846
▁writes	-8847
itations	-8848
stricken	-8849
▁Leclere	-8850
▁Marquis	-8851
▁Mediter	-8852
▁Rospoli	-8853
▁Wielder	-8854
▁augment	-8855
▁banquet	-8856
▁boudoir	-8857
▁ceiling	-8858
▁conspic	-8859
▁corners	-8860
▁deliver	-8861
▁discern	-8862
▁failure	-8863
▁footman	-8864
▁foresaw	-8865
▁grating	-8866
▁gravity	-8867
▁groaned	-8868
▁handful	-8869
▁indulge	-8870
▁leather	-8871
▁numbers	-8872
▁phrases	-8873
▁planned	-8874
▁prefect	-8875
▁proverb	-8876
▁proving	-8877
▁replace	-8878
▁reports	-8879
▁rightly	-8880
▁rolling	-8881
▁skilful	-8882
▁species	-8883
▁stirred	-8884
▁supplic	-8885
▁teasing	-8886
▁virtues	-8887
▁worldly	-8888
▁wronged	-8889
▁Almighty	-8890
▁Caroline	-8891
▁Whatever	-8892
▁applause	-8893
▁appropri	-8894
▁caprices	-8895
▁cemetery	-8896
▁clutched	-8897
▁defiance	-8898
▁doubtful	-8899
▁fighting	-8900
▁fortress	-8901
▁ironical	-8902
▁kneeling	-8903
▁majestic	-8904
▁manifest	-8905
▁medicine	-8906
▁nobleman	-8907
▁overcame	-8908
▁passages	-8909
▁petition	-8910
▁poisoned	-8911
▁princess	-8912
▁reckless	-8913
▁renounce	-8914
▁resource	-8915
▁speeches	-8916
▁sufferer	-8917
▁thirteen	-8918
▁transact	-8919
▁withdraw	-8920
interested	-8921
▁acknowled	-8922
▁acquitted	-8923
▁assuredly	-8924
▁attendant	-8925
▁cabriolet	-8926
▁deposited	-8927
▁discourse	-8928
▁exhibited	-8929
▁imprudent	-8930
▁indignant	-8931
▁irregular	-8932
▁irritably	-8933
▁languages	-8934
▁narrative	-8935
▁noiseless	-8936
▁practical	-8937
▁purposely	-8938
▁referring	-8939
▁requested	-8940
▁resources	-8941
▁retreated	-8942
▁sweetness	-8943
▁threshold	-8944
▁Catherines	-8945
▁Dardanelov	-8946
▁Ingolstadt	-8947
▁additional	-8948
▁attendants	-8949
▁courageous	-8950
▁describing	-8951
▁mentioning	-8952
▁obligation	-8953
▁occupation	-8954
▁peculiarly	-8955
▁protectors	-8956
▁resembling	-8957
▁schoolfell	-8958
▁twentyfive	-8959
▁university	-8960
▁Fortunately	-8961
▁distributed	-8962
▁impressions	-8963
▁incessantly	-8964
▁philanthrop	-8965
▁represented	-8966
▁resignation	-8967
▁superiority	-8968
▁threatening	-8969
▁countenances	-8970
▁disconcerted	-8971
▁insufficient	-8972
▁relationship	-8973
▁satisfactory	-8974
▁thoughtfully	-8975
▁Mediterranean	-8976
▁condescension	-8977
▁correspondent	-8978
▁affectionately	-8979
';	-8980
43	-8981
IL	-8982
OT	-8983
nf	-8984
amy	-8985
bby	-8986
cco	-8987
lev	-8988
vre	-8989
win	-8990
yss	-8991
▁Ph	-8992
▁RE	-8993
▁ow	-8994
.--2	-8995
ales	-8996
aret	-8997
bred	-8998
eeds	-8999
gard	-9000
hast	-9001
hish	-9002
icip	-9003
inqu	-9004
lady	-9005
lanc	-9006
mela	-9007
oust	-9008
oven	-9009
rive	-9010
sing	-9011
zure	-9012
▁Cle	-9013
▁Hnf	-9014
▁Lat	-9015
▁Men	-9016
▁Ori	-9017
▁Sab	-9018
▁Sch	-9019
▁Tch	-9020
▁Vas	-9021
▁bac	-9022
▁bis	-9023
▁cit	-9024
▁eve	-9025
▁kid	-9026
▁mel	-9027
▁ped	-9028
▁unw	-9029
Honor	-9030
bably	-9031
child	-9032
cible	-9033
creat	-9034
dened	-9035
ilhan	-9036
illot	-9037
inals	-9038
ittee	-9039
mines	-9040
nings	-9041
omach	-9042
rical	-9043
three	-9044
utter	-9045
▁Fare	-9046
▁Last	-9047
▁Much	-9048
▁Tran	-9049
▁barg	-9050
▁bath	-9051
▁boot	-9052
▁cane	-9053
▁ends	-9054
▁enig	-9055
▁glit	-9056
▁hymn	-9057
▁impl	-9058
▁lawn	-9059
▁lent	-9060
▁loan	-9061
▁mile	-9062
▁pine	-9063
▁pomp	-9064
▁rash	-9065
▁rent	-9066
▁ride	-9067
▁runs	-9068
▁sale	-9069
▁sang	-9070
▁slip	-9071
▁ting	-9072
▁wash	-9073
alling	-9074
athing	-9075
eftain	-9076
iation	-9077
icking	-9078
ifully	-9079
rating	-9080
rimony	-9081
ustice	-9082
▁Alles	-9083
▁South	-9084
▁abuse	-9085
▁abyss	-9086
▁advis	-9087
▁alike	-9088
▁ambit	-9089
▁annum	-9090
▁anter	-9091
▁aunts	-9092
▁caval	-9093
▁chick	-9094
▁cling	-9095
▁creep	-9096
▁domin	-9097
▁fiery	-9098
▁greed	-9099
▁hovel	-9100
▁ikons	-9101
▁level	-9102
▁mines	-9103
▁paint	-9104
▁paths	-9105
▁phial	-9106
▁pious	-9107
▁relic	-9108
▁ruled	-9109
▁shine	-9110
▁smart	-9111
▁squee	-9112
▁steel	-9113
▁tales	-9114
▁wives	-9115
▁wrink	-9116
adation	-9117
inarily	-9118
inement	-9119
lexible	-9120
undered	-9121
▁Almost	-9122
▁Immedi	-9123
▁Kolyas	-9124
▁Little	-9125
▁Monday	-9126
▁Palais	-9127
▁Polish	-9128
▁adding	-9129
▁allude	-9130
▁boldly	-9131
▁candid	-9132
▁carved	-9133
▁dearly	-9134
▁destro	-9135
▁gossip	-9136
▁hinder	-9137
▁insign	-9138
▁knight	-9139
▁luxury	-9140
▁masses	-9141
▁murmur	-9142
▁namely	-9143
▁neglig	-9144
▁novice	-9145
▁observ	-9146
▁overfl	-9147
▁ransom	-9148
▁rascal	-9149
▁reconc	-9150
▁repast	-9151
▁rouble	-9152
▁smooth	-9153
▁sprung	-9154
▁strife	-9155
▁survey	-9156
▁theyre	-9157
▁toilet	-9158
▁vainly	-9159
▁veiled	-9160
▁waving	-9161
▁widely	-9162
▁worlds	-9163
ashioned	-9164
▁Carmela	-9165
▁Lucases	-9166
▁Meilhan	-9167
▁Strange	-9168
▁Whether	-9169
▁advised	-9170
▁apology	-9171
▁beaming	-9172
▁carries	-9173
▁clouded	-9174
▁counter	-9175
▁develop	-9176
▁dispose	-9177
▁doorway	-9178
▁doubled	-9179
▁edition	-9180
▁epilept	-9181
▁feature	-9182
▁fitting	-9183
▁floated	-9184
▁foresee	-9185
▁forming	-9186
▁glasses	-9187
▁harness	-9188
▁hashish	-9189
▁horrors	-9190
▁hunting	-9191
▁modesty	-9192
▁obvious	-9193
▁offense	-9194
▁omitted	-9195
▁perplex	-9196
▁praises	-9197
▁returns	-9198
▁stifled	-9199
▁stomach	-9200
▁thieves	-9201
▁vehicle	-9202
▁victory	-9203
▁wrought	-9204
▁Georgian	-9205
▁cicerone	-9206
▁concerns	-9207
▁disappro	-9208
▁distrust	-9209
▁dreaming	-9210
▁earthmen	-9211
▁eloquent	-9212
▁expenses	-9213
▁happiest	-9214
▁heartily	-9215
▁landlady	-9216
▁maternal	-9217
▁mattress	-9218
▁national	-9219
▁obstacle	-9220
▁polished	-9221
▁publicly	-9222
▁quarters	-9223
▁quivered	-9224
▁restless	-9225
▁retained	-9226
▁scruples	-9227
▁severity	-9228
▁sinister	-9229
▁swimming	-9230
▁syllable	-9231
▁talented	-9232
▁vigorous	-9233
▁comforted	-9234
▁committee	-9235
▁consulted	-9236
▁contrived	-9237
▁criminals	-9238
▁dismissed	-9239
▁embracing	-9240
▁extremity	-9241
▁inconceiv	-9242
▁injustice	-9243
▁intensely	-9244
▁irritable	-9245
▁justified	-9246
▁obstinate	-9247
▁oppressed	-9248
▁overheard	-9249
▁philosoph	-9250
▁projected	-9251
▁regarding	-9252
▁retainers	-9253
▁shattered	-9254
▁signified	-9255
▁slaughter	-9256
▁specially	-9257
▁strongest	-9258
▁temporary	-9259
▁vigilance	-9260
▁apparition	-9261
▁appreciate	-9262
▁attributed	-9263
▁conception	-9264
▁conspiracy	-9265
▁dishonored	-9266
▁displaying	-9267
▁fascinated	-9268
▁glittering	-9269
▁irritation	-9270
▁newspapers	-9271
▁partiality	-9272
▁presenting	-9273
▁reproached	-9274
▁spectacles	-9275
▁Immediately	-9276
▁appointment	-9277
▁conspicuous	-9278
▁degradation	-9279
▁executioner	-9280
▁impertinent	-9281
▁improvement	-9282
▁occupations	-9283
▁penetrating	-9284
▁proposition	-9285
▁punctuality	-9286
▁recognizing	-9287
▁selfishness	-9288
▁sorrowfully	-9289
▁supposition	-9290
▁voluntarily	-9291
▁assassinated	-9292
▁commencement	-9293
▁congratulate	-9294
▁intellectual	-9295
▁preparations	-9296
▁unreasonable	-9297
▁apprehensions	-9298
▁assassination	-9299
▁conversations	-9300
▁granddaughter	-9301
▁impossibility	-9302
▁congratulations	-9303
14	-9304
5.	-9305
LA	-9306
LE	-9307
NT	-9308
dr	-9309
zz	-9310
▁x	-9311
;--	-9312
ING	-9313
bid	-9314
emy	-9315
ich	-9316
net	-9317
occ	-9318
ply	-9319
pro	-9320
ram	-9321
try	-9322
vat	-9323
vil	-9324
yet	-9325
▁14	-9326
▁Bl	-9327
▁Gu	-9328
▁Ob	-9329
,500	-9330
acom	-9331
athi	-9332
bolt	-9333
comp	-9334
cond	-9335
edge	-9336
eers	-9337
ench	-9338
este	-9339
from	-9340
fted	-9341
gown	-9342
iliz	-9343
itar	-9344
laws	-9345
line	-9346
oble	-9347
only	-9348
onne	-9349
recy	-9350
stan	-9351
ties	-9352
your	-9353
▁App	-9354
▁Ask	-9355
▁Chi	-9356
▁Ear	-9357
▁Put	-9358
▁alb	-9359
▁axi	-9360
▁ded	-9361
▁fli	-9362
▁lap	-9363
▁lit	-9364
▁pha	-9365
▁pig	-9366
▁tid	-9367
▁tig	-9368
Neath	-9369
artol	-9370
bbers	-9371
cibly	-9372
icule	-9373
ilial	-9374
iliki	-9375
insky	-9376
mante	-9377
matic	-9378
othed	-9379
plete	-9380
ships	-9381
somet	-9382
▁Bern	-9383
▁Book	-9384
▁Gasp	-9385
▁Kent	-9386
▁Lake	-9387
▁anti	-9388
▁chat	-9389
▁coup	-9390
▁dies	-9391
▁dirt	-9392
▁dose	-9393
▁echo	-9394
▁fain	-9395
▁feed	-9396
▁hush	-9397
▁inef	-9398
▁kids	-9399
▁pile	-9400
▁prem	-9401
▁slay	-9402
▁swam	-9403
▁unce	-9404
▁whos	-9405
▁wisp	-9406
arshal	-9407
encies	-9408
humour	-9409
ioness	-9410
ossess	-9411
ouched	-9412
oughty	-9413
ovable	-9414
quette	-9415
spread	-9416
utable	-9417
verses	-9418
▁Creat	-9419
▁Grand	-9420
▁Today	-9421
▁admin	-9422
▁ashes	-9423
▁azure	-9424
▁based	-9425
▁biscu	-9426
▁blade	-9427
▁bliss	-9428
▁boats	-9429
▁brows	-9430
▁bunch	-9431
▁cigar	-9432
▁decre	-9433
▁deign	-9434
▁explo	-9435
▁exter	-9436
▁exult	-9437
▁finds	-9438
▁funny	-9439
▁gloss	-9440
▁grain	-9441
▁knelt	-9442
▁outer	-9443
▁outst	-9444
▁paler	-9445
▁ranks	-9446
▁ruins	-9447
▁satin	-9448
▁scold	-9449
▁sland	-9450
▁spoil	-9451
▁taunt	-9452
▁tools	-9453
▁verge	-9454
Beowulf	-9455
ensions	-9456
etition	-9457
feeling	-9458
istered	-9459
manteau	-9460
▁Agripp	-9461
▁Assunt	-9462
▁Bartol	-9463
▁Danish	-9464
▁Except	-9465
▁Greece	-9466
▁abomin	-9467
▁attire	-9468
▁awaits	-9469
▁belovd	-9470
▁bloody	-9471
▁cigars	-9472
▁clerks	-9473
▁column	-9474
▁cravat	-9475
▁dawned	-9476
▁decent	-9477
▁demean	-9478
▁eBooks	-9479
▁expend	-9480
▁expose	-9481
▁fruits	-9482
▁glided	-9483
▁hinges	-9484
▁indust	-9485
▁intrig	-9486
▁ladder	-9487
▁laughs	-9488
▁louder	-9489
▁luxuri	-9490
▁mustnt	-9491
▁offend	-9492
▁pearls	-9493
▁plants	-9494
▁reluct	-9495
▁scared	-9496
▁strang	-9497
▁suited	-9498
▁tapest	-9499
▁uncles	-9500
▁varied	-9501
aneously	-9502
ervation	-9503
ositions	-9504
ountered	-9505
▁100,000	-9506
▁Adelada	-9507
▁Richard	-9508
▁Section	-9509
▁ability	-9510
▁agonies	-9511
▁briefly	-9512
▁caprice	-9513
▁caution	-9514
▁chanced	-9515
▁charity	-9516
▁charmed	-9517
▁colonel	-9518
▁concent	-9519
▁copying	-9520
▁cutting	-9521
▁depends	-9522
▁emerald	-9523
▁envious	-9524
▁extract	-9525
▁handsom	-9526
▁imposed	-9527
▁joining	-9528
▁jumping	-9529
▁mockery	-9530
▁offence	-9531
▁pleases	-9532
▁precise	-9533
▁secrecy	-9534
▁serpent	-9535
▁serving	-9536
▁statues	-9537
▁student	-9538
▁superst	-9539
▁talents	-9540
▁thicket	-9541
▁unlucky	-9542
▁unmoved	-9543
▁verdict	-9544
▁vicious	-9545
▁visions	-9546
▁wonders	-9547
fashioned	-9548
▁Fontaine	-9549
▁Possibly	-9550
▁Vasiliki	-9551
▁alarming	-9552
▁alighted	-9553
▁anteroom	-9554
▁asserted	-9555
▁banished	-9556
▁benefact	-9557
▁costumes	-9558
▁covering	-9559
▁discours	-9560
▁entitled	-9561
▁forcibly	-9562
▁gardener	-9563
▁gladness	-9564
▁groaning	-9565
▁hesitate	-9566
▁hurrying	-9567
▁interven	-9568
▁lifetime	-9569
▁northern	-9570
▁opponent	-9571
▁overcoat	-9572
▁peaceful	-9573
▁propriet	-9574
▁rewarded	-9575
▁shocking	-9576
▁sufficed	-9577
▁surmount	-9578
▁theatres	-9579
▁unfolded	-9580
▁Parsonage	-9581
▁ambitious	-9582
▁attribute	-9583
▁chieftain	-9584
▁confiding	-9585
▁declaring	-9586
▁elopement	-9587
▁goldmines	-9588
▁hastening	-9589
▁marvelous	-9590
▁movements	-9591
▁parricide	-9592
▁patiently	-9593
▁pondering	-9594
▁powerless	-9595
▁propriety	-9596
▁providing	-9597
▁rejoicing	-9598
▁resembled	-9599
▁resolving	-9600
▁shameless	-9601
▁sovereign	-9602
▁supercili	-9603
▁transport	-9604
▁assurances	-9605
▁collecting	-9606
▁contracted	-9607
▁distracted	-9608
▁emendation	-9609
▁endeavours	-9610
▁expedition	-9611
▁explaining	-9612
▁hesitating	-9613
▁improbable	-9614
▁imprudence	-9615
▁postscript	-9616
▁resolutely	-9617
▁solicitude	-9618
▁successful	-9619
▁suspicious	-9620
▁whispering	-9621
▁Caderousses	-9622
▁complaining	-9623
▁encountered	-9624
▁formalities	-9625
▁humiliating	-9626
▁obligations	-9627
▁portmanteau	-9628
▁preparation	-9629
▁prosecutors	-9630
▁restoration	-9631
▁thunderbolt	-9632
▁concentrated	-9633
▁considerably	-9634
▁contemptuous	-9635
▁endeavouring	-9636
▁passionately	-9637
▁disinterested	-9638
▁imperceptible	-9639
▁inconvenience	-9640
2;	-9641
CE	-9642
Ed	-9643
Fe	-9644
ni	-9645
agd	-9646
alh	-9647
ato	-9648
ban	-9649
flu	-9650
nay	-9651
nut	-9652
ohn	-9653
ora	-9654
org	-9655
pen	-9656
sen	-9657
▁24	-9658
▁Sv	-9659
▁YO	-9660
anim	-9661
fold	-9662
gems	-9663
iary	-9664
isen	-9665
lock	-9666
mere	-9667
ogue	-9668
omeo	-9669
onym	-9670
orms	-9671
race	-9672
rise	-9673
uced	-9674
udes	-9675
uick	-9676
when	-9677
ylum	-9678
▁AND	-9679
▁Ach	-9680
▁Cap	-9681
▁Dec	-9682
▁Har	-9683
▁Joy	-9684
▁Kir	-9685
▁Mes	-9686
▁Out	-9687
▁Sha	-9688
▁Sic	-9689
▁Str	-9690
▁Too	-9691
▁Wal	-9692
▁Wor	-9693
▁cel	-9694
▁cro	-9695
▁eag	-9696
▁eti	-9697
▁fed	-9698
▁lip	-9699
▁non	-9700
▁spy	-9701
▁tut	-9702
eries	-9703
hetic	-9704
human	-9705
icial	-9706
ifice	-9707
ishop	-9708
itzer	-9709
liest	-9710
occup	-9711
plend	-9712
rooms	-9713
ropri	-9714
uated	-9715
ulate	-9716
verer	-9717
▁Cape	-9718
▁Fris	-9719
▁Happ	-9720
▁Heng	-9721
▁Hygd	-9722
▁Lets	-9723
▁Mess	-9724
▁Toul	-9725
▁arts	-9726
▁beds	-9727
▁cass	-9728
▁cove	-9729
▁duly	-9730
▁eman	-9731
▁epis	-9732
▁foli	-9733
▁garb	-9734
▁gran	-9735
▁lone	-9736
▁mand	-9737
▁nail	-9738
▁nick	-9739
▁owes	-9740
▁papa	-9741
▁parl	-9742
▁pave	-9743
▁peer	-9744
▁piqu	-9745
▁rive	-9746
▁toss	-9747
▁vass	-9748
advant	-9749
antial	-9750
elcome	-9751
ements	-9752
ensity	-9753
haired	-9754
horses	-9755
intend	-9756
leader	-9757
nesday	-9758
olated	-9759
orical	-9760
rained	-9761
ternal	-9762
ursday	-9763
▁Afric	-9764
▁Comte	-9765
▁Glory	-9766
▁Heard	-9767
▁Later	-9768
▁Lucca	-9769
▁Monde	-9770
▁Turks	-9771
▁Wealh	-9772
▁Young	-9773
▁Yours	-9774
▁adore	-9775
▁album	-9776
▁ample	-9777
▁armed	-9778
▁arrow	-9779
▁axiom	-9780
▁bells	-9781
▁boxes	-9782
▁brute	-9783
▁clump	-9784
▁coinc	-9785
▁corps	-9786
▁crept	-9787
▁cripp	-9788
▁debau	-9789
▁dimin	-9790
▁flick	-9791
▁frant	-9792
▁goods	-9793
▁incom	-9794
▁incur	-9795
▁mathe	-9796
▁moist	-9797
▁monst	-9798
▁mould	-9799
▁ninet	-9800
▁owned	-9801
▁physi	-9802
▁pilot	-9803
▁prost	-9804
▁recon	-9805
▁route	-9806
▁sails	-9807
▁seeks	-9808
▁sheep	-9809
▁sixth	-9810
▁sober	-9811
▁spoon	-9812
▁tread	-9813
▁unequ	-9814
▁unite	-9815
atively	-9816
current	-9817
erating	-9818
idelity	-9819
ilfully	-9820
isitive	-9821
ittered	-9822
ulously	-9823
▁Borgia	-9824
▁Ernest	-9825
▁Follow	-9826
▁Helder	-9827
▁Metrop	-9828
▁Nights	-9829
▁Proven	-9830
▁Theyve	-9831
▁apople	-9832
▁ardour	-9833
▁arisen	-9834
▁assent	-9835
▁asylum	-9836
▁bachel	-9837
▁barbar	-9838
▁bridge	-9839
▁bullet	-9840
▁burnie	-9841
▁christ	-9842
▁closer	-9843
▁closet	-9844
▁colors	-9845
▁cotton	-9846
▁damask	-9847
▁detain	-9848
▁devote	-9849
▁expert	-9850
▁faults	-9851
▁filial	-9852
▁flowed	-9853
▁gayety	-9854
▁guards	-9855
▁inches	-9856
▁infall	-9857
▁judged	-9858
▁limits	-9859
▁pacing	-9860
▁peeped	-9861
▁posted	-9862
▁proves	-9863
▁review	-9864
▁shouts	-9865
▁sinned	-9866
▁slaves	-9867
▁sledge	-9868
▁sobbed	-9869
▁sombre	-9870
▁specim	-9871
▁squand	-9872
▁statue	-9873
▁suffoc	-9874
▁sullen	-9875
▁tables	-9876
▁tastes	-9877
▁theirs	-9878
▁thrill	-9879
▁throng	-9880
▁valued	-9881
▁vanish	-9882
▁wildly	-9883
atisfied	-9884
question	-9885
▁Assunta	-9886
▁Eastern	-9887
▁Hermine	-9888
▁Pardieu	-9889
▁Switzer	-9890
▁amazing	-9891
▁arrives	-9892
▁bandage	-9893
▁cabbage	-9894
▁changes	-9895
▁civiliz	-9896
▁crowded	-9897
▁culprit	-9898
▁dazzled	-9899
▁decorum	-9900
▁designs	-9901
▁engross	-9902
▁fasting	-9903
▁filling	-9904
▁forbear	-9905
▁fulfill	-9906
▁gaining	-9907
▁grapple	-9908
▁happier	-9909
▁inspire	-9910
▁intoxic	-9911
▁islands	-9912
▁jailers	-9913
▁kindred	-9914
▁medical	-9915
▁monarch	-9916
▁noblest	-9917
▁orchest	-9918
▁relieve	-9919
▁respite	-9920
▁retract	-9921
▁schemes	-9922
▁secured	-9923
▁shocked	-9924
▁soothed	-9925
▁soundly	-9926
▁speaker	-9927
▁spectre	-9928
▁subdued	-9929
▁survive	-9930
▁thickly	-9931
▁unheard	-9932
▁upright	-9933
▁	-9934
e	-9935
t	-9936
a	-9937
o	-9938
n	-9939
i	-9940
h	-9941
s	-9942
r	-9943
d	-9944
l	-9945
u	-9946
m	-9947
c	-9948
y	-9949
f	-9950
w	-9951
,	-9952
g	-9953
p	-9954
b	-9955
.	-9956
v	-9957
k	-9958
I	-9959
T	-9960
A	-9961
;	-9962
M	-9963
?	-9964
x	-9965
H	-9966
-	-9967
B	-9968
W	-9969
S	-9970
C	-9971
!	-9972
D	-9973
j	-9974
q	-9975
F	-9976
Y	-9977
z	-9978
P	-9979
G	-9980
E	-9981
N	-9982
L	-9983
O	-9984
V	-9985
0	-9986
R	-9987
'	-9988
:	-9989
K	-9990
1	-9991
5	-9992
2	-9993
J	-9994
3	-9995
4	-9996
