<unk>	0
<s>	0
</s>	0
▁t	-0
he	-1
▁a	-2
in	-3
▁w	-4
▁the	-5
▁s	-6
re	-7
▁o	-8
▁h	-9
nd	-10
ou	-11
er	-12
ed	-13
is	-14
at	-15
▁m	-16
▁b	-17
it	-18
en	-19
▁f	-20
▁c	-21
▁to	-22
on	-23
ing	-24
▁and	-25
or	-26
▁d	-27
▁of	-28
▁th	-29
an	-30
ll	-31
▁he	-32
es	-33
as	-34
▁p	-35
ar	-36
▁in	-37
▁l	-38
▁I	-39
▁n	-40
▁y	-41
om	-42
▁ha	-43
▁you	-44
im	-45
ot	-46
▁be	-47
▁e	-48
ly	-49
le	-50
ut	-51
id	-52
▁wh	-53
▁g	-54
ow	-55
ve	-56
ce	-57
▁that	-58
▁re	-59
se	-60
▁his	-61
st	-62
ch	-63
ent	-64
▁was	-65
▁on	-66
ld	-67
ith	-68
▁A	-69
▁sa	-70
▁it	-71
▁T	-72
▁with	-73
gh	-74
ion	-75
▁not	-76
ri	-77
▁for	-78
al	-79
et	-80
▁as	-81
▁u	-82
▁him	-83
ad	-84
ur	-85
▁had	-86
ver	-87
▁M	-88
ir	-89
▁at	-90
ill	-91
ay	-92
▁st	-93
ro	-94
▁an	-95
ere	-96
▁is	-97
ct	-98
ght	-99
her	-100
▁me	-101
▁her	-102
am	-103
▁The	-104
▁H	-105
▁de	-106
▁my	-107
ould	-108
▁se	-109
▁P	-110
ter	-111
ess	-112
ain	-113
if	-114
▁said	-115
▁k	-116
▁B	-117
ic	-118
os	-119
▁so	-120
oo	-121
▁but	-122
▁have	-123
▁W	-124
ak	-125
ich	-126
▁sh	-127
all	-128
▁con	-129
▁su	-130
▁fr	-131
pe	-132
il	-133
▁all	-134
▁D	-135
ant	-136
ore	-137
▁who	-138
▁S	-139
th	-140
ag	-141
nt	-142
▁which	-143
▁r	-144
▁ex	-145
ard	-146
▁do	-147
..	-148
ell	-149
qu	-150
us	-151
and	-152
res	-153
▁by	-154
ac	-155
ome	-156
▁from	-157
lf	-158
▁C	-159
li	-160
▁she	-161
▁this	-162
ist	-163
▁N	-164
ap	-165
ous	-166
ble	-167
ers	-168
▁F	-169
ov	-170
▁v	-171
▁or	-172
red	-173
▁kn	-174
▁man	-175
▁your	-176
▁li	-177
pp	-178
em	-179
▁were	-180
ul	-181
out	-182
ust	-183
self	-184
▁one	-185
▁He	-186
▁Y	-187
▁al	-188
▁will	-189
est	-190
▁ne	-191
very	-192
▁And	-193
▁whe	-194
▁up	-195
ation	-196
el	-197
▁are	-198
ast	-199
ked	-200
ost	-201
▁ch	-202
▁what	-203
art	-204
ort	-205
ol	-206
▁le	-207
ound	-208
ke	-209
▁they	-210
▁int	-211
▁we	-212
▁no	-213
ame	-214
▁com	-215
ount	-216
▁ab	-217
one	-218
ity	-219
au	-220
▁would	-221
▁them	-222
ven	-223
ind	-224
our	-225
▁G	-226
hed	-227
▁been	-228
ie	-229
ate	-230
▁ar	-231
▁j	-232
▁know	-233
▁wor	-234
ra	-235
▁O	-236
ered	-237
▁ag	-238
ight	-239
▁am	-240
ive	-241
ong	-242
ont	-243
un	-244
hat	-245
▁qu	-246
ood	-247
▁R	-248
▁But	-249
ig	-250
▁if	-251
ang	-252
od	-253
rin	-254
▁did	-255
▁un	-256
um	-257
urn	-258
▁out	-259
hing	-260
▁there	-261
▁go	-262
▁tim	-263
▁af	-264
ough	-265
▁fa	-266
▁ro	-267
▁fe	-268
▁loo	-269
ress	-270
ass	-271
▁only	-272
▁E	-273
▁pro	-274
▁when	-275
ry	-276
ance	-277
▁then	-278
nder	-279
pt	-280
itt	-281
▁their	-282
▁im	-283
▁It	-284
cc	-285
ha	-286
▁V	-287
ence	-288
▁pl	-289
▁hand	-290
ier	-291
other	-292
▁L	-293
▁ad	-294
ure	-295
▁more	-296
ther	-297
op	-298
ars	-299
ved	-300
▁see	-301
▁You	-302
reat	-303
ather	-304
ove	-305
▁sp	-306
▁could	-307
ake	-308
ect	-309
ck	-310
ought	-311
fore	-312
▁tw	-313
ng	-314
▁rep	-315
▁now	-316
ose	-317
own	-318
able	-319
▁any	-320
▁time	-321
end	-322
▁has	-323
ice	-324
▁count	-325
▁say	-326
way	-327
▁some	-328
ite	-329
▁too	-330
ide	-331
▁dis	-332
▁into	-333
▁off	-334
ber	-335
▁himself	-336
ine	-337
ried	-338
ep	-339
▁br	-340
▁rem	-341
▁again	-342
▁us	-343
ary	-344
ack	-345
▁about	-346
ond	-347
▁pr	-348
ving	-349
si	-350
▁can	-351
▁sm	-352
▁like	-353
▁every	-354
▁mad	-355
ile	-356
ated	-357
ally	-358
ree	-359
▁under	-360
ru	-361
▁per	-362
▁day	-363
▁before	-364
▁very	-365
are	-366
▁cont	-367
ady	-368
▁K	-369
ci	-370
per	-371
king	-372
age	-373
▁en	-374
▁other	-375
ife	-376
▁even	-377
ish	-378
▁ey	-379
▁how	-380
▁should	-381
▁beg	-382
ons	-383
ire	-384
▁fir	-385
ness	-386
me	-387
ment	-388
ward	-389
▁over	-390
▁than	-391
▁Prin	-392
▁cl	-393
▁gr	-394
▁What	-395
rew	-396
ign	-397
ud	-398
ors	-399
wn	-400
▁bec	-401
ened	-402
▁bl	-403
▁Th	-404
tain	-405
▁pre	-406
▁let	-407
ge	-408
▁po	-409
▁pe	-410
▁two	-411
anc	-412
▁after	-413
...	-414
ions	-415
▁must	-416
agn	-417
▁thought	-418
ff	-419
ave	-420
ful	-421
▁young	-422
rt	-423
▁fri	-424
cl	-425
▁des	-426
▁come	-427
▁Pier	-428
ft	-429
▁eyes	-430
▁spe	-431
▁gl	-432
▁such	-433
▁word	-434
▁our	-435
▁its	-436
▁ent	-437
▁long	-438
▁imp	-439
▁first	-440
▁without	-441
▁exp	-442
▁res	-443
ne	-444
▁pass	-445
ren	-446
▁old	-447
ull	-448
agnan	-449
▁ret	-450
ace	-451
▁ri	-452
Art	-453
Artagnan	-454
▁made	-455
ty	-456
▁Yes	-457
▁ap	-458
▁comp	-459
ies	-460
▁went	-461
▁Pierre	-462
oy	-463
ise	-464
ord	-465
▁arm	-466
▁turn	-467
ious	-468
▁father	-469
▁acc	-470
▁DArtagnan	-471
omet	-472
fort	-473
▁No	-474
ab	-475
▁ser	-476
▁She	-477
▁tr	-478
▁thin	-479
▁down	-480
ans	-481
▁fo	-482
ared	-483
thing	-484
ittle	-485
oment	-486
ach	-487
▁just	-488
▁moment	-489
▁little	-490
▁same	-491
▁ob	-492
▁seem	-493
▁still	-494
uch	-495
▁happ	-496
▁shall	-497
▁tell	-498
▁great	-499
▁asked	-500
ings	-501
pect	-502
av	-503
den	-504
▁att	-505
▁thr	-506
▁these	-507
▁fl	-508
ause	-509
▁Prince	-510
▁friend	-511
lie	-512
▁Wh	-513
▁face	-514
▁somet	-515
cess	-516
hen	-517
▁men	-518
lied	-519
▁sc	-520
▁pos	-521
elt	-522
▁co	-523
ille	-524
▁room	-525
▁op	-526
▁here	-527
thos	-528
▁part	-529
ants	-530
ath	-531
▁life	-532
▁good	-533
air	-534
▁comm	-535
▁upon	-536
▁In	-537
led	-538
▁may	-539
▁cons	-540
▁head	-541
ouse	-542
▁cried	-543
ks	-544
aking	-545
▁bet	-546
ats	-547
ning	-548
▁left	-549
ild	-550
▁replied	-551
▁ord	-552
▁underst	-553
▁came	-554
▁own	-555
▁much	-556
▁away	-557
▁Well	-558
iz	-559
ied	-560
▁those	-561
▁nothing	-562
▁love	-563
▁looked	-564
▁never	-565
▁well	-566
ily	-567
hap	-568
te	-569
less	-570
▁where	-571
▁door	-572
▁rec	-573
▁Oh	-574
▁appe	-575
▁ev	-576
rist	-577
ory	-578
▁pres	-579
▁That	-580
ase	-581
ted	-582
▁three	-583
ue	-584
▁cr	-585
▁str	-586
▁back	-587
▁house	-588
▁ind	-589
▁began	-590
▁car	-591
▁vo	-592
▁app	-593
ens	-594
med	-595
▁wom	-596
▁heard	-597
▁though	-598
▁might	-599
▁return	-600
▁whom	-601
▁last	-602
rench	-603
▁another	-604
▁feel	-605
owed	-606
ently	-607
▁saw	-608
ves	-609
▁Fr	-610
▁ho	-611
ished	-612
▁once	-613
man	-614
▁inst	-615
▁most	-616
▁French	-617
▁mar	-618
na	-619
les	-620
ced	-621
▁being	-622
lyos	-623
▁Al	-624
▁Alyos	-625
dden	-626
▁way	-627
▁Mad	-628
▁something	-629
itch	-630
ait	-631
▁Mor	-632
▁te	-633
▁dont	-634
amp	-635
ener	-636
▁Nats	-637
▁belie	-638
▁sudden	-639
▁think	-640
▁heart	-641
▁take	-642
▁pers	-643
▁felt	-644
onte	-645
▁took	-646
▁wr	-647
▁kne	-648
▁tal	-649
we	-650
▁dear	-651
▁cour	-652
ained	-653
▁end	-654
▁Alyosha	-655
▁make	-656
iss	-657
▁want	-658
▁seemed	-659
ction	-660
▁They	-661
▁At	-662
▁God	-663
▁hands	-664
▁Andrew	-665
▁right	-666
▁sin	-667
▁told	-668
▁sec	-669
▁Monte	-670
oub	-671
▁Crist	-672
ret	-673
ways	-674
▁conf	-675
▁mon	-676
ition	-677
ole	-678
▁ass	-679
▁add	-680
▁This	-681
▁Ville	-682
▁Natsha	-683
▁Cristo	-684
▁em	-685
cei	-686
▁Rost	-687
▁Villefort	-688
▁voice	-689
▁understand	-690
og	-691
sw	-692
▁whole	-693
▁call	-694
▁peop	-695
▁always	-696
▁ple	-697
▁suddenly	-698
▁gu	-699
rel	-700
ick	-701
ertain	-702
▁look	-703
▁ke	-704
▁through	-705
▁words	-706
▁reg	-707
ner	-708
▁contin	-709
▁dist	-710
▁yet	-711
sible	-712
▁offic	-713
▁On	-714
▁Iv	-715
ject	-716
ussi	-717
▁myself	-718
▁answ	-719
▁express	-720
ting	-721
▁give	-722
iff	-723
▁while	-724
▁toward	-725
▁Then	-726
▁inf	-727
▁hor	-728
....	-729
hes	-730
▁child	-731
▁cap	-732
▁Be	-733
▁new	-734
▁place	-735
aken	-736
ired	-737
▁fell	-738
▁ref	-739
▁found	-740
▁aff	-741
▁people	-742
▁gener	-743
▁because	-744
▁ye	-745
▁ter	-746
▁letter	-747
entle	-748
ater	-749
▁sil	-750
atter	-751
▁having	-752
men	-753
▁continu	-754
▁Rostv	-755
▁Russi	-756
▁Em	-757
▁foll	-758
▁going	-759
▁If	-760
▁ac	-761
▁get	-762
ieur	-763
▁Athos	-764
az	-765
▁Why	-766
▁knew	-767
▁An	-768
▁put	-769
▁forg	-770
ix	-771
ever	-772
onsieur	-773
ock	-774
▁prin	-775
vers	-776
▁sat	-777
ations	-778
▁There	-779
most	-780
▁vis	-781
ised	-782
angl	-783
ult	-784
ovitch	-785
▁Dangl	-786
iness	-787
▁Mity	-788
light	-789
▁Danglars	-790
▁mind	-791
ully	-792
▁Ivan	-793
▁woman	-794
ange	-795
▁J	-796
▁turned	-797
ched	-798
▁gi	-799
haps	-800
ison	-801
▁lau	-802
▁quite	-803
▁As	-804
▁sur	-805
▁night	-806
oved	-807
iv	-808
▁seen	-809
▁adv	-810
▁How	-811
arm	-812
▁serv	-813
▁Ah	-814
ark	-815
▁quest	-816
orm	-817
▁mor	-818
cept	-819
▁bot	-820
sel	-821
ank	-822
ined	-823
ling	-824
igh	-825
und	-826
▁light	-827
ian	-828
▁gentle	-829
▁believe	-830
mer	-831
inal	-832
▁cor	-833
▁sent	-834
ousand	-835
sk	-836
row	-837
▁My	-838
▁Madame	-839
ceived	-840
ged	-841
▁When	-842
▁hour	-843
▁Mos	-844
oney	-845
▁pa	-846
up	-847
▁ang	-848
ured	-849
▁thousand	-850
▁speak	-851
▁soon	-852
▁ins	-853
ating	-854
▁Mosc	-855
ute	-856
▁bo	-857
▁smile	-858
▁aw	-859
▁min	-860
▁find	-861
▁rest	-862
▁everything	-863
ip	-864
ents	-865
▁We	-866
▁Moscow	-867
▁why	-868
▁alone	-869
▁sign	-870
att	-871
▁read	-872
bert	-873
▁Mitya	-874
▁occ	-875
▁wait	-876
ately	-877
▁against	-878
▁since	-879
▁Do	-880
ready	-881
▁remem	-882
ower	-883
▁almost	-884
arly	-885
▁diff	-886
cer	-887
▁money	-888
▁hon	-889
▁list	-890
▁already	-891
▁His	-892
▁name	-893
▁supp	-894
▁done	-895
▁act	-896
▁Albert	-897
▁sim	-898
▁gave	-899
▁passed	-900
▁set	-901
▁sold	-902
▁Morrel	-903
oud	-904
▁does	-905
ressed	-906
ss	-907
ither	-908
kh	-909
ense	-910
aster	-911
fully	-912
▁Ar	-913
pped	-914
▁inter	-915
▁looking	-916
act	-917
ention	-918
▁death	-919
▁cle	-920
▁suff	-921
▁evid	-922
▁mother	-923
ides	-924
▁sub	-925
▁Mil	-926
▁round	-927
▁world	-928
oc	-929
aught	-930
▁es	-931
▁Ch	-932
uring	-933
▁pur	-934
▁yes	-935
▁order	-936
▁inc	-937
aw	-938
▁mur	-939
osed	-940
▁days	-941
day	-942
00	-943
here	-944
▁cann	-945
▁Dants	-946
▁anything	-947
▁general	-948
▁pleas	-949
▁tre	-950
▁four	-951
▁perhaps	-952
ny	-953
int	-954
mit	-955
ited	-956
oke	-957
▁taken	-958
▁sir	-959
▁brother	-960
▁continued	-961
▁smil	-962
▁dra	-963
owing	-964
ering	-965
▁yourself	-966
ail	-967
▁army	-968
▁command	-969
pl	-970
▁So	-971
▁doub	-972
riage	-973
▁certain	-974
▁present	-975
▁person	-976
ief	-977
▁Mary	-978
▁stre	-979
▁Count	-980
ps	-981
▁friends	-982
so	-983
aring	-984
▁Milady	-985
▁wind	-986
ross	-987
ody	-988
▁mean	-989
▁step	-990
▁leave	-991
aced	-992
▁To	-993
▁half	-994
ple	-995
ual	-996
▁many	-997
▁thing	-998
▁Nap	-999
▁kill	-1000
▁prison	-1001
▁ever	-1002
▁open	-1003
oun	-1004
▁All	-1005
▁fam	-1006
▁ide	-1007
▁dep	-1008
▁dev	-1009
▁years	-1010
▁inv	-1011
ached	-1012
▁Emper	-1013
▁side	-1014
ict	-1015
▁card	-1016
▁evening	-1017
▁son	-1018
▁kind	-1019
ten	-1020
aut	-1021
used	-1022
▁dr	-1023
▁morning	-1024
▁entered	-1025
▁returned	-1026
▁sw	-1027
▁arri	-1028
▁cond	-1029
▁che	-1030
alent	-1031
ounded	-1032
▁dre	-1033
▁hum	-1034
▁herself	-1035
▁ran	-1036
odor	-1037
yodor	-1038
▁wife	-1039
ub	-1040
▁beh	-1041
▁rel	-1042
▁Fyodor	-1043
▁Ma	-1044
irl	-1045
▁Gr	-1046
▁el	-1047
▁prom	-1048
irt	-1049
olas	-1050
ows	-1051
enc	-1052
atch	-1053
▁Valent	-1054
arn	-1055
ying	-1056
▁doubt	-1057
▁also	-1058
undred	-1059
icholas	-1060
▁Par	-1061
▁care	-1062
▁expect	-1063
▁question	-1064
▁Napole	-1065
▁Nicholas	-1066
ev	-1067
ween	-1068
▁hundred	-1069
ized	-1070
▁sle	-1071
ason	-1072
▁called	-1073
▁St	-1074
▁ext	-1075
▁brought	-1076
mb	-1077
ial	-1078
▁visit	-1079
ka	-1080
▁girl	-1081
▁ask	-1082
▁bre	-1083
▁fore	-1084
▁horse	-1085
orrow	-1086
▁hus	-1087
selves	-1088
▁appeared	-1089
▁really	-1090
ook	-1091
▁tru	-1092
▁between	-1093
▁dec	-1094
icul	-1095
ical	-1096
▁repe	-1097
▁honor	-1098
▁det	-1099
iers	-1100
▁...	-1101
▁mis	-1102
▁officer	-1103
▁inde	-1104
▁wish	-1105
▁feeling	-1106
▁perf	-1107
▁Valentine	-1108
▁fact	-1109
cri	-1110
cted	-1111
▁For	-1112
▁appro	-1113
▁cannot	-1114
▁bed	-1115
▁Por	-1116
▁both	-1117
▁poor	-1118
▁table	-1119
▁Princess	-1120
▁stood	-1121
ety	-1122
▁sou	-1123
ushed	-1124
une	-1125
anz	-1126
▁better	-1127
▁each	-1128
▁shout	-1129
▁expression	-1130
▁ut	-1131
aint	-1132
▁things	-1133
▁Porthos	-1134
ket	-1135
▁bes	-1136
▁Franz	-1137
▁dire	-1138
▁disc	-1139
ery	-1140
▁char	-1141
▁terri	-1142
xt	-1143
rig	-1144
▁others	-1145
ug	-1146
erous	-1147
▁given	-1148
▁behind	-1149
▁Monsieur	-1150
▁Now	-1151
▁matter	-1152
▁ra	-1153
▁fort	-1154
▁Its	-1155
rying	-1156
aces	-1157
▁Russian	-1158
▁whose	-1159
uth	-1160
▁boy	-1161
▁conv	-1162
▁cardinal	-1163
▁ill	-1164
▁consid	-1165
▁Ill	-1166
pr	-1167
enty	-1168
▁exce	-1169
▁inqu	-1170
ys	-1171
ieu	-1172
▁ir	-1173
▁few	-1174
erest	-1175
aim	-1176
▁eff	-1177
lex	-1178
▁joy	-1179
▁draw	-1180
▁power	-1181
▁course	-1182
▁fall	-1183
▁sl	-1184
ene	-1185
ably	-1186
ided	-1187
rave	-1188
▁opened	-1189
▁need	-1190
▁nat	-1191
▁mist	-1192
itting	-1193
▁stand	-1194
▁1	-1195
zov	-1196
▁batt	-1197
du	-1198
▁least	-1199
▁second	-1200
▁remained	-1201
▁dark	-1202
▁Kut	-1203
orses	-1204
▁excl	-1205
▁enem	-1206
br	-1207
tered	-1208
▁Emperor	-1209
▁def	-1210
▁convers	-1211
de	-1212
▁real	-1213
ures	-1214
▁true	-1215
▁Kutzov	-1216
▁Thats	-1217
▁expl	-1218
▁fear	-1219
▁lost	-1220
▁thir	-1221
▁exc	-1222
▁hast	-1223
▁laugh	-1224
▁Napoleon	-1225
▁cal	-1226
▁stru	-1227
▁mer	-1228
ister	-1229
lp	-1230
imes	-1231
▁added	-1232
▁Is	-1233
▁sound	-1234
▁horses	-1235
▁towards	-1236
▁Bon	-1237
▁became	-1238
cut	-1239
ility	-1240
▁Aram	-1241
▁far	-1242
▁meet	-1243
overed	-1244
▁beaut	-1245
use	-1246
▁compan	-1247
▁interest	-1248
▁ma	-1249
▁obs	-1250
▁instant	-1251
its	-1252
▁tri	-1253
ash	-1254
▁hist	-1255
ovna	-1256
▁run	-1257
▁wal	-1258
▁Aramis	-1259
▁bro	-1260
ken	-1261
▁sto	-1262
▁ten	-1263
▁excell	-1264
▁rather	-1265
▁carriage	-1266
▁strange	-1267
▁ear	-1268
▁whether	-1269
▁among	-1270
▁contr	-1271
▁small	-1272
anced	-1273
ement	-1274
▁thats	-1275
▁received	-1276
bed	-1277
▁met	-1278
▁bri	-1279
▁become	-1280
oss	-1281
▁opp	-1282
ois	-1283
▁abs	-1284
▁got	-1285
▁talk	-1286
lo	-1287
omp	-1288
ern	-1289
▁Paris	-1290
▁Im	-1291
▁full	-1292
▁quick	-1293
▁move	-1294
▁during	-1295
▁hear	-1296
▁murd	-1297
▁soul	-1298
▁countess	-1299
▁reason	-1300
owd	-1301
▁times	-1302
ards	-1303
▁doct	-1304
▁help	-1305
▁keep	-1306
▁appear	-1307
▁remember	-1308
▁till	-1309
akov	-1310
▁desp	-1311
▁king	-1312
▁use	-1313
amed	-1314
▁dest	-1315
▁hope	-1316
▁sing	-1317
▁bar	-1318
aven	-1319
▁lar	-1320
▁foot	-1321
▁near	-1322
▁answer	-1323
otion	-1324
▁dead	-1325
unt	-1326
▁hold	-1327
▁rap	-1328
▁less	-1329
▁pale	-1330
▁answered	-1331
▁master	-1332
ended	-1333
ool	-1334
▁une	-1335
▁secret	-1336
▁Not	-1337
▁five	-1338
▁taking	-1339
▁De	-1340
▁One	-1341
▁Lord	-1342
nya	-1343
▁air	-1344
▁position	-1345
khov	-1346
iment	-1347
▁happy	-1348
▁happened	-1349
ible	-1350
▁impos	-1351
empt	-1352
▁affair	-1353
▁saying	-1354
▁pri	-1355
▁arms	-1356
▁prev	-1357
II	-1358
kn	-1359
ade	-1360
ogn	-1361
oly	-1362
anged	-1363
ether	-1364
▁idea	-1365
▁begin	-1366
▁fellow	-1367
▁longer	-1368
▁home	-1369
▁followed	-1370
▁Father	-1371
▁respect	-1372
▁themselves	-1373
▁lo	-1374
▁work	-1375
lic	-1376
▁ste	-1377
▁wont	-1378
▁play	-1379
▁month	-1380
▁remain	-1381
itted	-1382
▁Alex	-1383
▁surpr	-1384
ung	-1385
▁soldiers	-1386
val	-1387
▁lay	-1388
▁ready	-1389
dy	-1390
medi	-1391
aving	-1392
▁indeed	-1393
▁sure	-1394
old	-1395
▁stopped	-1396
▁terrible	-1397
▁ph	-1398
vern	-1399
▁pap	-1400
▁twenty	-1401
usket	-1402
▁conversation	-1403
ped	-1404
ude	-1405
ased	-1406
cious	-1407
▁listen	-1408
ey	-1409
uri	-1410
ances	-1411
ensov	-1412
▁best	-1413
▁gone	-1414
aimed	-1415
▁acqu	-1416
▁Cad	-1417
▁tears	-1418
▁bel	-1419
▁gentlemen	-1420
peri	-1421
▁cross	-1422
ield	-1423
▁esc	-1424
▁war	-1425
ific	-1426
▁bus	-1427
▁dro	-1428
▁fin	-1429
▁law	-1430
▁cant	-1431
▁battle	-1432
▁seeing	-1433
▁differe	-1434
▁next	-1435
▁chief	-1436
▁daught	-1437
▁road	-1438
ection	-1439
ments	-1440
▁requ	-1441
▁evidently	-1442
ressing	-1443
▁Densov	-1444
▁past	-1445
▁Caderous	-1446
ces	-1447
wards	-1448
▁imag	-1449
▁means	-1450
▁Let	-1451
▁obser	-1452
ime	-1453
▁Tr	-1454
▁ocl	-1455
▁oclock	-1456
▁sum	-1457
▁case	-1458
▁large	-1459
▁family	-1460
▁import	-1461
▁possible	-1462
ror	-1463
▁Snya	-1464
▁kiss	-1465
▁recogn	-1466
▁kept	-1467
▁town	-1468
▁placed	-1469
ER	-1470
iced	-1471
▁prep	-1472
▁stud	-1473
▁coming	-1474
▁immedi	-1475
ins	-1476
urg	-1477
▁six	-1478
ively	-1479
▁With	-1480
▁peas	-1481
isf	-1482
▁pray	-1483
▁Caderousse	-1484
▁impossible	-1485
uck	-1486
▁live	-1487
▁rose	-1488
▁cir	-1489
▁else	-1490
▁lips	-1491
body	-1492
ency	-1493
▁Af	-1494
▁Ive	-1495
▁hur	-1496
▁crowd	-1497
▁exclaimed	-1498
band	-1499
▁around	-1500
rat	-1501
▁nor	-1502
▁free	-1503
▁spoke	-1504
▁captain	-1505
▁din	-1506
▁deep	-1507
▁along	-1508
▁human	-1509
iously	-1510
▁window	-1511
▁sitting	-1512
▁turning	-1513
▁tou	-1514
elle	-1515
▁lad	-1516
▁swe	-1517
▁however	-1518
▁eas	-1519
▁black	-1520
▁wished	-1521
cerf	-1522
▁Morcerf	-1523
ngl	-1524
▁Come	-1525
▁tone	-1526
▁close	-1527
ski	-1528
▁Engl	-1529
the	-1530
iful	-1531
ored	-1532
ina	-1533
▁fire	-1534
▁husband	-1535
▁sk	-1536
▁Pet	-1537
ident	-1538
▁blood	-1539
▁court	-1540
ieux	-1541
anger	-1542
▁cold	-1543
▁known	-1544
▁steps	-1545
▁white	-1546
ead	-1547
▁Ed	-1548
raid	-1549
▁Grus	-1550
▁necess	-1551
▁account	-1552
▁doctor	-1553
iew	-1554
▁red	-1555
▁Dmit	-1556
▁comple	-1557
▁du	-1558
reed	-1559
▁fix	-1560
merdy	-1561
▁often	-1562
AP	-1563
▁hard	-1564
▁worth	-1565
▁high	-1566
▁orders	-1567
merdyakov	-1568
▁sn	-1569
emois	-1570
▁earth	-1571
▁short	-1572
▁held	-1573
xim	-1574
▁poss	-1575
▁cause	-1576
▁sleep	-1577
emoiselle	-1578
▁Smerdyakov	-1579
▁understood	-1580
to	-1581
▁adm	-1582
▁cur	-1583
▁enough	-1584
▁princess	-1585
▁form	-1586
rupt	-1587
▁bring	-1588
▁silent	-1589
▁drawing	-1590
▁possess	-1591
▁immediately	-1592
APT	-1593
▁bu	-1594
ert	-1595
▁circ	-1596
▁sever	-1597
▁repeated	-1598
gg	-1599
ising	-1600
▁tried	-1601
▁Dmitri	-1602
▁monsieur	-1603
▁CH	-1604
▁pret	-1605
▁sort	-1606
▁point	-1607
▁watch	-1608
▁prince	-1609
utes	-1610
▁lady	-1611
▁front	-1612
▁afraid	-1613
▁particul	-1614
ply	-1615
rie	-1616
APTER	-1617
▁CHAPTER	-1618
▁tog	-1619
▁drew	-1620
▁Grushen	-1621
▁hes	-1622
▁hair	-1623
acieux	-1624
▁After	-1625
▁rapid	-1626
▁ground	-1627
▁ca	-1628
▁together	-1629
▁Bonacieux	-1630
▁bad	-1631
oll	-1632
▁gall	-1633
▁used	-1634
▁mid	-1635
▁tro	-1636
▁truth	-1637
▁silence	-1638
ds	-1639
▁fif	-1640
▁glass	-1641
▁fright	-1642
▁contrary	-1643
ia	-1644
erc	-1645
ates	-1646
arted	-1647
▁loved	-1648
ught	-1649
▁wanted	-1650
▁different	-1651
iet	-1652
▁eld	-1653
ination	-1654
▁arrived	-1655
een	-1656
▁ru	-1657
▁Andre	-1658
▁enemy	-1659
▁die	-1660
▁prop	-1661
▁refle	-1662
▁strong	-1663
▁perfect	-1664
of	-1665
▁exist	-1666
▁talking	-1667
▁daughter	-1668
▁speaking	-1669
▁col	-1670
▁leg	-1671
▁disp	-1672
▁quickly	-1673
vo	-1674
▁ve	-1675
▁heaven	-1676
▁therefore	-1677
▁Pl	-1678
cend	-1679
ices	-1680
▁sad	-1681
▁Your	-1682
▁struck	-1683
▁service	-1684
▁happiness	-1685
aud	-1686
▁conce	-1687
▁ann	-1688
▁eye	-1689
▁gaz	-1690
▁reply	-1691
▁either	-1692
▁Fyodorovitch	-1693
jest	-1694
▁disap	-1695
▁doing	-1696
▁fathers	-1697
▁Mademoiselle	-1698
ceed	-1699
▁ele	-1700
▁resol	-1701
▁sight	-1702
▁forget	-1703
▁occup	-1704
▁making	-1705
het	-1706
▁Trv	-1707
▁quar	-1708
▁Maxim	-1709
▁madame	-1710
▁smiled	-1711
ize	-1712
▁killed	-1713
▁children	-1714
▁sometimes	-1715
▁di	-1716
▁From	-1717
▁wall	-1718
▁creat	-1719
▁ast	-1720
▁feet	-1721
▁soci	-1722
room	-1723
▁pay	-1724
▁ball	-1725
▁streng	-1726
▁Noirt	-1727
▁dream	-1728
▁women	-1729
ote	-1730
ously	-1731
▁several	-1732
▁shouted	-1733
pend	-1734
race	-1735
▁dem	-1736
▁art	-1737
▁sus	-1738
▁pain	-1739
lokhov	-1740
▁anyone	-1741
▁itself	-1742
▁delight	-1743
ale	-1744
▁franc	-1745
▁raised	-1746
▁Dlokhov	-1747
▁attention	-1748
▁moved	-1749
▁complete	-1750
sh	-1751
resh	-1752
▁Grushenka	-1753
als	-1754
▁anx	-1755
uskete	-1756
▁francs	-1757
ush	-1758
▁Go	-1759
▁inn	-1760
bly	-1761
ches	-1762
▁est	-1763
▁fav	-1764
▁send	-1765
▁excellency	-1766
be	-1767
▁dri	-1768
ingly	-1769
though	-1770
▁Muskete	-1771
mond	-1772
eng	-1773
▁news	-1774
▁above	-1775
▁reached	-1776
ati	-1777
▁bit	-1778
▁wounded	-1779
ented	-1780
itude	-1781
▁able	-1782
▁spir	-1783
ape	-1784
ets	-1785
▁calm	-1786
▁scar	-1787
▁thus	-1788
▁Every	-1789
▁forward	-1790
▁sun	-1791
ustom	-1792
▁gard	-1793
▁apart	-1794
▁prisoner	-1795
▁beautiful	-1796
burg	-1797
▁Edmond	-1798
oor	-1799
aged	-1800
aval	-1801
▁Pro	-1802
▁standing	-1803
▁unc	-1804
▁fixed	-1805
▁today	-1806
▁satisf	-1807
▁minutes	-1808
cely	-1809
▁tom	-1810
▁knows	-1811
▁pleasure	-1812
ops	-1813
▁ce	-1814
akes	-1815
ouble	-1816
oin	-1817
ected	-1818
▁direct	-1819
▁subject	-1820
ster	-1821
▁sit	-1822
amber	-1823
▁carried	-1824
▁cry	-1825
▁prof	-1826
cially	-1827
▁country	-1828
avl	-1829
▁wo	-1830
▁Peters	-1831
▁manner	-1832
▁tomorrow	-1833
▁bur	-1834
▁Here	-1835
▁stra	-1836
▁simply	-1837
▁la	-1838
▁abb	-1839
▁wis	-1840
▁forgot	-1841
▁Trville	-1842
▁waiting	-1843
▁led	-1844
▁ought	-1845
▁Kar	-1846
▁Chap	-1847
▁lead	-1848
▁pock	-1849
▁spite	-1850
▁Chapter	-1851
▁unt	-1852
▁whis	-1853
▁object	-1854
ony	-1855
aled	-1856
▁Pavl	-1857
▁camp	-1858
▁fing	-1859
▁strength	-1860
▁jud	-1861
▁pol	-1862
▁land	-1863
▁mere	-1864
▁dinner	-1865
▁fortune	-1866
▁listened	-1867
▁officers	-1868
▁Pavlovitch	-1869
▁mans	-1870
▁Andrea	-1871
▁regiment	-1872
ages	-1873
▁dut	-1874
antly	-1875
▁self	-1876
▁accomp	-1877
▁devil	-1878
▁story	-1879
bit	-1880
▁Mar	-1881
▁Who	-1882
▁par	-1883
ities	-1884
dle	-1885
ract	-1886
▁rid	-1887
▁Anna	-1888
▁Felt	-1889
▁host	-1890
▁quiet	-1891
▁commander	-1892
oned	-1893
▁spr	-1894
▁poin	-1895
▁stri	-1896
ically	-1897
terday	-1898
▁hours	-1899
▁smiling	-1900
▁consider	-1901
▁Petersburg	-1902
▁Dont	-1903
▁opin	-1904
ma	-1905
wh	-1906
▁Bors	-1907
▁faith	-1908
▁slight	-1909
▁noticed	-1910
▁later	-1911
▁business	-1912
▁vi	-1913
rink	-1914
▁wit	-1915
▁pist	-1916
ned	-1917
where	-1918
▁Beau	-1919
idence	-1920
▁grand	-1921
▁charact	-1922
▁gentleman	-1923
erm	-1924
ceive	-1925
ually	-1926
▁chair	-1927
▁accord	-1928
ron	-1929
▁post	-1930
▁prov	-1931
▁vill	-1932
▁eight	-1933
▁learn	-1934
▁Felton	-1935
oom	-1936
▁pistol	-1937
▁please	-1938
▁hat	-1939
▁plan	-1940
ission	-1941
alth	-1942
▁low	-1943
arent	-1944
▁Noirtier	-1945
ph	-1946
aded	-1947
▁weak	-1948
▁year	-1949
▁everyone	-1950
ney	-1951
▁hop	-1952
ilian	-1953
▁confess	-1954
▁instead	-1955
▁mil	-1956
inary	-1957
▁glad	-1958
▁minute	-1959
▁thinking	-1960
▁laughing	-1961
bered	-1962
▁show	-1963
▁breat	-1964
▁third	-1965
▁beside	-1966
▁sword	-1967
pecially	-1968
▁necessary	-1969
ee	-1970
▁je	-1971
teen	-1972
illed	-1973
ormed	-1974
▁favor	-1975
▁govern	-1976
▁presence	-1977
▁Vas	-1978
▁body	-1979
▁fine	-1980
pected	-1981
▁action	-1982
▁desire	-1983
▁within	-1984
▁afterwards	-1985
umed	-1986
▁pun	-1987
▁grie	-1988
▁clear	-1989
▁trans	-1990
▁garden	-1991
▁important	-1992
bb	-1993
ines	-1994
vere	-1995
▁ago	-1996
▁bott	-1997
▁mut	-1998
▁gold	-1999
▁servant	-2000
▁thoughts	-2001
▁Merc	-2002
▁firm	-2003
▁late	-2004
▁prob	-2005
▁state	-2006
itation	-2007
▁yesterday	-2008
▁adj	-2009
▁mem	-2010
▁Where	-2011
▁paper	-2012
▁usual	-2013
▁except	-2014
▁sy	-2015
uten	-2016
▁tor	-2017
inter	-2018
secut	-2019
▁bene	-2020
▁aston	-2021
▁destro	-2022
▁troops	-2023
▁English	-2024
▁purp	-2025
▁France	-2026
▁soldier	-2027
su	-2028
eth	-2029
ging	-2030
▁eng	-2031
ching	-2032
▁allow	-2033
▁scarcely	-2034
▁Pty	-2035
▁fur	-2036
▁says	-2037
▁trave	-2038
▁certainly	-2039
▁arr	-2040
▁lif	-2041
▁Only	-2042
▁exam	-2043
▁queen	-2044
▁former	-2045
▁report	-2046
▁expected	-2047
ik	-2048
▁decl	-2049
▁stay	-2050
▁sister	-2051
▁fut	-2052
▁didnt	-2053
▁tremb	-2054
▁regard	-2055
▁accompan	-2056
▁movement	-2057
▁corner	-2058
▁disappe	-2059
▁exe	-2060
▁anim	-2061
▁water	-2062
▁although	-2063
ots	-2064
inct	-2065
▁equ	-2066
▁elder	-2067
▁especially	-2068
gr	-2069
▁Gu	-2070
oving	-2071
▁proc	-2072
▁closed	-2073
▁society	-2074
▁interrupt	-2075
▁Maximilian	-2076
▁Of	-2077
▁Her	-2078
▁div	-2079
ishment	-2080
▁pocket	-2081
▁character	-2082
▁angry	-2083
▁Mercds	-2084
▁opinion	-2085
▁Bes	-2086
ution	-2087
▁burn	-2088
▁ones	-2089
▁soft	-2090
ek	-2091
▁num	-2092
▁const	-2093
▁peace	-2094
▁demand	-2095
▁counten	-2096
ager	-2097
▁mount	-2098
▁effect	-2099
uc	-2100
ries	-2101
▁fat	-2102
▁coll	-2103
▁straight	-2104
els	-2105
▁emb	-2106
▁prot	-2107
fortun	-2108
▁descri	-2109
▁history	-2110
▁cast	-2111
▁murm	-2112
▁future	-2113
▁histor	-2114
▁trying	-2115
oon	-2116
champ	-2117
▁utter	-2118
ya	-2119
pty	-2120
▁By	-2121
outh	-2122
▁Have	-2123
▁rich	-2124
▁viol	-2125
▁circum	-2126
▁sens	-2127
▁natur	-2128
▁living	-2129
▁witness	-2130
erv	-2131
ili	-2132
▁Per	-2133
usion	-2134
▁curi	-2135
▁occur	-2136
▁purpose	-2137
▁uttered	-2138
▁Ptya	-2139
▁baron	-2140
ular	-2141
▁Russia	-2142
▁seized	-2143
▁despair	-2144
▁Beauchamp	-2145
▁remembered	-2146
ital	-2147
land	-2148
▁Are	-2149
▁spot	-2150
▁vict	-2151
▁await	-2152
▁fresh	-2153
▁meant	-2154
▁betr	-2155
bility	-2156
▁dress	-2157
▁enter	-2158
that	-2159
lovna	-2160
▁drun	-2161
▁port	-2162
000	-2163
oth	-2164
ghed	-2165
jesty	-2166
▁view	-2167
▁threw	-2168
▁Just	-2169
▁jour	-2170
▁months	-2171
tern	-2172
itten	-2173
▁wine	-2174
▁seems	-2175
▁accept	-2176
▁covered	-2177
▁questions	-2178
nce	-2179
,000	-2180
iled	-2181
over	-2182
rest	-2183
▁Lou	-2184
ancing	-2185
▁attack	-2186
▁destroy	-2187
▁mention	-2188
erg	-2189
par	-2190
▁guil	-2191
cience	-2192
▁charm	-2193
▁effort	-2194
▁experi	-2195
▁glance	-2196
▁promise	-2197
▁pie	-2198
▁loud	-2199
▁break	-2200
▁sense	-2201
▁simple	-2202
▁Alexand	-2203
▁circumst	-2204
▁feelings	-2205
duced	-2206
▁mine	-2207
▁rode	-2208
▁study	-2209
lice	-2210
▁hid	-2211
▁appearance	-2212
ts	-2213
lled	-2214
urch	-2215
▁wrong	-2216
▁leaving	-2217
ues	-2218
!...	-2219
▁Bar	-2220
▁Aust	-2221
▁mill	-2222
▁bright	-2223
▁giving	-2224
fa	-2225
osing	-2226
▁Good	-2227
aching	-2228
▁aband	-2229
▁change	-2230
ume	-2231
▁merely	-2232
▁obtain	-2233
▁showed	-2234
▁Besides	-2235
▁forgotten	-2236
▁cut	-2237
enced	-2238
ening	-2239
ounced	-2240
▁concer	-2241
▁gallop	-2242
▁observed	-2243
▁countenance	-2244
▁sake	-2245
▁surprise	-2246
▁pen	-2247
acing	-2248
known	-2249
▁rushed	-2250
ler	-2251
▁died	-2252
▁floor	-2253
▁force	-2254
▁Mme	-2255
▁warm	-2256
▁stair	-2257
▁escape	-2258
▁decided	-2259
▁laughed	-2260
for	-2261
▁sal	-2262
▁coat	-2263
▁hung	-2264
itated	-2265
oubles	-2266
▁bowed	-2267
▁dread	-2268
▁fight	-2269
▁inquired	-2270
▁deli	-2271
▁approached	-2272
bs	-2273
but	-2274
head	-2275
▁duty	-2276
▁sole	-2277
▁depart	-2278
▁execut	-2279
▁walked	-2280
▁believed	-2281
ests	-2282
▁Anat	-2283
▁fool	-2284
▁besides	-2285
urs	-2286
ters	-2287
anchet	-2288
▁youth	-2289
▁belong	-2290
▁convin	-2291
cu	-2292
vel	-2293
ains	-2294
▁spo	-2295
▁pity	-2296
▁prec	-2297
anging	-2298
▁until	-2299
▁events	-2300
▁formed	-2301
▁latter	-2302
▁spirit	-2303
▁Planchet	-2304
isted	-2305
atched	-2306
▁talked	-2307
agg	-2308
like	-2309
▁unex	-2310
▁Saint	-2311
▁wrote	-2312
retched	-2313
▁nature	-2314
▁single	-2315
▁passing	-2316
▁gun	-2317
▁squ	-2318
icult	-2319
▁eager	-2320
▁marry	-2321
▁perfectly	-2322
▁bank	-2323
▁succ	-2324
▁mouth	-2325
▁Rostvs	-2326
▁tender	-2327
by	-2328
aff	-2329
ires	-2330
▁occas	-2331
▁inform	-2332
▁unable	-2333
ric	-2334
ledge	-2335
▁Koly	-2336
▁band	-2337
▁wood	-2338
▁Vasli	-2339
▁condu	-2340
▁field	-2341
▁grief	-2342
▁ladies	-2343
▁nearly	-2344
▁chamber	-2345
▁village	-2346
▁expressed	-2347
osity	-2348
▁Guards	-2349
▁follow	-2350
▁descend	-2351
▁beginning	-2352
▁difficult	-2353
lu	-2354
▁Sh	-2355
▁mod	-2356
iting	-2357
▁agree	-2358
▁gloom	-2359
ici	-2360
▁Il	-2361
▁lived	-2362
▁remar	-2363
▁company	-2364
▁holding	-2365
▁retreat	-2366
▁peasants	-2367
▁shoulders	-2368
▁particularly	-2369
bray	-2370
read	-2371
▁obli	-2372
▁Kater	-2373
▁motion	-2374
▁ordered	-2375
▁interrupted	-2376
ms	-2377
sequ	-2378
chief	-2379
ining	-2380
▁leng	-2381
▁sail	-2382
▁bound	-2383
▁concl	-2384
▁Debray	-2385
▁entire	-2386
▁intell	-2387
▁kissed	-2388
▁stranger	-2389
▁Did	-2390
▁uneas	-2391
▁murder	-2392
▁Anatole	-2393
▁Katerina	-2394
▁advanced	-2395
▁murmured	-2396
▁faces	-2397
▁sorrow	-2398
▁written	-2399
▁prosecut	-2400
▁ed	-2401
arch	-2402
▁proper	-2403
▁disappeared	-2404
orn	-2405
uss	-2406
yond	-2407
▁Bol	-2408
▁box	-2409
▁dog	-2410
itary	-2411
▁length	-2412
▁prisoners	-2413
▁gate	-2414
▁oppos	-2415
▁plain	-2416
▁across	-2417
▁dressed	-2418
▁meaning	-2419
▁neither	-2420
pic	-2421
▁La	-2422
cial	-2423
▁fal	-2424
▁fig	-2425
ision	-2426
izing	-2427
▁unif	-2428
▁freed	-2429
▁wonder	-2430
▁changed	-2431
▁suppose	-2432
▁following	-2433
mn	-2434
ges	-2435
▁Sp	-2436
▁lie	-2437
▁ende	-2438
itions	-2439
▁knowing	-2440
▁Musketeers	-2441
arer	-2442
▁cre	-2443
▁sol	-2444
ardon	-2445
▁pull	-2446
▁crime	-2447
▁scene	-2448
▁impress	-2449
▁uniform	-2450
▁servants	-2451
co	-2452
eness	-2453
ernand	-2454
▁Though	-2455
▁affairs	-2456
▁distance	-2457
▁occupied	-2458
ucc	-2459
berg	-2460
teau	-2461
▁hig	-2462
▁surr	-2463
▁comes	-2464
▁separ	-2465
ception	-2466
▁filled	-2467
▁serious	-2468
akit	-2469
▁line	-2470
▁Rakit	-2471
▁Fernand	-2472
▁explain	-2473
▁journey	-2474
▁prepared	-2475
▁presented	-2476
ians	-2477
upid	-2478
▁sea	-2479
▁val	-2480
pping	-2481
▁lean	-2482
▁adjut	-2483
▁noble	-2484
▁recoll	-2485
▁street	-2486
▁glanced	-2487
ancy	-2488
hood	-2489
▁bir	-2490
▁enj	-2491
▁blue	-2492
▁sett	-2493
▁Kolya	-2494
▁compl	-2495
▁Christ	-2496
▁married	-2497
▁suffering	-2498
▁unexpected	-2499
▁age	-2500
▁tem	-2501
ality	-2502
arily	-2503
ignor	-2504
▁grew	-2505
▁path	-2506
▁These	-2507
▁counts	-2508
▁marriage	-2509
▁conscious	-2510
▁cart	-2511
▁chance	-2512
▁endeav	-2513
▁pretty	-2514
▁persons	-2515
▁someone	-2516
▁Ne	-2517
semb	-2518
▁var	-2519
▁lose	-2520
▁sides	-2521
▁success	-2522
▁recognized	-2523
uls	-2524
▁Ju	-2525
azov	-2526
usted	-2527
▁huss	-2528
▁paid	-2529
rigory	-2530
▁incre	-2531
▁beyond	-2532
▁forgive	-2533
▁promised	-2534
aly	-2535
has	-2536
rov	-2537
▁Br	-2538
▁Re	-2539
▁wa	-2540
amma	-2541
▁aim	-2542
night	-2543
▁slow	-2544
▁detail	-2545
▁terror	-2546
▁touched	-2547
mp	-2548
ino	-2549
iant	-2550
▁note	-2551
▁shut	-2552
amazov	-2553
ceeded	-2554
▁lying	-2555
▁result	-2556
▁Grigory	-2557
▁learned	-2558
ker	-2559
nde	-2560
oted	-2561
▁rev	-2562
▁Will	-2563
▁Bolkn	-2564
▁extre	-2565
▁seven	-2566
▁Chteau	-2567
▁moments	-2568
▁pleased	-2569
▁roubles	-2570
▁Tw	-2571
▁arrest	-2572
▁peasant	-2573
▁Karamazov	-2574
▁according	-2575
▁affection	-2576
ham	-2577
▁Sm	-2578
▁mir	-2579
ishing	-2580
▁enjoy	-2581
▁suffer	-2582
▁unknown	-2583
▁acquaint	-2584
▁Ag	-2585
happ	-2586
▁cell	-2587
▁cost	-2588
▁drink	-2589
▁noise	-2590
▁spent	-2591
▁asking	-2592
▁meeting	-2593
▁Ivanovna	-2594
▁finished	-2595
ism	-2596
udd	-2597
▁Pv	-2598
ping	-2599
▁Some	-2600
▁easy	-2601
▁resp	-2602
▁Rakitin	-2603
▁listening	-2604
▁perceived	-2605
▁surprised	-2606
▁frightened	-2607
asc	-2608
lend	-2609
▁brid	-2610
▁hardly	-2611
▁stupid	-2612
▁rapidly	-2613
▁running	-2614
eks	-2615
ope	-2616
aves	-2617
▁pat	-2618
▁drag	-2619
ucking	-2620
▁Majesty	-2621
aped	-2622
▁Rue	-2623
apart	-2624
olunt	-2625
▁Tell	-2626
▁fair	-2627
▁save	-2628
erable	-2629
▁event	-2630
▁repro	-2631
▁voices	-2632
▁freedom	-2633
▁pressed	-2634
▁considered	-2635
io	-2636
▁jo	-2637
▁del	-2638
▁eat	-2639
▁try	-2640
ested	-2641
illes	-2642
▁polit	-2643
▁write	-2644
▁police	-2645
▁contempt	-2646
▁handsome	-2647
bor	-2648
rate	-2649
▁Ily	-2650
ocked	-2651
▁deal	-2652
▁diam	-2653
▁cloud	-2654
▁sweet	-2655
utenberg	-2656
▁completely	-2657
ics	-2658
uff	-2659
▁bear	-2660
▁burst	-2661
▁liber	-2662
▁neigh	-2663
▁proof	-2664
▁broken	-2665
▁unhapp	-2666
jor	-2667
omm	-2668
▁gre	-2669
▁cent	-2670
▁Austri	-2671
▁recall	-2672
▁occasion	-2673
leep	-2674
▁fan	-2675
ative	-2676
avalc	-2677
▁beat	-2678
▁heav	-2679
▁ideas	-2680
nat	-2681
▁Hl	-2682
▁Le	-2683
▁Yet	-2684
▁exact	-2685
▁notice	-2686
▁apparent	-2687
▁opposite	-2688
ott	-2689
▁Me	-2690
▁lac	-2691
inite	-2692
▁broke	-2693
▁extra	-2694
▁whisp	-2695
▁diamond	-2696
▁passage	-2697
▁passion	-2698
▁muttered	-2699
af	-2700
ugn	-2701
▁Ex	-2702
▁gen	-2703
▁por	-2704
alous	-2705
essed	-2706
ivity	-2707
▁dare	-2708
▁gazed	-2709
▁influ	-2710
▁intro	-2711
▁thank	-2712
▁beauty	-2713
▁Bucking	-2714
▁darkness	-2715
▁Buckingham	-2716
anti	-2717
▁Ali	-2718
▁suc	-2719
▁fond	-2720
▁scre	-2721
▁Winter	-2722
▁convinced	-2723
umb	-2724
▁avo	-2725
▁fle	-2726
▁legs	-2727
▁neck	-2728
itable	-2729
▁asleep	-2730
▁determ	-2731
▁guilty	-2732
▁waited	-2733
▁reading	-2734
▁greatest	-2735
▁condition	-2736
▁trembling	-2737
▁Bor	-2738
▁ves	-2739
▁mass	-2740
▁ring	-2741
▁weep	-2742
▁Cavalc	-2743
▁threat	-2744
▁consequ	-2745
▁justice	-2746
▁accustom	-2747
▁creature	-2748
▁mistress	-2749
▁Or	-2750
angu	-2751
rass	-2752
▁cru	-2753
▁auth	-2754
ctions	-2755
ushing	-2756
▁guard	-2757
▁shame	-2758
▁excited	-2759
▁getting	-2760
hip	-2761
well	-2762
▁Bou	-2763
▁med	-2764
▁mel	-2765
▁pub	-2766
▁fast	-2767
▁drunk	-2768
▁dying	-2769
▁greater	-2770
ortun	-2771
▁city	-2772
▁frown	-2773
▁proud	-2774
▁wound	-2775
▁assist	-2776
▁bitter	-2777
▁easily	-2778
▁splend	-2779
▁theres	-2780
▁arrival	-2781
▁hurried	-2782
▁pointed	-2783
▁Mi	-2784
ayed	-2785
iety	-2786
▁enc	-2787
▁Coss	-2788
▁crim	-2789
▁anger	-2790
▁treat	-2791
onsense	-2792
▁vessel	-2793
kerchief	-2794
▁Cossack	-2795
▁Perhaps	-2796
▁Pierres	-2797
▁apartment	-2798
culi	-2799
enge	-2800
▁pal	-2801
▁conn	-2802
▁entr	-2803
▁fate	-2804
▁laid	-2805
▁happen	-2806
▁peculi	-2807
▁worthy	-2808
▁attempt	-2809
▁entirely	-2810
▁evidence	-2811
▁probably	-2812
▁dA	-2813
▁deg	-2814
▁mus	-2815
▁ris	-2816
▁Bert	-2817
▁possi	-2818
▁advant	-2819
▁health	-2820
▁number	-2821
▁courage	-2822
▁natural	-2823
▁instantly	-2824
ane	-2825
che	-2826
osp	-2827
ury	-2828
what	-2829
▁fly	-2830
▁rub	-2831
ified	-2832
▁start	-2833
▁allowed	-2834
▁evident	-2835
▁Gutenberg	-2836
▁Lise	-2837
▁disg	-2838
▁harm	-2839
ainted	-2840
▁sacri	-2841
ability	-2842
▁Alexey	-2843
▁Bertucc	-2844
▁appears	-2845
▁offered	-2846
▁receive	-2847
▁curiosity	-2848
▁handkerchief	-2849
▁ash	-2850
▁jum	-2851
▁sor	-2852
icked	-2853
▁indic	-2854
▁distur	-2855
▁telling	-2856
▁charming	-2857
▁Cavalcanti	-2858
▁prosecutor	-2859
▁accompanied	-2860
▁Bag	-2861
ories	-2862
▁spee	-2863
▁offer	-2864
▁depend	-2865
▁Project	-2866
▁anxious	-2867
▁started	-2868
▁everybody	-2869
erer	-2870
ounce	-2871
inence	-2872
▁inquir	-2873
▁middle	-2874
▁spoken	-2875
▁strugg	-2876
▁support	-2877
▁accustomed	-2878
ze	-2879
rid	-2880
▁Am	-2881
ners	-2882
▁clo	-2883
▁saf	-2884
▁innoc	-2885
fortune	-2886
mt	-2887
erve	-2888
ists	-2889
▁har	-2890
ashed	-2891
▁gest	-2892
▁incl	-2893
▁sofa	-2894
▁suffici	-2895
▁Bolknski	-2896
▁Pe	-2897
ades	-2898
cing	-2899
▁becom	-2900
▁carry	-2901
▁yours	-2902
▁author	-2903
▁caught	-2904
▁Bertuccio	-2905
▁whispered	-2906
▁misfortune	-2907
III	-2908
acy	-2909
▁Lu	-2910
▁mo	-2911
uded	-2912
▁lod	-2913
▁grou	-2914
▁maid	-2915
▁tort	-2916
▁sorry	-2917
▁stern	-2918
▁Bagrat	-2919
▁moving	-2920
▁remark	-2921
▁comfort	-2922
▁extraord	-2923
▁companion	-2924
oh	-2925
cip	-2926
oves	-2927
vent	-2928
▁seat	-2929
▁stop	-2930
▁drawn	-2931
▁fault	-2932
▁danger	-2933
▁papers	-2934
uous	-2935
isten	-2936
▁false	-2937
▁looks	-2938
01	-2939
evna	-2940
▁capt	-2941
▁aside	-2942
▁cheer	-2943
▁fever	-2944
▁stone	-2945
▁impati	-2946
▁ashamed	-2947
▁fifteen	-2948
▁further	-2949
▁hearing	-2950
▁imagine	-2951
▁trouble	-2952
▁unhappy	-2953
▁adjutant	-2954
▁addressed	-2955
▁satisfied	-2956
chn	-2957
lig	-2958
anch	-2959
▁Thou	-2960
▁iron	-2961
▁merc	-2962
▁brill	-2963
▁cloak	-2964
▁intim	-2965
▁pursu	-2966
▁caused	-2967
▁knowledge	-2968
ays	-2969
iod	-2970
umn	-2971
zen	-2972
▁fro	-2973
asure	-2974
▁hero	-2975
▁vale	-2976
ending	-2977
▁coach	-2978
▁fifty	-2979
▁grave	-2980
▁makes	-2981
▁smoke	-2982
▁super	-2983
▁gloomy	-2984
▁memory	-2985
▁period	-2986
▁regret	-2987
▁extreme	-2988
▁concealed	-2989
nsk	-2990
come	-2991
fast	-2992
▁Nik	-2993
▁ali	-2994
▁cop	-2995
▁hot	-2996
ences	-2997
owers	-2998
▁coun	-2999
▁pict	-3000
▁reve	-3001
▁haste	-3002
▁saved	-3003
▁watched	-3004
▁shoulder	-3005
▁experienced	-3006
arsh	-3007
▁Hes	-3008
aining	-3009
▁Listen	-3010
▁breath	-3011
▁Russians	-3012
▁addressing	-3013
eur	-3014
son	-3015
ills	-3016
▁aud	-3017
▁shar	-3018
▁sick	-3019
perior	-3020
▁Having	-3021
▁finger	-3022
▁sacrif	-3023
▁jealous	-3024
▁Bonapart	-3025
▁informed	-3026
▁occurred	-3027
▁direction	-3028
ingu	-3029
▁Two	-3030
▁gro	-3031
▁mess	-3032
▁symp	-3033
▁rising	-3034
▁Nothing	-3035
▁letters	-3036
▁opening	-3037
fen	-3038
ases	-3039
▁irr	-3040
▁evil	-3041
▁fart	-3042
▁shudd	-3043
▁fallen	-3044
▁figure	-3045
▁public	-3046
▁circumstances	-3047
anqu	-3048
▁cab	-3049
▁cou	-3050
▁lim	-3051
cause	-3052
▁blow	-3053
▁perm	-3054
▁priv	-3055
▁seek	-3056
▁sigh	-3057
▁knees	-3058
▁major	-3059
▁party	-3060
▁bridge	-3061
▁myster	-3062
▁solemn	-3063
▁wishes	-3064
▁beneath	-3065
▁splendid	-3066
▁discovered	-3067
▁continually	-3068
key	-3069
ploy	-3070
▁fit	-3071
▁Never	-3072
▁piece	-3073
▁spect	-3074
▁thick	-3075
▁horror	-3076
▁pardon	-3077
▁clearly	-3078
▁emotion	-3079
▁peculiar	-3080
athe	-3081
▁Can	-3082
▁lab	-3083
▁book	-3084
▁furn	-3085
▁virt	-3086
▁begun	-3087
▁lower	-3088
▁ceased	-3089
▁conceal	-3090
▁conduct	-3091
▁crossed	-3092
▁useless	-3093
▁distingu	-3094
▁whatever	-3095
olog	-3096
usha	-3097
▁Very	-3098
▁comr	-3099
iction	-3100
▁fancy	-3101
▁habit	-3102
▁paces	-3103
▁breast	-3104
▁repeat	-3105
▁fingers	-3106
▁Countess	-3107
▁remarked	-3108
▁unfortun	-3109
▁departure	-3110
▁confidence	-3111
Ren	-3112
fer	-3113
ames	-3114
▁den	-3115
while	-3116
▁reck	-3117
▁vent	-3118
action	-3119
▁Louis	-3120
▁While	-3121
▁angel	-3122
▁avoid	-3123
▁restr	-3124
▁clever	-3125
▁speech	-3126
▁forehead	-3127
▁excellent	-3128
▁extraordinary	-3129
ince	-3130
▁Bal	-3131
othed	-3132
▁Rome	-3133
▁bare	-3134
Renaud	-3135
▁girls	-3136
ceiving	-3137
▁Ilusha	-3138
▁slowly	-3139
▁special	-3140
▁monaster	-3141
▁existence	-3142
dom	-3143
▁Pr	-3144
?...	-3145
aked	-3146
▁Pol	-3147
▁wild	-3148
▁Julie	-3149
▁langu	-3150
▁staff	-3151
▁employ	-3152
▁forced	-3153
▁served	-3154
▁prevent	-3155
▁procure	-3156
▁quarter	-3157
▁retired	-3158
▁minister	-3159
▁nonsense	-3160
▁watching	-3161
▁advantage	-3162
ague	-3163
aign	-3164
itty	-3165
olute	-3166
▁Hlne	-3167
▁exch	-3168
▁week	-3169
▁fanci	-3170
▁forth	-3171
▁teeth	-3172
▁valet	-3173
iration	-3174
oundrel	-3175
▁custom	-3176
▁Eminence	-3177
▁millions	-3178
aph	-3179
hus	-3180
ones	-3181
acked	-3182
ptych	-3183
▁bell	-3184
▁coff	-3185
▁fail	-3186
▁none	-3187
▁phil	-3188
▁situ	-3189
▁judge	-3190
▁condem	-3191
▁Alptych	-3192
▁directly	-3193
▁generals	-3194
▁carefully	-3195
ald	-3196
law	-3197
now	-3198
uel	-3199
▁Py	-3200
▁fre	-3201
ighed	-3202
▁grat	-3203
▁blame	-3204
▁drove	-3205
▁horri	-3206
▁notes	-3207
▁church	-3208
▁spread	-3209
▁thirty	-3210
▁thrown	-3211
▁Emperors	-3212
▁campaign	-3213
▁shouting	-3214
▁influence	-3215
▁recognize	-3216
nas	-3217
chant	-3218
using	-3219
▁Eugn	-3220
▁earn	-3221
▁walk	-3222
▁pride	-3223
▁Because	-3224
▁Bagratin	-3225
▁mistaken	-3226
▁opportun	-3227
khy	-3228
fied	-3229
ises	-3230
side	-3231
▁cand	-3232
iments	-3233
tering	-3234
▁Mikhy	-3235
▁prove	-3236
▁During	-3237
▁commun	-3238
▁brothers	-3239
▁visitors	-3240
▁surrounded	-3241
otr	-3242
▁Hay	-3243
lling	-3244
rehen	-3245
▁hell	-3246
▁obey	-3247
▁pron	-3248
▁shed	-3249
▁guests	-3250
▁absence	-3251
▁matters	-3252
▁quietly	-3253
▁baroness	-3254
▁military	-3255
▁profound	-3256
▁signific	-3257
▁brilliant	-3258
kin	-3259
▁Se	-3260
▁mag	-3261
ience	-3262
venge	-3263
▁Take	-3264
▁dism	-3265
▁laws	-3266
▁magn	-3267
▁Pyotr	-3268
▁aloud	-3269
▁imper	-3270
▁twice	-3271
▁cannon	-3272
▁common	-3273
▁seated	-3274
▁various	-3275
▁entering	-3276
▁scoundrel	-3277
sy	-3278
ask	-3279
cul	-3280
atic	-3281
rien	-3282
▁Dmt	-3283
▁rej	-3284
▁sch	-3285
iliar	-3286
▁brow	-3287
▁shad	-3288
▁vain	-3289
▁grown	-3290
▁timid	-3291
▁assure	-3292
▁forest	-3293
▁spring	-3294
▁suspic	-3295
▁desired	-3296
▁intellig	-3297
▁execution	-3298
▁possessed	-3299
nes	-3300
elve	-3301
onel	-3302
erved	-3303
▁bent	-3304
▁dign	-3305
▁inev	-3306
▁stat	-3307
▁posit	-3308
▁swear	-3309
▁Eugnie	-3310
▁explan	-3311
▁Bourien	-3312
▁farther	-3313
▁obliged	-3314
▁pleasant	-3315
▁Alexander	-3316
▁ver	-3317
▁Dmtri	-3318
▁excit	-3319
▁sought	-3320
▁entertain	-3321
case	-3322
▁hunt	-3323
▁main	-3324
▁alive	-3325
▁chest	-3326
▁hopes	-3327
▁hatred	-3328
▁priest	-3329
▁assured	-3330
▁burning	-3331
▁sympath	-3332
▁criminal	-3333
▁dreadful	-3334
▁Frenchman	-3335
▁committed	-3336
no	-3337
ilt	-3338
ivid	-3339
uses	-3340
▁Ger	-3341
▁ant	-3342
▁cho	-3343
▁und	-3344
▁duke	-3345
▁gray	-3346
▁holy	-3347
▁inha	-3348
erence	-3349
▁bread	-3350
▁caval	-3351
▁mirac	-3352
▁persu	-3353
▁venge	-3354
attered	-3355
▁windows	-3356
▁activity	-3357
▁involunt	-3358
▁monastery	-3359
▁conscience	-3360
▁approaching	-3361
▁astonishment	-3362
bo	-3363
que	-3364
rily	-3365
▁Alas	-3366
▁tast	-3367
▁Somet	-3368
▁aware	-3369
▁Rostop	-3370
▁intended	-3371
▁pointing	-3372
▁delighted	-3373
▁expecting	-3374
▁mentioned	-3375
▁understanding	-3376
Mr	-3377
uz	-3378
oche	-3379
ember	-3380
igned	-3381
othes	-3382
under	-3383
▁boys	-3384
▁feat	-3385
▁sugg	-3386
eneral	-3387
▁benef	-3388
▁ignor	-3389
▁worse	-3390
▁German	-3391
▁distri	-3392
▁twelve	-3393
▁neighbor	-3394
▁resolved	-3395
▁intention	-3396
rait	-3397
vrig	-3398
▁fun	-3399
apped	-3400
inded	-3401
▁corp	-3402
▁rock	-3403
▁tall	-3404
vrigny	-3405
▁delic	-3406
▁trees	-3407
▁advice	-3408
▁laught	-3409
▁request	-3410
▁Rostopchn	-3411
▁reflected	-3412
▁relations	-3413
▁vengeance	-3414
▁Englishman	-3415
▁opportunity	-3416
ink	-3417
not	-3418
ding	-3419
ilar	-3420
▁Car	-3421
▁nar	-3422
▁neg	-3423
▁sli	-3424
▁cott	-3425
▁phys	-3426
ashion	-3427
▁kings	-3428
▁trium	-3429
ancholy	-3430
▁double	-3431
▁undert	-3432
▁deceived	-3433
▁suffered	-3434
▁breakfast	-3435
▁destroyed	-3436
▁excitement	-3437
▁government	-3438
▁impression	-3439
▁acquaintance	-3440
yr	-3441
ius	-3442
hand	-3443
wise	-3444
▁Eur	-3445
▁sky	-3446
ndeed	-3447
▁snow	-3448
▁Mamma	-3449
▁Roche	-3450
▁youll	-3451
▁attent	-3452
▁confir	-3453
▁resumed	-3454
▁laughter	-3455
▁Musketeer	-3456
▁ourselves	-3457
▁companions	-3458
▁motionless	-3459
cle	-3460
der	-3461
gan	-3462
lov	-3463
you	-3464
coat	-3465
iter	-3466
▁ben	-3467
ouses	-3468
▁Ital	-3469
▁Look	-3470
▁ears	-3471
▁exha	-3472
ternal	-3473
▁Hayde	-3474
▁alarm	-3475
▁youve	-3476
osition	-3477
▁Gentle	-3478
▁Indeed	-3479
▁paused	-3480
▁refuse	-3481
▁devoted	-3482
▁familiar	-3483
▁descended	-3484
▁importance	-3485
▁melancholy	-3486
ls	-3487
abl	-3488
apt	-3489
vey	-3490
husi	-3491
quet	-3492
▁mot	-3493
▁Grim	-3494
▁join	-3495
▁sire	-3496
iculty	-3497
igneur	-3498
ndered	-3499
▁admit	-3500
▁serve	-3501
▁Europe	-3502
▁likely	-3503
▁nearer	-3504
▁search	-3505
▁enemies	-3506
▁enthusi	-3507
▁entreat	-3508
▁gesture	-3509
▁liberty	-3510
▁entrance	-3511
▁produced	-3512
▁Mikhylovna	-3513
▁difficulty	-3514
ulf	-3515
▁Ad	-3516
▁Id	-3517
cher	-3518
ives	-3519
urat	-3520
▁dam	-3521
▁flew	-3522
▁nerv	-3523
▁ruin	-3524
▁group	-3525
▁liked	-3526
▁rooms	-3527
▁shook	-3528
seilles	-3529
▁feared	-3530
▁played	-3531
▁walking	-3532
▁instance	-3533
▁murderer	-3534
▁succeeded	-3535
▁apparently	-3536
▁ta	-3537
orse	-3538
▁Con	-3539
▁attend	-3540
▁bottle	-3541
▁infant	-3542
▁Grimaud	-3543
▁putting	-3544
▁writing	-3545
▁murdered	-3546
▁Gentlemen	-3547
▁explained	-3548
▁historians	-3549
aps	-3550
iny	-3551
port	-3552
▁See	-3553
▁bab	-3554
aming	-3555
▁bold	-3556
lessly	-3557
▁Kitty	-3558
▁heads	-3559
▁knife	-3560
▁poison	-3561
▁discuss	-3562
▁galloped	-3563
▁announced	-3564
ache	-3565
ompl	-3566
▁Our	-3567
▁dim	-3568
▁dang	-3569
▁guns	-3570
▁yield	-3571
▁sounds	-3572
ertainly	-3573
onscious	-3574
seigneur	-3575
▁abandon	-3576
▁advance	-3577
▁reality	-3578
▁settled	-3579
▁torment	-3580
▁dressing	-3581
▁hastened	-3582
▁superior	-3583
▁wretched	-3584
▁Bourienne	-3585
▁Marseilles	-3586
amb	-3587
oqu	-3588
▁Du	-3589
osop	-3590
▁Far	-3591
▁unf	-3592
icing	-3593
▁yard	-3594
▁deeply	-3595
▁gained	-3596
▁jumped	-3597
▁England	-3598
▁Natshas	-3599
▁exactly	-3600
▁triumph	-3601
▁cheerful	-3602
▁communic	-3603
▁doubtless	-3604
▁generally	-3605
▁miserable	-3606
▁mysterious	-3607
▁particular	-3608
ify	-3609
rya	-3610
vre	-3611
ashv	-3612
▁big	-3613
▁deb	-3614
▁due	-3615
▁Mrya	-3616
▁fulf	-3617
▁fully	-3618
▁heavy	-3619
▁reach	-3620
▁assass	-3621
▁doesnt	-3622
▁fortun	-3623
▁sprang	-3624
▁thanks	-3625
▁hastily	-3626
▁whisper	-3627
▁absolute	-3628
▁distinct	-3629
▁acquainted	-3630
let	-3631
anks	-3632
stand	-3633
▁dull	-3634
▁gras	-3635
▁loss	-3636
▁nose	-3637
racted	-3638
▁Still	-3639
▁early	-3640
▁midst	-3641
▁shown	-3642
▁lifted	-3643
▁pulled	-3644
▁Pvlovna	-3645
▁details	-3646
▁engaged	-3647
▁explanation	-3648
lin	-3649
rop	-3650
oose	-3651
rill	-3652
▁cra	-3653
▁fet	-3654
oured	-3655
▁boat	-3656
▁conc	-3657
▁pill	-3658
▁trem	-3659
▁wore	-3660
▁empty	-3661
▁forty	-3662
▁frequ	-3663
▁lives	-3664
▁terms	-3665
▁throw	-3666
▁charge	-3667
▁instru	-3668
▁proved	-3669
▁Balashv	-3670
▁project	-3671
▁related	-3672
▁arranged	-3673
▁personal	-3674
▁staircase	-3675
cles	-3676
hest	-3677
ooks	-3678
rose	-3679
▁Him	-3680
▁mal	-3681
▁smo	-3682
▁tea	-3683
arest	-3684
▁nine	-3685
ointed	-3686
▁trial	-3687
▁agreed	-3688
▁crying	-3689
▁address	-3690
▁capital	-3691
▁eagerly	-3692
▁escaped	-3693
▁greatly	-3694
▁violent	-3695
▁directed	-3696
▁Certainly	-3697
▁returning	-3698
▁imagination	-3699
fs	-3700
rehe	-3701
▁Mis	-3702
oused	-3703
▁mort	-3704
▁ship	-3705
▁arose	-3706
▁withd	-3707
▁anxiety	-3708
▁assumed	-3709
▁earnest	-3710
▁visitor	-3711
▁demanded	-3712
▁philosop	-3713
▁reproach	-3714
▁abandoned	-3715
asm	-3716
set	-3717
olay	-3718
udden	-3719
▁irre	-3720
▁rejo	-3721
▁thro	-3722
rehend	-3723
▁cruel	-3724
▁produ	-3725
▁youre	-3726
▁excuse	-3727
▁higher	-3728
▁musket	-3729
▁severe	-3730
▁tranqu	-3731
▁victim	-3732
▁General	-3733
▁leading	-3734
▁wearing	-3735
▁determined	-3736
▁unfortunate	-3737
tel	-3738
▁da	-3739
Mran	-3740
road	-3741
▁van	-3742
oward	-3743
▁amid	-3744
▁cred	-3745
▁myst	-3746
▁pati	-3747
▁Borod	-3748
▁blind	-3749
▁boots	-3750
▁brave	-3751
▁embar	-3752
▁relig	-3753
▁touch	-3754
▁walls	-3755
agement	-3756
▁Nikolay	-3757
▁fashion	-3758
▁playing	-3759
▁declared	-3760
▁information	-3761
▁Su	-3762
▁pet	-3763
armed	-3764
▁educ	-3765
▁stro	-3766
▁awful	-3767
▁bless	-3768
uddenly	-3769
▁indiff	-3770
▁accompl	-3771
▁actions	-3772
▁hussars	-3773
▁mothers	-3774
▁official	-3775
▁possession	-3776
▁unconscious	-3777
whe	-3778
wor	-3779
▁ep	-3780
▁amb	-3781
ament	-3782
olnsk	-3783
▁amaz	-3784
▁cous	-3785
▁depri	-3786
▁lines	-3787
▁Theres	-3788
▁misery	-3789
▁Italian	-3790
▁clothes	-3791
▁fancied	-3792
▁masters	-3793
▁magnific	-3794
▁described	-3795
▁Everything	-3796
hy	-3797
ior	-3798
airs	-3799
omte	-3800
with	-3801
rated	-3802
▁beha	-3803
▁rank	-3804
▁tong	-3805
▁broad	-3806
▁drive	-3807
▁trust	-3808
▁respon	-3809
▁school	-3810
▁Borodin	-3811
▁growing	-3812
▁protect	-3813
▁dAvrigny	-3814
▁innocent	-3815
▁kindness	-3816
▁previous	-3817
▁somewhat	-3818
▁Napoleons	-3819
▁pi	-3820
etto	-3821
rect	-3822
▁arg	-3823
▁bor	-3824
▁liv	-3825
asons	-3826
astic	-3827
iding	-3828
ossim	-3829
ument	-3830
▁More	-3831
▁hall	-3832
▁shot	-3833
ateful	-3834
▁Whats	-3835
▁march	-3836
▁Before	-3837
▁angrily	-3838
▁raising	-3839
▁require	-3840
▁agitated	-3841
▁instinct	-3842
▁astonished	-3843
itz	-3844
▁ec	-3845
▁hy	-3846
illy	-3847
oman	-3848
quis	-3849
ring	-3850
▁Was	-3851
▁gay	-3852
▁imm	-3853
▁Gods	-3854
▁embr	-3855
▁hide	-3856
▁sank	-3857
▁sons	-3858
▁wide	-3859
vation	-3860
▁build	-3861
▁penet	-3862
▁Parfen	-3863
▁firmly	-3864
▁preced	-3865
▁supper	-3866
▁However	-3867
▁Smolnsk	-3868
▁science	-3869
▁similar	-3870
▁Suddenly	-3871
▁increased	-3872
▁Parfenovitch	-3873
ef	-3874
uge	-3875
ump	-3876
▁Ph	-3877
▁bow	-3878
▁uni	-3879
erted	-3880
▁Berg	-3881
▁diss	-3882
▁pack	-3883
▁rare	-3884
▁Faria	-3885
▁cheeks	-3886
▁honest	-3887
▁houses	-3888
▁calling	-3889
▁curtain	-3890
▁keeping	-3891
▁victory	-3892
▁features	-3893
▁humanity	-3894
▁property	-3895
▁av	-3896
five	-3897
rees	-3898
▁Cap	-3899
▁cup	-3900
▁env	-3901
▁win	-3902
right	-3903
ulted	-3904
▁hosp	-3905
▁yell	-3906
tained	-3907
vering	-3908
▁catch	-3909
▁pract	-3910
▁finish	-3911
▁stairs	-3912
▁leaning	-3913
▁mounted	-3914
▁interesting	-3915
▁Mo	-3916
ites	-3917
▁cat	-3918
▁rul	-3919
▁top	-3920
cient	-3921
pleas	-3922
▁food	-3923
▁monk	-3924
▁rise	-3925
▁equal	-3926
▁Mityas	-3927
▁finding	-3928
▁station	-3929
▁wouldnt	-3930
▁examined	-3931
▁friendship	-3932
arse	-3933
iven	-3934
oint	-3935
osen	-3936
▁alt	-3937
▁pan	-3938
▁scr	-3939
oring	-3940
ption	-3941
▁Duke	-3942
▁dish	-3943
▁shru	-3944
▁crown	-3945
▁whats	-3946
▁works	-3947
ruction	-3948
theless	-3949
▁bottom	-3950
▁genius	-3951
▁interv	-3952
▁needed	-3953
▁ruined	-3954
▁sighed	-3955
▁Andrews	-3956
▁shaking	-3957
▁sincere	-3958
▁arrested	-3959
▁powerful	-3960
▁hurriedly	-3961
▁recollect	-3962
▁concerning	-3963
kes	-3964
liz	-3965
ohl	-3966
▁Fe	-3967
▁Bez	-3968
▁dom	-3969
▁ess	-3970
▁sho	-3971
retch	-3972
▁Hohl	-3973
▁comb	-3974
▁lies	-3975
▁mour	-3976
▁pure	-3977
▁stir	-3978
▁flank	-3979
▁named	-3980
▁storm	-3981
▁contem	-3982
▁establ	-3983
▁forces	-3984
▁gazing	-3985
▁hidden	-3986
▁nobody	-3987
▁resist	-3988
▁painful	-3989
▁Hohlakov	-3990
▁coachman	-3991
▁governor	-3992
▁agitation	-3993
▁positively	-3994
any	-3995
ara	-3996
geon	-3997
keep	-3998
wing	-3999
▁inj	-4000
cknow	-4001
▁Even	-4002
▁clas	-4003
▁grace	-4004
▁hoped	-4005
▁purse	-4006
▁Heaven	-4007
▁degree	-4008
▁firing	-4009
▁pushed	-4010
▁Bezkhov	-4011
▁colonel	-4012
▁reflect	-4013
▁required	-4014
▁consciousness	-4015
▁involuntarily	-4016
igs	-4017
oni	-4018
wed	-4019
▁ur	-4020
▁Kal	-4021
▁Thy	-4022
▁civ	-4023
abeth	-4024
▁Cors	-4025
▁safe	-4026
father	-4027
▁fatal	-4028
▁mercy	-4029
▁river	-4030
▁shirt	-4031
▁slept	-4032
▁spend	-4033
▁wealth	-4034
▁falling	-4035
▁flushed	-4036
▁mistake	-4037
▁refused	-4038
▁recalled	-4039
▁dangerous	-4040
▁exhausted	-4041
▁permission	-4042
▁resolution	-4043
▁sac	-4044
▁wid	-4045
acher	-4046
ample	-4047
mense	-4048
▁Pepp	-4049
▁cler	-4050
▁ease	-4051
▁pier	-4052
inated	-4053
▁Italy	-4054
▁cries	-4055
▁displ	-4056
▁elect	-4057
▁energ	-4058
▁enorm	-4059
▁lover	-4060
▁speed	-4061
▁Church	-4062
▁endure	-4063
▁height	-4064
▁resemb	-4065
▁Ilyitch	-4066
▁dropped	-4067
▁guessed	-4068
▁heavens	-4069
▁pistols	-4070
▁removed	-4071
▁visited	-4072
▁supposed	-4073
▁embarrass	-4074
▁comprehend	-4075
▁interested	-4076
▁magnificent	-4077
uit	-4078
lope	-4079
▁May	-4080
▁rob	-4081
orted	-4082
▁enve	-4083
▁armch	-4084
▁class	-4085
▁conqu	-4086
▁delay	-4087
▁grant	-4088
▁music	-4089
▁overt	-4090
▁plans	-4091
▁acknow	-4092
▁column	-4093
▁havent	-4094
▁island	-4095
▁tongue	-4096
lizabeth	-4097
▁Without	-4098
▁illness	-4099
▁princip	-4100
▁streets	-4101
▁becoming	-4102
▁envelope	-4103
▁language	-4104
▁pistoles	-4105
▁betrothed	-4106
▁conviction	-4107
▁sufficient	-4108
icip	-4109
lies	-4110
rois	-4111
▁dip	-4112
▁sen	-4113
verse	-4114
▁miss	-4115
▁warn	-4116
▁green	-4117
▁monks	-4118
▁porch	-4119
▁purch	-4120
▁ranks	-4121
▁ascend	-4122
▁assemb	-4123
▁consol	-4124
▁cousin	-4125
▁hearts	-4126
▁Peppino	-4127
▁cavalry	-4128
▁immense	-4129
▁nervous	-4130
▁quarrel	-4131
▁ordinary	-4132
▁regarded	-4133
▁slightly	-4134
▁Elizabeth	-4135
▁gratitude	-4136
▁separated	-4137
▁somewhere	-4138
ah	-4139
nal	-4140
pin	-4141
sar	-4142
▁id	-4143
▁hut	-4144
isely	-4145
▁Vamp	-4146
▁grow	-4147
▁hill	-4148
▁moon	-4149
▁nice	-4150
▁Would	-4151
▁clean	-4152
▁credit	-4153
▁hither	-4154
▁notary	-4155
▁places	-4156
▁inspect	-4157
▁lighted	-4158
▁perform	-4159
▁proceed	-4160
▁spirits	-4161
▁stepped	-4162
▁unpleas	-4163
▁discover	-4164
▁rendered	-4165
▁agreeable	-4166
▁sacrifice	-4167
▁witnesses	-4168
nov	-4169
▁Sir	-4170
▁pit	-4171
▁Pass	-4172
▁Wait	-4173
▁jail	-4174
▁tear	-4175
ocking	-4176
uments	-4177
▁Youre	-4178
▁prayer	-4179
▁introdu	-4180
▁private	-4181
▁revenge	-4182
▁spectac	-4183
▁sympathy	-4184
rm	-4185
ais	-4186
bid	-4187
com	-4188
ift	-4189
thy	-4190
onor	-4191
▁Abb	-4192
▁Kuz	-4193
▁sty	-4194
▁vig	-4195
atisf	-4196
▁duel	-4197
▁annoy	-4198
▁groan	-4199
▁value	-4200
▁advent	-4201
▁affect	-4202
▁batter	-4203
▁repres	-4204
▁shadow	-4205
▁Another	-4206
▁Barrois	-4207
▁consent	-4208
▁highest	-4209
▁steward	-4210
▁wishing	-4211
▁confused	-4212
▁glancing	-4213
▁infantry	-4214
▁silently	-4215
▁Bonaparte	-4216
▁Dmtrievna	-4217
▁Villeforts	-4218
▁conception	-4219
lly	-4220
enth	-4221
▁fold	-4222
▁lawy	-4223
▁quit	-4224
ooking	-4225
stairs	-4226
▁brain	-4227
▁hurry	-4228
▁loves	-4229
▁chosen	-4230
▁parent	-4231
▁pieces	-4232
▁render	-4233
▁tavern	-4234
▁outside	-4235
▁showing	-4236
▁visible	-4237
▁awaiting	-4238
▁extended	-4239
▁ignorant	-4240
▁relation	-4241
▁concluded	-4242
▁frightful	-4243
▁er	-4244
▁pra	-4245
▁vex	-4246
▁Give	-4247
▁Pres	-4248
▁lamp	-4249
▁luck	-4250
▁orig	-4251
▁song	-4252
▁summ	-4253
▁dared	-4254
▁depth	-4255
▁mater	-4256
▁relie	-4257
▁sharp	-4258
ogether	-4259
▁flight	-4260
▁magist	-4261
▁retire	-4262
▁thrust	-4263
▁uneasy	-4264
▁contrad	-4265
▁dignity	-4266
▁disturb	-4267
▁precaut	-4268
▁singing	-4269
▁armchair	-4270
▁carrying	-4271
▁imagined	-4272
▁appointed	-4273
▁confusion	-4274
▁recovered	-4275
ien	-4276
ses	-4277
▁Ab	-4278
cked	-4279
hold	-4280
ibly	-4281
uish	-4282
whel	-4283
▁Spe	-4284
▁bal	-4285
▁obv	-4286
▁rum	-4287
eless	-4288
iring	-4289
ulous	-4290
▁deed	-4291
▁goes	-4292
ossima	-4293
▁below	-4294
▁board	-4295
▁doors	-4296
▁simpl	-4297
▁space	-4298
utation	-4299
▁circle	-4300
▁corpse	-4301
▁sovere	-4302
▁capable	-4303
▁fellows	-4304
▁happens	-4305
▁accepted	-4306
▁animated	-4307
▁comrades	-4308
▁precious	-4309
▁necessity	-4310
▁everywhere	-4311
▁punishment	-4312
▁satisfaction	-4313
ib	-4314
zy	-4315
pro	-4316
▁Has	-4317
▁ard	-4318
▁dun	-4319
▁fee	-4320
▁game	-4321
▁obsc	-4322
▁rage	-4323
▁shes	-4324
▁temp	-4325
▁trif	-4326
▁wand	-4327
illing	-4328
▁Vampa	-4329
▁fatig	-4330
▁irres	-4331
▁corrid	-4332
▁softly	-4333
▁couldnt	-4334
▁inhabit	-4335
▁Cossacks	-4336
▁approach	-4337
▁obtained	-4338
▁overwhel	-4339
▁pressing	-4340
▁proposed	-4341
▁interests	-4342
ob	-4343
agr	-4344
enn	-4345
ode	-4346
▁Eh	-4347
▁ic	-4348
ator	-4349
rier	-4350
gress	-4351
▁ming	-4352
00,000	-4353
acious	-4354
manuel	-4355
▁Three	-4356
▁signs	-4357
▁whist	-4358
▁amount	-4359
▁failed	-4360
▁handed	-4361
▁joined	-4362
▁lovely	-4363
▁awaited	-4364
▁closely	-4365
▁doctors	-4366
▁invited	-4367
▁plainly	-4368
▁regular	-4369
▁seeking	-4370
▁touching	-4371
▁trembled	-4372
▁Sometimes	-4373
▁procureur	-4374
▁beforehand	-4375
sa	-4376
ils	-4377
rom	-4378
uted	-4379
▁Baz	-4380
▁hal	-4381
asing	-4382
▁dpin	-4383
▁hind	-4384
▁insp	-4385
▁ment	-4386
▁Thank	-4387
▁moral	-4388
▁share	-4389
▁smell	-4390
athered	-4391
▁begged	-4392
▁convey	-4393
▁desper	-4394
▁famous	-4395
sibility	-4396
▁example	-4397
▁horrible	-4398
▁resolute	-4399
▁throwing	-4400
▁treasure	-4401
▁interview	-4402
▁naturally	-4403
▁commission	-4404
▁conditions	-4405
▁uneasiness	-4406
ux	-4407
azz	-4408
lom	-4409
lers	-4410
▁Had	-4411
▁dry	-4412
▁obst	-4413
▁weap	-4414
▁color	-4415
▁faint	-4416
▁glory	-4417
▁takes	-4418
▁wants	-4419
▁dpinay	-4420
▁weight	-4421
▁alarmed	-4422
▁million	-4423
▁weakness	-4424
▁president	-4425
▁slightest	-4426
▁sovereign	-4427
▁introduced	-4428
▁respectfully	-4429
apa	-4430
ded	-4431
kov	-4432
ued	-4433
▁Cl	-4434
▁Te	-4435
ncle	-4436
▁Tkh	-4437
▁elb	-4438
▁wel	-4439
ables	-4440
natur	-4441
▁Mich	-4442
▁cord	-4443
▁gain	-4444
▁subm	-4445
▁thou	-4446
▁names	-4447
▁Really	-4448
▁choose	-4449
▁design	-4450
▁diplom	-4451
▁dreams	-4452
▁prefer	-4453
▁Emmanuel	-4454
▁gathered	-4455
▁infinite	-4456
▁intimate	-4457
▁situation	-4458
▁grandfather	-4459
cil	-4460
how	-4461
rif	-4462
▁1.	-4463
aire	-4464
▁Kat	-4465
▁ado	-4466
▁nod	-4467
▁tow	-4468
antic	-4469
iable	-4470
orous	-4471
▁Span	-4472
▁Shall	-4473
▁dance	-4474
▁tempt	-4475
▁weeks	-4476
▁calcul	-4477
▁leaves	-4478
▁recomm	-4479
▁summer	-4480
▁flowers	-4481
▁peoples	-4482
▁contempl	-4483
▁disgrace	-4484
▁quarters	-4485
▁Christian	-4486
▁contained	-4487
▁conclusion	-4488
▁pronounced	-4489
ilb	-4490
pre	-4491
yal	-4492
▁TH	-4493
kind	-4494
llow	-4495
urse	-4496
▁aid	-4497
▁cas	-4498
velop	-4499
▁Benn	-4500
▁Gree	-4501
▁bore	-4502
▁mild	-4503
▁repl	-4504
▁risk	-4505
ashing	-4506
▁Misov	-4507
▁badly	-4508
▁carts	-4509
▁shore	-4510
▁spare	-4511
adually	-4512
itating	-4513
▁banker	-4514
▁hussar	-4515
▁kindly	-4516
▁marked	-4517
▁virtue	-4518
▁Austria	-4519
▁Bennigs	-4520
▁Kutzovs	-4521
▁knocked	-4522
▁crossing	-4523
▁enormous	-4524
▁perceive	-4525
▁struggle	-4526
▁altogether	-4527
ger	-4528
erem	-4529
osom	-4530
▁Pal	-4531
▁Tur	-4532
▁ine	-4533
▁phr	-4534
aches	-4535
acity	-4536
▁King	-4537
▁Such	-4538
▁hate	-4539
▁vast	-4540
▁wond	-4541
▁Tkhon	-4542
▁gives	-4543
▁impro	-4544
▁waist	-4545
▁defend	-4546
▁signed	-4547
▁bedroom	-4548
▁beloved	-4549
▁collect	-4550
▁hanging	-4551
▁remains	-4552
▁univers	-4553
▁weeping	-4554
▁admitted	-4555
▁benefact	-4556
▁devotion	-4557
▁favorite	-4558
▁possibly	-4559
▁realized	-4560
▁condemned	-4561
▁stretched	-4562
▁thousands	-4563
▁engagement	-4564
go	-4565
amm	-4566
rav	-4567
keys	-4568
step	-4569
▁bew	-4570
▁ice	-4571
▁wif	-4572
count	-4573
ugust	-4574
▁Sper	-4575
▁prud	-4576
▁adopt	-4577
▁bosom	-4578
▁ended	-4579
▁guess	-4580
▁merry	-4581
▁saint	-4582
▁arrive	-4583
▁disord	-4584
▁inevit	-4585
▁intent	-4586
▁wretch	-4587
standing	-4588
▁attract	-4589
▁convuls	-4590
▁efforts	-4591
▁employed	-4592
▁childhood	-4593
▁intellect	-4594
▁Alexandrov	-4595
▁constantly	-4596
▁destruction	-4597
▁monseigneur	-4598
▁circumstance	-4599
▁mix	-4600
▁sav	-4601
ature	-4602
lease	-4603
rious	-4604
▁Mean	-4605
▁poet	-4606
▁pros	-4607
▁worn	-4608
arling	-4609
riages	-4610
▁Those	-4611
▁absor	-4612
▁marsh	-4613
▁serfs	-4614
▁skill	-4615
▁suite	-4616
▁forbid	-4617
▁leaned	-4618
▁loving	-4619
▁rolled	-4620
▁foreign	-4621
▁intense	-4622
▁absolutely	-4623
ours	-4624
▁gle	-4625
▁key	-4626
▁lot	-4627
▁vic	-4628
house	-4629
▁Dear	-4630
▁Gasc	-4631
▁Luig	-4632
▁Prov	-4633
▁joke	-4634
▁rang	-4635
▁sobs	-4636
▁nurse	-4637
▁vague	-4638
utenant	-4639
▁absent	-4640
▁estate	-4641
▁livres	-4642
▁temper	-4643
▁throat	-4644
▁Captain	-4645
▁Rochell	-4646
▁commiss	-4647
▁usually	-4648
▁corridor	-4649
▁forgiven	-4650
▁procurat	-4651
▁gradually	-4652
▁political	-4653
▁preparing	-4654
▁receiving	-4655
▁seriously	-4656
▁unpleasant	-4657
▁possibility	-4658
▁unexpectedly	-4659
▁distinguished	-4660
ns	-4661
rd	-4662
rog	-4663
sky	-4664
▁Je	-4665
▁Mr	-4666
ople	-4667
▁Tsh	-4668
▁gar	-4669
ailed	-4670
ource	-4671
▁Lond	-4672
▁butt	-4673
▁ecst	-4674
▁isnt	-4675
▁loft	-4676
▁rene	-4677
pelled	-4678
▁Youve	-4679
▁agony	-4680
▁birth	-4681
▁brief	-4682
▁facts	-4683
▁frame	-4684
▁decide	-4685
▁eleven	-4686
▁fourth	-4687
▁silver	-4688
fortunes	-4689
▁battery	-4690
▁cottage	-4691
▁individ	-4692
▁remorse	-4693
▁faithful	-4694
▁Meanwhile	-4695
▁accompany	-4696
▁indicated	-4697
▁remaining	-4698
pet	-4699
rol	-4700
urd	-4701
reci	-4702
rent	-4703
▁Dan	-4704
▁Rem	-4705
▁tit	-4706
agger	-4707
kward	-4708
mbers	-4709
urity	-4710
▁furi	-4711
illery	-4712
▁Luigi	-4713
▁beast	-4714
▁fetch	-4715
▁miles	-4716
▁price	-4717
▁shone	-4718
▁taste	-4719
▁afford	-4720
▁battal	-4721
▁bowing	-4722
▁coward	-4723
▁crimes	-4724
▁riding	-4725
▁winter	-4726
▁yellow	-4727
lessness	-4728
▁accused	-4729
▁ancient	-4730
▁blushed	-4731
▁drunken	-4732
▁inquiry	-4733
▁members	-4734
▁messeng	-4735
▁hospital	-4736
rehensible	-4737
▁suspicion	-4738
▁assistance	-4739
▁frequently	-4740
▁magistrate	-4741
▁previously	-4742
▁reflection	-4743
▁attentively	-4744
▁misfortunes	-4745
kv	-4746
vt	-4747
ams	-4748
ule	-4749
icle	-4750
oses	-4751
pper	-4752
▁Bog	-4753
▁der	-4754
▁lin	-4755
▁wet	-4756
iling	-4757
▁dust	-4758
▁oper	-4759
▁rain	-4760
▁stol	-4761
▁wear	-4762
▁Hills	-4763
▁amuse	-4764
▁manif	-4765
▁refer	-4766
▁rival	-4767
▁wifes	-4768
chamber	-4769
▁clouds	-4770
▁driven	-4771
▁lackey	-4772
▁signal	-4773
▁dragged	-4774
▁eternal	-4775
▁inquire	-4776
▁monster	-4777
▁Austrian	-4778
▁belonged	-4779
▁bringing	-4780
▁footstep	-4781
▁independ	-4782
▁offended	-4783
▁overcome	-4784
▁movements	-4785
▁experience	-4786
▁sufferings	-4787
▁consequence	-4788
▁instructions	-4789
▁intelligence	-4790
▁significance	-4791
sip	-4792
evol	-4793
▁Fen	-4794
▁Nes	-4795
▁Pre	-4796
▁wip	-4797
bbing	-4798
▁dogs	-4799
▁pace	-4800
▁rapt	-4801
▁wept	-4802
isions	-4803
keeper	-4804
▁Again	-4805
▁Bened	-4806
▁Speak	-4807
▁balls	-4808
▁beard	-4809
▁exerc	-4810
▁raise	-4811
alities	-4812
▁accent	-4813
▁jailer	-4814
▁prompt	-4815
▁sentin	-4816
▁awkward	-4817
▁costume	-4818
▁defense	-4819
▁quitted	-4820
▁sounded	-4821
▁attitude	-4822
▁definite	-4823
▁grateful	-4824
▁noticing	-4825
▁progress	-4826
▁restrain	-4827
▁striking	-4828
▁dArtagnan	-4829
▁daughters	-4830
▁education	-4831
▁reception	-4832
▁enthusiasm	-4833
.,	-4834
gin	-4835
▁Bl	-4836
bing	-4837
chen	-4838
nski	-4839
seen	-4840
iance	-4841
inate	-4842
iture	-4843
osure	-4844
▁Kurg	-4845
▁Past	-4846
▁aunt	-4847
▁copy	-4848
▁drop	-4849
▁lear	-4850
▁onto	-4851
▁tail	-4852
ensive	-4853
ential	-4854
▁Nesvt	-4855
▁books	-4856
▁brand	-4857
▁cards	-4858
▁flung	-4859
▁royal	-4860
▁squad	-4861
▁tired	-4862
▁burned	-4863
▁joyful	-4864
▁prepar	-4865
▁saddle	-4866
▁darling	-4867
▁fearful	-4868
▁betrayed	-4869
▁embraced	-4870
▁frowning	-4871
▁singular	-4872
▁carriages	-4873
▁household	-4874
▁proceeded	-4875
▁suspected	-4876
isp	-4877
pon	-4878
rah	-4879
raw	-4880
sue	-4881
▁oh	-4882
atal	-4883
pond	-4884
ulse	-4885
▁Bus	-4886
▁Fer	-4887
▁kit	-4888
▁lit	-4889
▁wed	-4890
ounds	-4891
place	-4892
rence	-4893
▁Once	-4894
▁torn	-4895
▁wolf	-4896
ements	-4897
rassot	-4898
urance	-4899
▁bench	-4900
▁drank	-4901
▁greet	-4902
amation	-4903
omorrow	-4904
▁Signor	-4905
▁absurd	-4906
▁incomp	-4907
▁indign	-4908
▁nation	-4909
▁strang	-4910
▁theory	-4911
▁wicked	-4912
▁Brother	-4913
▁Krassot	-4914
▁enchant	-4915
▁forever	-4916
▁announce	-4917
▁attacked	-4918
▁describe	-4919
▁executed	-4920
▁material	-4921
▁Benedetto	-4922
▁attracted	-4923
▁disturbed	-4924
▁exception	-4925
▁repeating	-4926
▁individual	-4927
ano	-4928
occ	-4929
zed	-4930
bers	-4931
▁Gen	-4932
▁fem	-4933
▁wag	-4934
ading	-4935
istic	-4936
oning	-4937
▁Dess	-4938
▁Germ	-4939
▁Tere	-4940
▁Thee	-4941
▁Thus	-4942
▁bull	-4943
▁cher	-4944
▁impl	-4945
oubled	-4946
▁parts	-4947
▁persp	-4948
▁spark	-4949
▁stout	-4950
▁worst	-4951
▁causes	-4952
▁coffin	-4953
▁duties	-4954
▁insult	-4955
▁intend	-4956
▁intrig	-4957
▁invest	-4958
▁losing	-4959
▁office	-4960
▁rubles	-4961
▁bearing	-4962
▁curious	-4963
▁foolish	-4964
▁managed	-4965
▁observe	-4966
▁reasons	-4967
▁continue	-4968
▁decision	-4969
▁goodness	-4970
▁Bennigsen	-4971
▁artillery	-4972
▁consisted	-4973
▁fortnight	-4974
▁messenger	-4975
▁performed	-4976
▁senseless	-4977
▁inhabitants	-4978
my	-4979
zv	-4980
aul	-4981
rab	-4982
irst	-4983
sthe	-4984
▁Che	-4985
▁bag	-4986
▁ble	-4987
▁bod	-4988
▁que	-4989
▁Bilb	-4990
▁drin	-4991
▁indu	-4992
▁jest	-4993
▁ride	-4994
ulated	-4995
▁Bazin	-4996
▁Passy	-4997
▁Phara	-4998
▁Since	-4999
▁Their	-5000
▁guest	-5001
▁incon	-5002
▁labor	-5003
hearted	-5004
▁August	-5005
▁bought	-5006
▁sailor	-5007
▁senses	-5008
▁social	-5009
▁strict	-5010
▁despite	-5011
▁lackeys	-5012
▁setting	-5013
▁travell	-5014
▁accident	-5015
▁attached	-5016
▁feverish	-5017
▁creatures	-5018
▁honorable	-5019
▁otherwise	-5020
▁sensation	-5021
rs	-5022
gged	-5023
lict	-5024
rows	-5025
▁Mon	-5026
▁god	-5027
▁ren	-5028
eding	-5029
ganov	-5030
▁gown	-5031
▁jury	-5032
▁meth	-5033
▁mood	-5034
▁plun	-5035
▁star	-5036
▁sway	-5037
inging	-5038
▁Katya	-5039
▁acted	-5040
▁fence	-5041
▁inher	-5042
▁revol	-5043
▁shade	-5044
▁Corsic	-5045
▁London	-5046
▁Teresa	-5047
▁animal	-5048
▁buried	-5049
▁flying	-5050
▁pillow	-5051
▁reward	-5052
▁stolen	-5053
▁thirst	-5054
▁content	-5055
▁created	-5056
▁dungeon	-5057
▁harness	-5058
▁mankind	-5059
▁sailors	-5060
▁thunder	-5061
▁unnatur	-5062
▁Kalganov	-5063
▁Tomorrow	-5064
▁formerly	-5065
▁confirmed	-5066
▁shuddered	-5067
▁Providence	-5068
▁apartments	-5069
▁tenderness	-5070
lim	-5071
oms	-5072
uil	-5073
▁Li	-5074
bour	-5075
camp	-5076
chan	-5077
held	-5078
mans	-5079
▁Tru	-5080
▁fac	-5081
0,000	-5082
aries	-5083
aying	-5084
overy	-5085
▁Next	-5086
▁baby	-5087
▁brig	-5088
▁heat	-5089
▁knee	-5090
▁task	-5091
▁tree	-5092
▁clock	-5093
▁drops	-5094
▁frank	-5095
▁guilt	-5096
▁landl	-5097
▁lofty	-5098
▁mourn	-5099
▁owner	-5100
looking	-5101
respond	-5102
▁assume	-5103
▁hunger	-5104
▁picked	-5105
▁sooner	-5106
▁unless	-5107
▁utmost	-5108
▁Pastrin	-5109
▁Pharaon	-5110
▁correct	-5111
▁distant	-5112
▁mystery	-5113
▁parents	-5114
▁stories	-5115
▁Nesvtski	-5116
▁advancing	-5117
▁concerned	-5118
▁conducted	-5119
▁commanders	-5120
▁correspond	-5121
con	-5122
VIII	-5123
iece	-5124
lebr	-5125
▁Sch	-5126
▁Vra	-5127
▁mud	-5128
▁thy	-5129
▁unm	-5130
agues	-5131
itive	-5132
▁disd	-5133
▁roof	-5134
ration	-5135
▁Sever	-5136
▁corps	-5137
▁gates	-5138
▁slave	-5139
▁style	-5140
▁swall	-5141
▁celebr	-5142
▁helped	-5143
▁palace	-5144
▁permit	-5145
▁polite	-5146
▁relate	-5147
▁taught	-5148
▁beating	-5149
▁frowned	-5150
▁kitchen	-5151
▁torture	-5152
▁younger	-5153
▁absorbed	-5154
▁audience	-5155
▁breaking	-5156
▁fighting	-5157
▁insisted	-5158
▁intently	-5159
▁physical	-5160
▁President	-5161
▁pretended	-5162
▁impatience	-5163
withstanding	-5164
▁considering	-5165
▁recollection	-5166
alf	-5167
edu	-5168
iti	-5169
▁El	-5170
▁ga	-5171
atev	-5172
give	-5173
reet	-5174
umes	-5175
▁bas	-5176
buted	-5177
icity	-5178
▁Both	-5179
▁ante	-5180
▁eleg	-5181
▁lord	-5182
▁Which	-5183
▁emper	-5184
▁fired	-5185
▁pause	-5186
▁reass	-5187
▁title	-5188
▁trick	-5189
fulness	-5190
▁dispos	-5191
▁narrow	-5192
▁sacred	-5193
▁Karatev	-5194
▁Maximov	-5195
▁counsel	-5196
▁dancing	-5197
▁reports	-5198
▁timidly	-5199
▁treated	-5200
▁irresist	-5201
▁exchanged	-5202
▁extremely	-5203
▁mountains	-5204
▁connection	-5205
▁reputation	-5206
ium	-5207
ogr	-5208
roe	-5209
rud	-5210
▁eh	-5211
iche	-5212
ival	-5213
long	-5214
▁Jes	-5215
itate	-5216
▁Bald	-5217
▁aven	-5218
▁bend	-5219
▁gaze	-5220
▁glit	-5221
▁Baron	-5222
▁press	-5223
▁thief	-5224
▁Louvre	-5225
▁gently	-5226
▁poured	-5227
▁punish	-5228
▁stayed	-5229
ointment	-5230
▁Several	-5231
▁complex	-5232
▁footman	-5233
▁kissing	-5234
▁remembr	-5235
▁deserted	-5236
▁friendly	-5237
▁hitherto	-5238
▁interrog	-5239
▁investig	-5240
▁pictures	-5241
▁sleeping	-5242
▁squadron	-5243
▁precisely	-5244
▁wonderful	-5245
▁Krassotkin	-5246
▁contradict	-5247
▁sufficiently	-5248
tw	-5249
hum	-5250
cies	-5251
▁Exc	-5252
▁Jac	-5253
▁don	-5254
▁log	-5255
▁wat	-5256
imate	-5257
▁High	-5258
▁Mous	-5259
▁chim	-5260
▁defe	-5261
▁gend	-5262
▁huge	-5263
▁hurt	-5264
▁mant	-5265
▁ours	-5266
▁powd	-5267
minded	-5268
mother	-5269
▁built	-5270
▁cases	-5271
▁cerem	-5272
▁detach	-5273
▁divine	-5274
▁humili	-5275
▁method	-5276
▁obeyed	-5277
▁shouts	-5278
▁anticip	-5279
▁appreci	-5280
▁degrees	-5281
▁finally	-5282
▁lightly	-5283
▁mingled	-5284
▁nations	-5285
▁seconds	-5286
▁sternly	-5287
▁Alyoshas	-5288
▁Mousquet	-5289
▁Remember	-5290
▁drinking	-5291
▁merchant	-5292
▁revealed	-5293
▁stronger	-5294
▁sentiment	-5295
▁suggested	-5296
▁tormented	-5297
▁violently	-5298
▁difference	-5299
▁considerable	-5300
ax	-5301
zh	-5302
asy	-5303
eem	-5304
gar	-5305
oubt	-5306
plex	-5307
▁Hur	-5308
▁Mok	-5309
▁THE	-5310
▁hed	-5311
▁ing	-5312
▁owe	-5313
▁tap	-5314
▁unw	-5315
ronic	-5316
▁dawn	-5317
▁nois	-5318
▁test	-5319
▁admir	-5320
▁dwell	-5321
▁guide	-5322
▁mamma	-5323
▁stret	-5324
▁surre	-5325
▁train	-5326
▁weary	-5327
reement	-5328
▁active	-5329
▁modest	-5330
▁remind	-5331
▁warmly	-5332
▁whence	-5333
▁womans	-5334
▁Spanish	-5335
▁anguish	-5336
▁blessed	-5337
▁compass	-5338
▁letting	-5339
▁perplex	-5340
▁placing	-5341
▁ridicul	-5342
▁generous	-5343
▁solitude	-5344
▁footsteps	-5345
▁spiritual	-5346
▁strangely	-5347
▁distinctly	-5348
▁politeness	-5349
irty	-5350
lect	-5351
zing	-5352
▁Ber	-5353
▁pil	-5354
▁reb	-5355
▁sob	-5356
▁vol	-5357
aling	-5358
ardes	-5359
cript	-5360
occup	-5361
▁Tsar	-5362
▁fier	-5363
▁hers	-5364
▁htel	-5365
▁suit	-5366
▁civil	-5367
▁lodge	-5368
▁Mokroe	-5369
▁attain	-5370
▁beaten	-5371
▁career	-5372
▁depths	-5373
▁hiding	-5374
▁incred	-5375
▁loudly	-5376
▁majest	-5377
▁mechan	-5378
▁prayed	-5379
▁stones	-5380
▁thinks	-5381
▁becomes	-5382
▁kingdom	-5383
▁profess	-5384
▁restore	-5385
▁suggest	-5386
▁wrapped	-5387
▁portrait	-5388
▁connected	-5389
▁essential	-5390
▁admiration	-5391
▁historical	-5392
bl	-5393
ky	-5394
esh	-5395
ids	-5396
lix	-5397
oci	-5398
ovs	-5399
ugg	-5400
▁Sc	-5401
▁Col	-5402
▁doc	-5403
▁rad	-5404
▁rom	-5405
erene	-5406
iries	-5407
▁Arab	-5408
▁Bapt	-5409
▁Cler	-5410
▁cong	-5411
▁lock	-5412
▁rule	-5413
▁sell	-5414
▁stif	-5415
rehens	-5416
▁Grand	-5417
▁Greek	-5418
▁claim	-5419
▁indul	-5420
▁match	-5421
▁shrie	-5422
▁truly	-5423
▁waves	-5424
▁Island	-5425
▁abroad	-5426
▁advers	-5427
▁arrang	-5428
▁enemys	-5429
▁hollow	-5430
▁motive	-5431
▁powers	-5432
▁Baptist	-5433
▁Clerval	-5434
▁emperor	-5435
▁existed	-5436
▁majesty	-5437
▁miracle	-5438
▁persist	-5439
▁picture	-5440
▁pursued	-5441
▁ringing	-5442
▁suspect	-5443
▁Pastrini	-5444
▁Spernski	-5445
▁acquired	-5446
▁affected	-5447
▁delicate	-5448
▁disorder	-5449
▁division	-5450
▁jealousy	-5451
▁joyfully	-5452
▁mustache	-5453
▁collected	-5454
▁confessed	-5455
▁fortunate	-5456
▁hesitated	-5457
▁represent	-5458
▁procurators	-5459
▁consequently	-5460
noe	-5461
phe	-5462
she	-5463
ante	-5464
then	-5465
▁asc	-5466
▁aut	-5467
atory	-5468
erent	-5469
oquen	-5470
stead	-5471
which	-5472
▁Arch	-5473
▁Pole	-5474
▁base	-5475
▁bill	-5476
▁born	-5477
▁obed	-5478
▁pick	-5479
▁tale	-5480
▁thee	-5481
▁tomb	-5482
orious	-5483
ounted	-5484
▁Roman	-5485
▁Tshin	-5486
▁cheek	-5487
▁clerk	-5488
▁cover	-5489
▁exped	-5490
▁recei	-5491
▁trace	-5492
▁widow	-5493
natured	-5494
▁Busoni	-5495
▁Coquen	-5496
▁associ	-5497
▁beheld	-5498
▁excess	-5499
▁highly	-5500
▁judges	-5501
▁rarely	-5502
▁settle	-5503
▁Forgive	-5504
▁deliber	-5505
▁driving	-5506
▁shudder	-5507
▁weather	-5508
▁insulted	-5509
▁stopping	-5510
▁surround	-5511
▁uttering	-5512
▁furniture	-5513
▁inspector	-5514
▁preserved	-5515
▁respected	-5516
▁tranquill	-5517
▁transport	-5518
▁intentions	-5519
▁antechamber	-5520
▁indifference	-5521
ox	-5522
tm	-5523
uk	-5524
erl	-5525
ipp	-5526
irm	-5527
jud	-5528
pel	-5529
lini	-5530
▁Whe	-5531
press	-5532
ulate	-5533
yevna	-5534
▁Four	-5535
▁Sept	-5536
▁bast	-5537
▁fish	-5538
▁fled	-5539
▁fury	-5540
▁rout	-5541
▁youd	-5542
anches	-5543
ardieu	-5544
▁Fenya	-5545
▁Youll	-5546
▁rever	-5547
▁sorts	-5548
▁wrink	-5549
ardinal	-5550
stained	-5551
▁Bilbin	-5552
▁Excuse	-5553
▁Kurgin	-5554
▁Polish	-5555
▁doubts	-5556
▁elders	-5557
▁fought	-5558
▁hungry	-5559
▁hyster	-5560
▁market	-5561
▁modern	-5562
▁propos	-5563
▁bottles	-5564
▁charged	-5565
▁tremble	-5566
▁commence	-5567
▁maintain	-5568
▁reaching	-5569
▁sentence	-5570
▁strongly	-5571
▁violence	-5572
▁Baptistin	-5573
▁agreement	-5574
▁authority	-5575
▁confident	-5576
▁desperate	-5577
▁inquiries	-5578
▁meanwhile	-5579
▁Mousqueton	-5580
▁questioned	-5581
▁reflections	-5582
▁acquaintances	-5583
lve	-5584
▁En	-5585
rust	-5586
thats	-5587
▁Luci	-5588
▁Poor	-5589
▁Stay	-5590
▁Vien	-5591
▁busy	-5592
▁cool	-5593
▁oath	-5594
▁pair	-5595
▁ribb	-5596
▁sees	-5597
▁shop	-5598
arters	-5599
worthy	-5600
▁Comte	-5601
▁Marfa	-5602
▁chall	-5603
▁frost	-5604
▁grasp	-5605
▁merit	-5606
▁stick	-5607
▁subst	-5608
▁Thanks	-5609
▁calmly	-5610
▁candle	-5611
▁encoun	-5612
▁fields	-5613
▁smiles	-5614
▁weapon	-5615
▁convent	-5616
▁disdain	-5617
▁leagues	-5618
▁manners	-5619
▁prepare	-5620
▁remarks	-5621
▁seizing	-5622
▁utterly	-5623
▁blushing	-5624
▁deprived	-5625
▁husbands	-5626
▁provided	-5627
▁reminded	-5628
▁restored	-5629
▁Coquenard	-5630
▁Frenchmen	-5631
▁September	-5632
▁adventure	-5633
▁answering	-5634
▁examining	-5635
▁prevented	-5636
▁hesitation	-5637
▁lieutenant	-5638
▁distinguish	-5639
ta	-5640
ael	-5641
app	-5642
isc	-5643
kas	-5644
lis	-5645
oul	-5646
olit	-5647
rain	-5648
▁Mak	-5649
▁flo	-5650
▁spl	-5651
ators	-5652
erves	-5653
etyuk	-5654
oting	-5655
rison	-5656
▁Holy	-5657
▁Sire	-5658
▁Smur	-5659
▁buff	-5660
▁clut	-5661
▁crit	-5662
▁cult	-5663
▁nurs	-5664
▁slee	-5665
▁dozen	-5666
▁insol	-5667
▁sixty	-5668
▁stiff	-5669
▁stock	-5670
▁trait	-5671
▁upset	-5672
▁wasnt	-5673
▁Fetyuk	-5674
▁Gascon	-5675
▁darted	-5676
▁disple	-5677
▁humble	-5678
▁longed	-5679
▁mortal	-5680
atisfied	-5681
▁Densovs	-5682
▁crushed	-5683
ification	-5684
▁Everyone	-5685
▁branches	-5686
▁commands	-5687
▁punished	-5688
▁screamed	-5689
▁wondered	-5690
▁happening	-5691
▁impressed	-5692
▁preceding	-5693
▁terrified	-5694
▁forgetting	-5695
▁examination	-5696
▁Fetyukovitch	-5697
▁accomplished	-5698
▁nevertheless	-5699
fl	-5700
▁et	-5701
ette	-5702
iend	-5703
just	-5704
text	-5705
▁Sam	-5706
▁pop	-5707
▁stu	-5708
ourse	-5709
▁inex	-5710
▁pred	-5711
▁sear	-5712
erlitz	-5713
lected	-5714
unning	-5715
▁About	-5716
▁Catal	-5717
▁Ferap	-5718
▁attri	-5719
▁demon	-5720
▁infam	-5721
▁Edward	-5722
▁bewild	-5723
▁choice	-5724
▁crowns	-5725
▁dining	-5726
▁eating	-5727
▁guards	-5728
▁hoping	-5729
▁loaded	-5730
▁nodded	-5731
▁safety	-5732
▁swords	-5733
▁worked	-5734
quarters	-5735
▁Justine	-5736
▁Michael	-5737
▁aroused	-5738
▁awfully	-5739
▁bandits	-5740
▁comrade	-5741
▁declare	-5742
▁fatigue	-5743
▁message	-5744
▁plunged	-5745
▁prayers	-5746
▁secrets	-5747
▁addition	-5748
▁building	-5749
▁changing	-5750
▁departed	-5751
▁passions	-5752
▁rapidity	-5753
▁religion	-5754
▁reported	-5755
▁starting	-5756
▁Austerlitz	-5757
▁benefactor	-5758
▁compassion	-5759
▁confession	-5760
▁electronic	-5761
▁simplicity	-5762
▁spectacles	-5763
▁established	-5764
▁expectation	-5765
▁overwhelmed	-5766
▁notwithstanding	-5767
IV	-5768
ki	-5769
ada	-5770
gor	-5771
och	-5772
ient	-5773
rick	-5774
roid	-5775
▁Yan	-5776
▁lou	-5777
▁rag	-5778
field	-5779
▁Does	-5780
▁Dron	-5781
▁eyeb	-5782
▁lest	-5783
▁thor	-5784
▁unus	-5785
▁Barcl	-5786
▁Marys	-5787
▁champ	-5788
▁horiz	-5789
▁inval	-5790
▁Smurov	-5791
▁Vienna	-5792
▁behold	-5793
▁beings	-5794
▁center	-5795
▁esteem	-5796
▁native	-5797
▁porter	-5798
▁reject	-5799
▁secure	-5800
▁source	-5801
▁heavily	-5802
▁respond	-5803
▁tonight	-5804
▁wedding	-5805
▁actually	-5806
▁exchange	-5807
▁solitary	-5808
▁tenderly	-5809
▁thorough	-5810
▁acknowled	-5811
▁anxiously	-5812
▁obviously	-5813
▁traveller	-5814
▁probability	-5815
ba	-5816
gu	-5817
oli	-5818
uct	-5819
eral	-5820
inet	-5821
skis	-5822
▁Des	-5823
▁cit	-5824
▁fow	-5825
▁lux	-5826
▁qui	-5827
heard	-5828
▁Hipp	-5829
▁borz	-5830
▁club	-5831
▁cook	-5832
▁mens	-5833
▁race	-5834
uously	-5835
▁Found	-5836
▁anter	-5837
▁awake	-5838
▁check	-5839
▁disag	-5840
▁eaten	-5841
▁eloqu	-5842
▁feast	-5843
▁final	-5844
▁fruit	-5845
▁grass	-5846
▁hated	-5847
▁instr	-5848
▁minds	-5849
▁serge	-5850
▁stage	-5851
▁stars	-5852
▁Hurrah	-5853
▁Wardes	-5854
▁cellar	-5855
▁contri	-5856
▁golden	-5857
▁hasten	-5858
▁inside	-5859
▁lasted	-5860
▁mental	-5861
▁patron	-5862
▁prejud	-5863
▁repent	-5864
▁transf	-5865
▁united	-5866
▁Hippoly	-5867
▁amiable	-5868
▁chiefly	-5869
▁enjoyed	-5870
▁pretext	-5871
▁compared	-5872
▁constant	-5873
▁offering	-5874
▁preoccup	-5875
▁preserve	-5876
▁viscount	-5877
▁belonging	-5878
▁cardinals	-5879
▁personage	-5880
▁universal	-5881
▁unnatural	-5882
▁waistcoat	-5883
▁delightful	-5884
▁inevitable	-5885
▁personally	-5886
▁sensations	-5887
▁consolation	-5888
EN	-5889
ste	-5890
iber	-5891
ming	-5892
omen	-5893
▁Old	-5894
▁ate	-5895
▁exh	-5896
attle	-5897
bourg	-5898
▁Shes	-5899
▁bree	-5900
▁clim	-5901
▁curs	-5902
▁genu	-5903
▁stoo	-5904
▁tied	-5905
▁trad	-5906
▁vers	-5907
agraph	-5908
lovnas	-5909
uteuil	-5910
▁Great	-5911
▁crack	-5912
▁inner	-5913
▁linen	-5914
▁Lucien	-5915
▁Yanina	-5916
▁couple	-5917
▁domest	-5918
▁freely	-5919
▁insist	-5920
▁locked	-5921
▁phrase	-5922
▁Barclay	-5923
▁arrange	-5924
▁concent	-5925
▁crowded	-5926
▁desires	-5927
▁equally	-5928
▁gallant	-5929
▁inherit	-5930
▁landing	-5931
▁nearest	-5932
▁produce	-5933
▁sending	-5934
▁succeed	-5935
▁willing	-5936
▁Highness	-5937
▁accounts	-5938
▁bitterly	-5939
▁composed	-5940
▁sentinel	-5941
▁services	-5942
▁amazement	-5943
▁animation	-5944
▁ascertain	-5945
▁discovery	-5946
▁paragraph	-5947
▁celebrated	-5948
▁glittering	-5949
▁precaution	-5950
▁remarkable	-5951
▁ridiculous	-5952
▁threatened	-5953
▁perspiration	-5954
▁tranquillity	-5955
▁unconsciously	-5956
fe	-5957
hn	-5958
col	-5959
edy	-5960
ese	-5961
pir	-5962
▁Dr	-5963
bits	-5964
aping	-5965
gment	-5966
ology	-5967
▁Carc	-5968
▁Many	-5969
▁arch	-5970
▁issu	-5971
▁mart	-5972
▁moan	-5973
▁pipe	-5974
▁term	-5975
▁Felix	-5976
▁accus	-5977
▁armed	-5978
▁awoke	-5979
▁capri	-5980
▁cease	-5981
▁elbow	-5982
▁fears	-5983
▁forms	-5984
▁groom	-5985
▁hotel	-5986
▁knock	-5987
▁needs	-5988
▁recon	-5989
▁scrut	-5990
▁vivid	-5991
▁waved	-5992
▁armies	-5993
▁belief	-5994
▁coarse	-5995
▁energy	-5996
▁insign	-5997
▁interf	-5998
▁provin	-5999
▁repuls	-6000
▁roused	-6001
▁sleigh	-6002
▁stared	-6003
▁surely	-6004
ustrious	-6005
▁Auteuil	-6006
▁amusing	-6007
▁congrat	-6008
▁constit	-6009
▁furious	-6010
▁impulse	-6011
▁measure	-6012
▁orderly	-6013
▁princes	-6014
▁recover	-6015
▁staying	-6016
▁Cardinal	-6017
▁anteroom	-6018
▁childish	-6019
▁landlord	-6020
▁midnight	-6021
▁original	-6022
▁persecut	-6023
▁shrugged	-6024
▁situated	-6025
▁summoned	-6026
▁transfer	-6027
▁Noirtiers	-6028
▁assembled	-6029
▁assurance	-6030
▁believing	-6031
▁persuaded	-6032
▁authorities	-6033
box	-6034
boy	-6035
bre	-6036
lev	-6037
mes	-6038
▁Vl	-6039
fect	-6040
four	-6041
▁Dav	-6042
▁Sat	-6043
▁bol	-6044
▁emp	-6045
▁won	-6046
inent	-6047
vered	-6048
▁Each	-6049
▁Port	-6050
▁Trif	-6051
▁bond	-6052
▁dine	-6053
▁gent	-6054
▁grot	-6055
▁keen	-6056
▁meas	-6057
▁soup	-6058
astrop	-6059
▁boast	-6060
▁calls	-6061
▁campf	-6062
▁shant	-6063
▁tight	-6064
ulation	-6065
veloped	-6066
▁Pardon	-6067
▁Prussi	-6068
▁amused	-6069
▁burden	-6070
▁desert	-6071
▁disapp	-6072
▁feeble	-6073
▁incess	-6074
▁lately	-6075
▁proofs	-6076
▁review	-6077
ceptible	-6078
▁behaved	-6079
▁clasped	-6080
▁comprom	-6081
▁cunning	-6082
▁mission	-6083
▁proport	-6084
▁somehow	-6085
▁Carconte	-6086
▁Rochelle	-6087
▁ascended	-6088
▁fastened	-6089
▁marrying	-6090
▁persuade	-6091
▁terribly	-6092
▁battalion	-6093
▁breathing	-6094
▁lightning	-6095
▁supported	-6096
▁endeavored	-6097
▁regimental	-6098
▁intelligent	-6099
▁recognizing	-6100
▁affectionate	-6101
If	-6102
lv	-6103
sm	-6104
str	-6105
agne	-6106
ands	-6107
char	-6108
rium	-6109
rovo	-6110
shka	-6111
▁Fre	-6112
▁rig	-6113
apsed	-6114
eling	-6115
ially	-6116
▁Stop	-6117
▁clos	-6118
▁coin	-6119
▁empt	-6120
▁lack	-6121
▁rear	-6122
▁silk	-6123
umbled	-6124
▁Adieu	-6125
▁First	-6126
▁Riche	-6127
▁flour	-6128
▁risen	-6129
▁theat	-6130
▁toler	-6131
▁velve	-6132
raction	-6133
uchrovo	-6134
▁Mother	-6135
▁Samson	-6136
▁Trifon	-6137
▁acting	-6138
▁discon	-6139
▁hoarse	-6140
▁jewell	-6141
▁paraly	-6142
▁pursue	-6143
▁savage	-6144
▁series	-6145
▁wheels	-6146
▁closing	-6147
▁condemn	-6148
▁conquer	-6149
▁embroid	-6150
▁genuine	-6151
▁killing	-6152
▁shining	-6153
▁venture	-6154
▁welcome	-6155
▁blessing	-6156
▁captured	-6157
▁interval	-6158
▁memories	-6159
▁province	-6160
▁catastrop	-6161
▁disappear	-6162
▁stationed	-6163
▁Boguchrovo	-6164
▁Foundation	-6165
▁thoughtful	-6166
▁exclamation	-6167
▁indifferent	-6168
▁remembrance	-6169
▁inevitability	-6170
rim	-6171
rup	-6172
ube	-6173
▁Pf	-6174
▁Sw	-6175
aise	-6176
cast	-6177
hind	-6178
▁fil	-6179
▁hit	-6180
▁voy	-6181
erezv	-6182
icles	-6183
urred	-6184
▁Agra	-6185
▁Anne	-6186
▁Five	-6187
▁Papa	-6188
▁fasc	-6189
▁lake	-6190
▁nave	-6191
▁pest	-6192
▁pond	-6193
▁rely	-6194
▁rush	-6195
▁sang	-6196
iberia	-6197
rewell	-6198
▁apply	-6199
▁avail	-6200
▁decor	-6201
▁desir	-6202
▁didst	-6203
▁reign	-6204
▁straw	-6205
▁studs	-6206
▁trous	-6207
umbling	-6208
▁Perezv	-6209
▁commit	-6210
▁joyous	-6211
▁nights	-6212
▁rested	-6213
▁smooth	-6214
▁Siberia	-6215
▁anybody	-6216
▁council	-6217
▁despise	-6218
▁destiny	-6219
▁exposed	-6220
▁glances	-6221
▁pulling	-6222
▁realize	-6223
▁Richelie	-6224
▁calmness	-6225
▁eyebrows	-6226
▁farewell	-6227
▁likewise	-6228
▁separate	-6229
▁ventured	-6230
▁Hippolyte	-6231
▁apprehens	-6232
▁contented	-6233
▁furnished	-6234
▁innocence	-6235
▁reckoning	-6236
▁religious	-6237
▁statement	-6238
▁bewildered	-6239
▁insignific	-6240
▁perceiving	-6241
▁provisions	-6242
▁embarrassed	-6243
▁executioner	-6244
do	-6245
ye	-6246
iot	-6247
▁Fl	-6248
▁OF	-6249
▁ah	-6250
legr	-6251
lime	-6252
omed	-6253
past	-6254
rors	-6255
▁Dol	-6256
▁Pan	-6257
▁buy	-6258
▁jew	-6259
▁loc	-6260
▁tra	-6261
▁veh	-6262
alled	-6263
athed	-6264
orney	-6265
uding	-6266
▁Sund	-6267
▁chem	-6268
▁heir	-6269
▁mute	-6270
▁rail	-6271
▁reap	-6272
▁rust	-6273
▁skin	-6274
▁tore	-6275
▁whip	-6276
herent	-6277
▁Peter	-6278
▁Spain	-6279
▁crazy	-6280
▁dirty	-6281
▁illum	-6282
▁image	-6283
▁louis	-6284
▁mixed	-6285
▁shake	-6286
▁silly	-6287
▁upper	-6288
▁views	-6289
idently	-6290
ouncing	-6291
▁bandit	-6292
▁coldly	-6293
▁courty	-6294
▁exceed	-6295
▁facing	-6296
▁folded	-6297
▁gather	-6298
▁masses	-6299
▁praise	-6300
▁strike	-6301
▁submit	-6302
▁useful	-6303
▁wholly	-6304
▁columns	-6305
▁confirm	-6306
▁divided	-6307
▁examine	-6308
▁figures	-6309
▁honored	-6310
▁horizon	-6311
▁hunting	-6312
▁invalid	-6313
▁readily	-6314
▁Perezvon	-6315
▁conflict	-6316
▁contrast	-6317
▁district	-6318
▁judgment	-6319
▁piercing	-6320
▁severely	-6321
▁commanded	-6322
▁compelled	-6323
▁favorable	-6324
▁sincerely	-6325
▁DArtagnans	-6326
▁Valentines	-6327
▁downstairs	-6328
▁consideration	-6329
cy	-6330
aus	-6331
▁Co	-6332
▁II	-6333
▁Ki	-6334
▁ze	-6335
cean	-6336
ived	-6337
usal	-6338
▁ban	-6339
▁bid	-6340
▁dIf	-6341
evich	-6342
lieve	-6343
uming	-6344
▁Mont	-6345
▁Thom	-6346
▁True	-6347
▁aide	-6348
▁crew	-6349
▁degr	-6350
▁edge	-6351
▁jack	-6352
▁sink	-6353
gorkov	-6354
master	-6355
▁Const	-6356
▁Jacop	-6357
▁Mason	-6358
▁ahead	-6359
▁birds	-6360
▁discl	-6361
▁feels	-6362
▁hadnt	-6363
▁irrit	-6364
▁salon	-6365
▁seize	-6366
▁shape	-6367
▁shell	-6368
▁urged	-6369
inister	-6370
▁Behind	-6371
▁Please	-6372
▁castle	-6373
▁lawyer	-6374
▁powder	-6375
▁remove	-6376
▁saving	-6377
▁telegr	-6378
▁visits	-6379
▁careful	-6380
▁estates	-6381
▁madness	-6382
▁objects	-6383
▁obscure	-6384
▁serving	-6385
▁slipped	-6386
▁sublime	-6387
▁teacher	-6388
▁working	-6389
▁Although	-6390
▁depended	-6391
▁diamonds	-6392
▁incident	-6393
▁invented	-6394
▁manifest	-6395
▁mountain	-6396
▁sergeant	-6397
▁whenever	-6398
▁Dolgorkov	-6399
▁Rochefort	-6400
▁adversary	-6401
▁courtyard	-6402
▁galloping	-6403
▁principal	-6404
▁qualities	-6405
▁entertained	-6406
▁forgiveness	-6407
▁impatiently	-6408
▁communication	-6409
gl	-6410
eor	-6411
▁ty	-6412
amps	-6413
chev	-6414
ravo	-6415
riot	-6416
▁Gos	-6417
▁Lav	-6418
▁coo	-6419
▁nov	-6420
▁uns	-6421
board	-6422
chest	-6423
ovich	-6424
uable	-6425
▁Dani	-6426
▁Elba	-6427
▁Like	-6428
▁deny	-6429
akened	-6430
ulting	-6431
utions	-6432
▁blows	-6433
▁fiend	-6434
▁folly	-6435
▁saber	-6436
▁stupe	-6437
▁teach	-6438
ittered	-6439
▁adored	-6440
▁autumn	-6441
▁interp	-6442
▁relief	-6443
▁repose	-6444
▁adopted	-6445
▁altered	-6446
▁benevol	-6447
▁consist	-6448
▁control	-6449
▁convict	-6450
▁embrace	-6451
▁lawyers	-6452
▁lifting	-6453
▁monarch	-6454
▁praying	-6455
▁pursuit	-6456
▁sharply	-6457
▁unusual	-6458
▁attorney	-6459
▁creation	-6460
▁delirium	-6461
▁domestic	-6462
▁exercise	-6463
▁prospect	-6464
▁replaced	-6465
▁vanished	-6466
▁withdraw	-6467
▁withdrew	-6468
▁adjutants	-6469
▁containing	-6470
▁disposition	-6471
▁indignation	-6472
▁inquiringly	-6473
▁responsible	-6474
▁threatening	-6475
▁Nevertheless	-6476
▁neighborhood	-6477
AR	-6478
gn	-6479
dor	-6480
his	-6481
pri	-6482
ares	-6483
book	-6484
chie	-6485
mber	-6486
more	-6487
oons	-6488
ship	-6489
▁III	-6490
▁Ipp	-6491
▁Red	-6492
▁Tim	-6493
▁fer	-6494
▁tot	-6495
armes	-6496
icism	-6497
uries	-6498
verty	-6499
▁Arak	-6500
▁debt	-6501
▁rate	-6502
▁rays	-6503
▁rosy	-6504
▁rude	-6505
▁subt	-6506
▁crush	-6507
▁drown	-6508
▁incap	-6509
▁maids	-6510
▁naked	-6511
▁owing	-6512
▁rough	-6513
▁tones	-6514
▁coffee	-6515
▁encour	-6516
▁exting	-6517
▁haught	-6518
▁louder	-6519
▁occupy	-6520
▁partly	-6521
▁paying	-6522
▁square	-6523
▁unlike	-6524
▁volunt	-6525
▁waters	-6526
▁wounds	-6527
▁Ippolit	-6528
▁animals	-6529
▁dismiss	-6530
▁lowered	-6531
▁portion	-6532
▁poverty	-6533
▁process	-6534
▁satisfy	-6535
▁sobbing	-6536
▁wanting	-6537
▁Arakchev	-6538
▁anywhere	-6539
▁confined	-6540
▁dishonor	-6541
▁distress	-6542
▁endeavor	-6543
▁fourteen	-6544
▁nobility	-6545
▁patience	-6546
▁reckoned	-6547
▁relative	-6548
▁snatched	-6549
▁treacher	-6550
▁impatient	-6551
▁residence	-6552
▁invitation	-6553
▁protection	-6554
▁arrangements	-6555
▁irresistible	-6556
▁occasionally	-6557
ec	-6558
aid	-6559
eva	-6560
inb	-6561
bute	-6562
iest	-6563
▁Mal	-6564
▁cro	-6565
▁fol	-6566
▁gos	-6567
▁ink	-6568
▁lip	-6569
▁sar	-6570
▁sym	-6571
bable	-6572
faced	-6573
hetic	-6574
ilion	-6575
istoc	-6576
▁Char	-6577
▁Make	-6578
▁Soon	-6579
▁cash	-6580
▁caut	-6581
▁drum	-6582
▁east	-6583
▁grin	-6584
▁hang	-6585
▁icon	-6586
▁mark	-6587
▁meek	-6588
▁pant	-6589
▁pour	-6590
▁sunk	-6591
affold	-6592
cribed	-6593
leness	-6594
▁Leave	-6595
▁Murat	-6596
▁Tcher	-6597
▁brows	-6598
▁citiz	-6599
▁exper	-6600
▁loose	-6601
▁procl	-6602
▁rules	-6603
▁sheet	-6604
▁shoes	-6605
▁tells	-6606
▁tramp	-6607
ilities	-6608
ization	-6609
▁Jacopo	-6610
▁People	-6611
▁appeal	-6612
▁bodies	-6613
▁chairs	-6614
▁closer	-6615
▁danced	-6616
▁extent	-6617
▁habits	-6618
▁joking	-6619
▁lively	-6620
▁mantle	-6621
▁wooden	-6622
umerable	-6623
▁barrier	-6624
▁bending	-6625
▁dreamed	-6626
▁follows	-6627
▁glasses	-6628
▁propose	-6629
▁radiant	-6630
▁resting	-6631
▁rolling	-6632
▁sadness	-6633
▁Dlokhovs	-6634
▁assassin	-6635
▁contents	-6636
▁disagree	-6637
▁gracious	-6638
▁majestic	-6639
▁meantime	-6640
▁probable	-6641
▁scaffold	-6642
▁upstairs	-6643
▁Richelieu	-6644
▁champagne	-6645
▁inquiring	-6646
▁painfully	-6647
▁scattered	-6648
▁breathless	-6649
▁commissary	-6650
▁philosophy	-6651
▁respectful	-6652
▁Pavlovitchs	-6653
▁appointment	-6654
▁compliments	-6655
▁observation	-6656
▁determination	-6657
▁instinctively	-6658
▁characteristic	-6659
▁responsibility	-6660
VI	-6661
yl	-6662
lyu	-6663
was	-6664
▁Ig	-6665
face	-6666
fena	-6667
ldom	-6668
orte	-6669
oyal	-6670
▁Hen	-6671
▁Sil	-6672
▁bay	-6673
▁hol	-6674
▁lat	-6675
▁shy	-6676
aging	-6677
alles	-6678
bited	-6679
olded	-6680
▁Htel	-6681
▁Ilyn	-6682
▁dece	-6683
▁dise	-6684
▁fren	-6685
▁fund	-6686
▁gift	-6687
▁lift	-6688
▁mane	-6689
▁wise	-6690
oining	-6691
▁Allow	-6692
▁alter	-6693
▁flesh	-6694
▁moist	-6695
▁oblig	-6696
▁ocean	-6697
▁smugg	-6698
▁swift	-6699
▁Davout	-6700
▁Goodby	-6701
▁Kirill	-6702
▁access	-6703
▁apolog	-6704
▁bearer	-6705
▁compar	-6706
▁comply	-6707
▁condes	-6708
▁escort	-6709
▁member	-6710
▁missed	-6711
▁pestle	-6712
▁proble	-6713
▁seldom	-6714
▁specul	-6715
▁thresh	-6716
▁velvet	-6717
▁Alberts	-6718
▁applied	-6719
▁dischar	-6720
▁dispute	-6721
▁fearing	-6722
▁flashed	-6723
▁leather	-6724
▁results	-6725
▁Agrafena	-6726
▁Parisian	-6727
▁awakened	-6728
▁ceremony	-6729
▁daylight	-6730
▁despised	-6731
▁mournful	-6732
▁shouldnt	-6733
▁wherever	-6734
▁Alexevich	-6735
▁displayed	-6736
▁strangers	-6737
▁directions	-6738
▁expressing	-6739
▁acknowledge	-6740
▁catastrophe	-6741
▁illustrious	-6742
▁innumerable	-6743
▁Kirillovitch	-6744
▁concentrated	-6745
▁headquarters	-6746
oe	-6747
aet	-6748
ann	-6749
mon	-6750
who	-6751
aunt	-6752
back	-6753
bors	-6754
etic	-6755
odka	-6756
olet	-6757
▁Str	-6758
▁ere	-6759
▁pas	-6760
▁pin	-6761
▁ray	-6762
▁sly	-6763
herkv	-6764
ician	-6765
isher	-6766
▁Gaet	-6767
▁bagg	-6768
▁damp	-6769
▁dazz	-6770
▁emer	-6771
▁ferv	-6772
▁hare	-6773
▁mult	-6774
▁peep	-6775
▁roll	-6776
▁trot	-6777
▁vice	-6778
▁ways	-6779
evitch	-6780
idents	-6781
ifying	-6782
▁cares	-6783
▁cloth	-6784
▁disli	-6785
▁gaily	-6786
▁paced	-6787
▁smart	-6788
▁store	-6789
▁turns	-6790
▁union	-6791
▁wrath	-6792
▁Majest	-6793
▁accuse	-6794
▁anyway	-6795
▁driver	-6796
▁handle	-6797
▁instit	-6798
▁revere	-6799
▁scream	-6800
▁travel	-6801
▁unjust	-6802
▁aristoc	-6803
▁article	-6804
▁baggage	-6805
▁breathe	-6806
▁buffoon	-6807
▁deceive	-6808
▁flatter	-6809
▁funeral	-6810
▁gallery	-6811
▁grasped	-6812
▁happily	-6813
▁priests	-6814
▁prudent	-6815
▁selfish	-6816
▁bestowed	-6817
▁breathed	-6818
▁conveyed	-6819
▁disposed	-6820
▁inspired	-6821
▁jeweller	-6822
▁learning	-6823
▁purchase	-6824
▁somebody	-6825
▁tortured	-6826
▁vexation	-6827
▁Something	-6828
▁earnestly	-6829
▁ministers	-6830
▁secretary	-6831
▁supposing	-6832
▁carelessly	-6833
▁restrained	-6834
▁travelling	-6835
▁particulars	-6836
▁difficulties	-6837
hl	-6838
▁0	-6839
ari	-6840
bet	-6841
cto	-6842
ral	-6843
ton	-6844
usc	-6845
▁IV	-6846
▁VI	-6847
▁gy	-6848
▁ti	-6849
aths	-6850
ctor	-6851
iate	-6852
mash	-6853
phew	-6854
this	-6855
▁Don	-6856
▁Vol	-6857
▁bef	-6858
▁cul	-6859
▁non	-6860
▁orn	-6861
▁tut	-6862
icule	-6863
ovnas	-6864
owner	-6865
rshka	-6866
▁Geor	-6867
▁Love	-6868
▁Most	-6869
▁Tart	-6870
▁Weyr	-6871
▁bird	-6872
▁boot	-6873
▁cush	-6874
▁exec	-6875
▁fant	-6876
▁frag	-6877
▁grav	-6878
▁lads	-6879
▁pall	-6880
▁unde	-6881
▁wars	-6882
ctober	-6883
ension	-6884
orable	-6885
▁Among	-6886
▁Pfuel	-6887
▁Poles	-6888
▁angle	-6889
▁disgu	-6890
▁equip	-6891
▁error	-6892
▁fifth	-6893
▁flash	-6894
▁scand	-6895
▁souls	-6896
▁swell	-6897
▁track	-6898
▁wiped	-6899
aughter	-6900
▁Boriss	-6901
▁Daniel	-6902
▁Geneva	-6903
▁abrupt	-6904
▁alight	-6905
▁assert	-6906
▁boldly	-6907
▁brandy	-6908
▁collar	-6909
▁devils	-6910
▁exists	-6911
▁grotto	-6912
▁hermit	-6913
▁impuls	-6914
▁martyr	-6915
▁nephew	-6916
▁rights	-6917
▁sevent	-6918
▁Gaetano	-6919
▁Thomson	-6920
▁advised	-6921
▁candles	-6922
▁corrupt	-6923
▁counted	-6924
▁deserve	-6925
▁ecstasy	-6926
▁fainted	-6927
▁granted	-6928
▁lodging	-6929
▁pretend	-6930
▁seeming	-6931
▁European	-6932
▁Pvlovnas	-6933
▁ambition	-6934
▁external	-6935
▁imprison	-6936
▁moreover	-6937
▁presents	-6938
▁projects	-6939
▁replying	-6940
▁subjects	-6941
▁tranquil	-6942
▁troubled	-6943
▁trousers	-6944
▁valuable	-6945
▁youthful	-6946
▁Tchermash	-6947
▁Weyrother	-6948
▁appearing	-6949
▁continual	-6950
▁delivered	-6951
▁encounter	-6952
▁permitted	-6953
▁threshold	-6954
▁complexion	-6955
▁detachment	-6956
▁expedition	-6957
▁maintained	-6958
▁retreating	-6959
▁thoroughly	-6960
▁yourselves	-6961
▁description	-6962
▁endeavoring	-6963
▁Borissovitch	-6964
▁mechanically	-6965
▁Alexandrovitch	-6966
yn	-6967
nik	-6968
six	-6969
tes	-6970
▁ge	-6971
gent	-6972
lier	-6973
oral	-6974
seem	-6975
shch	-6976
▁Any	-6977
▁Com	-6978
▁Get	-6979
▁Imp	-6980
▁Lap	-6981
▁Say	-6982
▁dig	-6983
ashes	-6984
gging	-6985
inbad	-6986
rough	-6987
stein	-6988
ursed	-6989
▁Conf	-6990
▁Hold	-6991
▁Pray	-6992
▁Were	-6993
▁Whom	-6994
▁asks	-6995
▁chin	-6996
▁fowl	-6997
▁lets	-6998
▁nast	-6999
▁rese	-7000
▁unre	-7001
▁wake	-7002
apping	-7003
▁Ivnov	-7004
▁State	-7005
▁dimin	-7006
▁exert	-7007
▁hunts	-7008
▁knoll	-7009
▁medic	-7010
▁negot	-7011
▁quant	-7012
▁revel	-7013
▁rocks	-7014
▁stagg	-7015
▁torch	-7016
▁vodka	-7017
▁yards	-7018
colored	-7019
▁Naples	-7020
▁awaken	-7021
▁combat	-7022
▁flower	-7023
▁hounds	-7024
▁indisp	-7025
▁issued	-7026
▁lights	-7027
▁lovers	-7028
▁mercer	-7029
▁reluct	-7030
▁retain	-7031
▁reveal	-7032
▁Germans	-7033
▁bastion	-7034
▁dearest	-7035
▁deliver	-7036
▁enterpr	-7037
▁exagger	-7038
▁harmony	-7039
▁refusal	-7040
▁scrutin	-7041
▁sixteen	-7042
▁attended	-7043
▁eighteen	-7044
▁foreseen	-7045
▁increase	-7046
▁infamous	-7047
▁marshals	-7048
▁security	-7049
▁adjoining	-7050
▁arguments	-7051
▁arranging	-7052
▁attempted	-7053
▁complaint	-7054
▁forbidden	-7055
▁innkeeper	-7056
▁intrigues	-7057
▁introduce	-7058
▁neighbors	-7059
▁readiness	-7060
▁responded	-7061
▁uncertain	-7062
▁commanding	-7063
▁discussion	-7064
▁occupation	-7065
▁passionate	-7066
▁Monseigneur	-7067
▁Smerdyakovs	-7068
▁battlefield	-7069
▁Alexandrovna	-7070
▁dispositions	-7071
▁intellectual	-7072
▁preparations	-7073
ON	-7074
bar	-7075
cks	-7076
off	-7077
vol	-7078
▁ug	-7079
ails	-7080
enes	-7081
grim	-7082
open	-7083
pent	-7084
vert	-7085
▁dil	-7086
▁ecc	-7087
▁foi	-7088
▁nap	-7089
▁oak	-7090
abled	-7091
icide	-7092
novna	-7093
omach	-7094
umber	-7095
▁Bast	-7096
▁Comm	-7097
▁bald	-7098
▁bind	-7099
▁clen	-7100
▁flag	-7101
▁glim	-7102
▁liqu	-7103
▁pled	-7104
▁sadd	-7105
▁shel	-7106
▁sins	-7107
▁subs	-7108
antern	-7109
atever	-7110
haired	-7111
icious	-7112
ources	-7113
▁Could	-7114
▁Henry	-7115
▁Marya	-7116
▁Order	-7117
▁bells	-7118
▁burnt	-7119
▁dried	-7120
▁fires	-7121
▁humor	-7122
▁ideal	-7123
▁punct	-7124
▁route	-7125
▁screw	-7126
▁shots	-7127
▁solic	-7128
▁south	-7129
▁sport	-7130
▁vigor	-7131
aternal	-7132
▁Cocles	-7133
▁Seeing	-7134
▁Sinbad	-7135
▁Sunday	-7136
▁actual	-7137
▁advise	-7138
▁affirm	-7139
▁amazed	-7140
▁ardent	-7141
▁avenge	-7142
▁casket	-7143
▁dashed	-7144
▁morrow	-7145
▁novice	-7146
▁obstac	-7147
▁parted	-7148
▁points	-7149
▁repugn	-7150
▁resign	-7151
▁shared	-7152
▁talent	-7153
▁throne	-7154
▁traces	-7155
▁vanity	-7156
aneously	-7157
▁Laporte	-7158
▁October	-7159
▁Silence	-7160
▁Whether	-7161
▁concier	-7162
▁elegant	-7163
▁endured	-7164
▁lessons	-7165
▁pilgrim	-7166
▁pushing	-7167
▁receipt	-7168
▁shadows	-7169
▁sinking	-7170
▁stomach	-7171
▁thanked	-7172
▁vicomte	-7173
▁yielded	-7174
▁Corsican	-7175
▁contract	-7176
▁desirous	-7177
▁diplomat	-7178
▁disliked	-7179
▁politics	-7180
▁relating	-7181
▁wandered	-7182
▁Dessalles	-7183
▁afterward	-7184
▁challenge	-7185
▁composure	-7186
▁immediate	-7187
▁occasions	-7188
▁prevailed	-7189
▁salvation	-7190
▁accusation	-7191
▁instrument	-7192
▁perplexity	-7193
▁proportion	-7194
▁resistance	-7195
▁struggling	-7196
▁philosopher	-7197
▁precautions	-7198
▁Tchermashnya	-7199
▁commencement	-7200
ga	-7201
lt	-7202
get	-7203
gir	-7204
mat	-7205
olo	-7206
xic	-7207
▁Ha	-7208
cent	-7209
ethe	-7210
iege	-7211
lder	-7212
▁Bet	-7213
▁Dun	-7214
▁Sem	-7215
▁gig	-7216
▁spy	-7217
▁tip	-7218
▁tur	-7219
alley	-7220
asion	-7221
ersed	-7222
lfare	-7223
urely	-7224
▁Cont	-7225
▁Hell	-7226
▁Kuzm	-7227
▁Rene	-7228
▁conj	-7229
▁inco	-7230
▁outl	-7231
▁sedu	-7232
▁usur	-7233
▁veil	-7234
▁weve	-7235
icking	-7236
ivered	-7237
oubted	-7238
rained	-7239
▁Bravo	-7240
▁Freem	-7241
▁alike	-7242
▁chamb	-7243
▁organ	-7244
▁snuff	-7245
▁stamm	-7246
▁stole	-7247
▁talks	-7248
▁using	-7249
▁attach	-7250
▁brings	-7251
▁bushes	-7252
▁cursed	-7253
▁defeat	-7254
▁eldest	-7255
▁frivol	-7256
▁gloves	-7257
▁marvel	-7258
▁pacing	-7259
▁raptur	-7260
▁reappe	-7261
▁ribbon	-7262
▁robber	-7263
▁speaks	-7264
▁stated	-7265
▁verses	-7266
▁warmth	-7267
▁Carlini	-7268
▁Through	-7269
▁answers	-7270
▁battles	-7271
▁capture	-7272
▁cleared	-7273
▁consult	-7274
▁dreaded	-7275
▁expense	-7276
▁marshal	-7277
▁motives	-7278
▁pockets	-7279
▁privile	-7280
▁prolong	-7281
▁signals	-7282
▁studied	-7283
▁welfare	-7284
▁worried	-7285
▁Samsonov	-7286
▁arriving	-7287
▁ballroom	-7288
▁captains	-7289
▁complain	-7290
▁destined	-7291
▁opinions	-7292
▁quantity	-7293
▁softened	-7294
▁uneasily	-7295
▁uniforms	-7296
▁Ivanovnas	-7297
▁copyright	-7298
▁distorted	-7299
▁enjoyment	-7300
▁incapable	-7301
▁reassured	-7302
▁retreated	-7303
▁stammered	-7304
▁wondering	-7305
▁Grushenkas	-7306
▁abandoning	-7307
▁increasing	-7308
▁suspicions	-7309
▁inheritance	-7310
▁preoccupied	-7311
▁remembering	-7312
▁communicated	-7313
sp	-7314
acc	-7315
see	-7316
▁ax	-7317
itor	-7318
izes	-7319
papa	-7320
work	-7321
▁Bah	-7322
▁Bov	-7323
▁Nor	-7324
▁Sit	-7325
▁lun	-7326
athol	-7327
ights	-7328
ipped	-7329
▁Carn	-7330
▁Plat	-7331
▁abst	-7332
▁bund	-7333
▁corn	-7334
▁stab	-7335
▁ugly	-7336
▁west	-7337
▁yach	-7338
otions	-7339
proach	-7340
▁Ivans	-7341
▁agent	-7342
▁based	-7343
▁bliss	-7344
▁chain	-7345
▁curse	-7346
▁dined	-7347
▁harsh	-7348
▁indef	-7349
▁noted	-7350
▁older	-7351
▁plump	-7352
▁shock	-7353
▁uncle	-7354
▁vexed	-7355
▁Andrey	-7356
▁Cathol	-7357
▁applic	-7358
▁betray	-7359
▁jacket	-7360
▁league	-7361
▁leaped	-7362
▁madman	-7363
▁manage	-7364
▁perish	-7365
▁perpet	-7366
▁refuge	-7367
▁subtle	-7368
▁voyage	-7369
▁writes	-7370
▁Believe	-7371
▁Instead	-7372
▁beaming	-7373
▁borzois	-7374
▁crimson	-7375
▁depends	-7376
▁disease	-7377
▁disgust	-7378
▁enlight	-7379
▁lantern	-7380
▁parties	-7381
▁patient	-7382
▁patriot	-7383
▁slender	-7384
▁surface	-7385
▁temples	-7386
▁whither	-7387
▁Carnival	-7388
▁Ferapont	-7389
▁Ivnovich	-7390
▁Lavrshka	-7391
▁clasping	-7392
▁helpless	-7393
▁historic	-7394
▁numerous	-7395
▁preceded	-7396
▁properly	-7397
▁renounce	-7398
▁admirable	-7399
▁captivity	-7400
▁completed	-7401
▁entrusted	-7402
▁fulfilled	-7403
▁horseback	-7404
▁inhabited	-7405
▁obedience	-7406
▁observing	-7407
▁reasoning	-7408
▁recommend	-7409
▁regiments	-7410
▁struggled	-7411
▁telegraph	-7412
▁treachery	-7413
▁accomplice	-7414
▁explaining	-7415
▁respecting	-7416
▁independent	-7417
▁recommended	-7418
▁dissatisfied	-7419
▁insignificant	-7420
▁contemptuously	-7421
mov	-7422
tic	-7423
uzz	-7424
▁Ev	-7425
▁om	-7426
apes	-7427
aret	-7428
cell	-7429
noon	-7430
pher	-7431
ucum	-7432
vial	-7433
vich	-7434
▁Erm	-7435
▁Sal	-7436
▁Sny	-7437
▁Wil	-7438
▁hoo	-7439
anted	-7440
asper	-7441
cided	-7442
glass	-7443
iated	-7444
ilies	-7445
lyses	-7446
olved	-7447
oseph	-7448
▁Hush	-7449
▁ages	-7450
▁alas	-7451
▁alle	-7452
▁desk	-7453
▁encl	-7454
▁ends	-7455
▁fain	-7456
▁hole	-7457
▁pear	-7458
▁wave	-7459
chants	-7460
idable	-7461
isible	-7462
othing	-7463
▁Cucum	-7464
▁Dunys	-7465
▁grain	-7466
▁irony	-7467
▁liter	-7468
▁madam	-7469
▁oppon	-7470
▁phant	-7471
▁rigid	-7472
▁sends	-7473
▁shows	-7474
▁siege	-7475
▁stamp	-7476
▁stead	-7477
▁veins	-7478
ossible	-7479
▁Champs	-7480
▁Joseph	-7481
▁admire	-7482
▁dissip	-7483
▁fixing	-7484
▁groans	-7485
▁guided	-7486
▁halted	-7487
▁hanged	-7488
▁heroes	-7489
▁inward	-7490
▁laying	-7491
▁purple	-7492
▁remote	-7493
▁ridden	-7494
▁warned	-7495
▁welcom	-7496
▁wisdom	-7497
ological	-7498
oubtedly	-7499
▁Arabian	-7500
▁Miladys	-7501
▁Wilmore	-7502
▁bankers	-7503
▁begging	-7504
▁corners	-7505
▁dresses	-7506
▁elderly	-7507
▁emptied	-7508
▁exasper	-7509
▁footmen	-7510
▁muskets	-7511
▁obvious	-7512
▁refrain	-7513
▁rushing	-7514
▁saluted	-7515
▁trivial	-7516
▁wealthy	-7517
▁dwelling	-7518
▁families	-7519
▁lowering	-7520
▁overcoat	-7521
▁paternal	-7522
▁practice	-7523
▁referred	-7524
▁stepping	-7525
▁childlike	-7526
▁concierge	-7527
▁invisible	-7528
▁protector	-7529
▁searching	-7530
▁spectacle	-7531
▁swallowed	-7532
▁witnessed	-7533
▁descending	-7534
▁resembling	-7535
▁strengthen	-7536
▁throughout	-7537
▁incessantly	-7538
▁inclination	-7539
▁transferred	-7540
▁undertaking	-7541
▁consequences	-7542
▁disagreeable	-7543
▁passionately	-7544
▁embarrassment	-7545
▁investigating	-7546
ND	-7547
lm	-7548
bur	-7549
leg	-7550
lyn	-7551
pap	-7552
trd	-7553
uon	-7554
ales	-7555
cipl	-7556
conf	-7557
mosp	-7558
othe	-7559
sect	-7560
▁Bel	-7561
▁Jew	-7562
▁Man	-7563
▁Ten	-7564
▁bis	-7565
▁cig	-7566
▁dug	-7567
▁eve	-7568
▁gas	-7569
▁wax	-7570
inine	-7571
quise	-7572
uting	-7573
▁Half	-7574
▁None	-7575
▁Otrd	-7576
▁Turk	-7577
▁abdu	-7578
▁damn	-7579
▁deaf	-7580
▁elev	-7581
▁pink	-7582
▁plot	-7583
▁poem	-7584
▁puff	-7585
▁serf	-7586
▁vest	-7587
encies	-7588
encing	-7589
twenty	-7590
valier	-7591
▁Spada	-7592
▁daily	-7593
▁haunt	-7594
▁limbs	-7595
▁novel	-7596
▁plate	-7597
▁posts	-7598
▁renew	-7599
▁sadly	-7600
▁yacht	-7601
nfortun	-7602
▁Ermlov	-7603
▁Fortun	-7604
▁Gospel	-7605
▁Govern	-7606
▁Street	-7607
▁aspect	-7608
▁atmosp	-7609
▁consum	-7610
▁dishon	-7611
▁gossip	-7612
▁invent	-7613
▁marble	-7614
▁origin	-7615
▁recent	-7616
▁reconc	-7617
▁reform	-7618
▁sealed	-7619
▁summit	-7620
▁vision	-7621
▁wagons	-7622
▁waking	-7623
▁wiping	-7624
▁Boville	-7625
▁Neither	-7626
▁amongst	-7627
▁audible	-7628
▁circles	-7629
▁committ	-7630
▁console	-7631
▁elapsed	-7632
▁gravely	-7633
▁readers	-7634
▁renewed	-7635
▁reserve	-7636
▁shepher	-7637
▁Majestys	-7638
▁Minister	-7639
▁Moreover	-7640
▁Whatever	-7641
▁attained	-7642
▁conceive	-7643
▁feminine	-7644
▁firmness	-7645
▁inclined	-7646
▁interpre	-7647
▁knocking	-7648
▁perished	-7649
▁petition	-7650
▁procured	-7651
▁prudence	-7652
▁sensible	-7653
▁unworthy	-7654
▁afternoon	-7655
▁certainty	-7656
▁customary	-7657
▁depressed	-7658
▁dignified	-7659
▁gendarmes	-7660
▁governors	-7661
▁grandpapa	-7662
▁hermitage	-7663
▁ignorance	-7664
▁irritated	-7665
▁practical	-7666
▁quivering	-7667
▁shrugging	-7668
▁signature	-7669
▁stupefied	-7670
▁surrender	-7671
▁traveling	-7672
▁undertake	-7673
▁conversing	-7674
▁dreadfully	-7675
▁generosity	-7676
▁principles	-7677
▁reasonable	-7678
▁sentiments	-7679
▁Bonapartist	-7680
▁Fortunately	-7681
▁embroidered	-7682
▁recollected	-7683
▁significant	-7684
▁conversations	-7685
ads	-7686
hor	-7687
hot	-7688
nut	-7689
oir	-7690
▁dw	-7691
aved	-7692
bles	-7693
elly	-7694
rane	-7695
rite	-7696
vrov	-7697
▁Ant	-7698
▁Dam	-7699
▁Duc	-7700
▁Pen	-7701
▁VII	-7702
▁row	-7703
actly	-7704
assad	-7705
eries	-7706
piece	-7707
zenst	-7708
▁Buon	-7709
▁Csar	-7710
▁Vass	-7711
▁agon	-7712
▁anch	-7713
▁carb	-7714
▁cure	-7715
▁dict	-7716
▁goal	-7717
▁phen	-7718
▁prey	-7719
▁rows	-7720
▁seal	-7721
▁size	-7722
▁trap	-7723
▁trun	-7724
arcely	-7725
headed	-7726
inable	-7727
inking	-7728
liness	-7729
pended	-7730
▁Other	-7731
▁achie	-7732
▁borne	-7733
▁chose	-7734
▁greed	-7735
▁idiot	-7736
▁marve	-7737
▁waste	-7738
▁worry	-7739
enstein	-7740
itching	-7741
ression	-7742
▁Chevre	-7743
▁Serene	-7744
▁deadly	-7745
▁discer	-7746
▁frozen	-7747
▁income	-7748
▁induce	-7749
▁malign	-7750
▁packet	-7751
▁plenty	-7752
▁recomp	-7753
▁remedy	-7754
▁repast	-7755
inations	-7756
▁Otrdnoe	-7757
▁doorway	-7758
▁enabled	-7759
▁fancies	-7760
▁feather	-7761
▁fulfill	-7762
▁marquis	-7763
▁quality	-7764
▁reduced	-7765
▁suicide	-7766
▁virtues	-7767
▁weighed	-7768
▁Bastille	-7769
▁Herzenst	-7770
▁Superior	-7771
▁Trvilles	-7772
▁ambassad	-7773
▁coolness	-7774
▁delicacy	-7775
▁inconven	-7776
▁ironical	-7777
▁menacing	-7778
▁phenomen	-7779
▁positive	-7780
▁severity	-7781
▁suitable	-7782
▁troubles	-7783
▁villages	-7784
▁Buonapart	-7785
▁Cucumetto	-7786
▁amusement	-7787
▁disconcer	-7788
▁fantastic	-7789
▁finishing	-7790
▁merchants	-7791
▁obscurity	-7792
▁schoolboy	-7793
▁sparkling	-7794
▁unwilling	-7795
▁whistling	-7796
▁atmosphere	-7797
▁attractive	-7798
▁diplomatic	-7799
▁hesitating	-7800
▁incredible	-7801
▁miraculous	-7802
▁penetrated	-7803
▁presenting	-7804
▁resolutely	-7805
▁triumphant	-7806
▁impressions	-7807
▁enthusiastic	-7808
gy	-7809
aya	-7810
gue	-7811
isk	-7812
omy	-7813
sis	-7814
▁Au	-7815
▁Ly	-7816
cond	-7817
elon	-7818
hail	-7819
ilet	-7820
osse	-7821
ptoe	-7822
ture	-7823
uite	-7824
uits	-7825
▁Ass	-7826
▁Cal	-7827
▁Fau	-7828
▁Mat	-7829
▁Med	-7830
▁Pat	-7831
▁hay	-7832
▁hom	-7833
▁ign	-7834
▁pav	-7835
▁unp	-7836
adays	-7837
adise	-7838
after	-7839
assed	-7840
guard	-7841
isive	-7842
ollen	-7843
ruble	-7844
sthat	-7845
three	-7846
▁East	-7847
▁Fort	-7848
▁Isnt	-7849
▁July	-7850
▁Kond	-7851
▁Vict	-7852
▁appl	-7853
▁barg	-7854
▁bust	-7855
▁dumb	-7856
▁envy	-7857
▁fist	-7858
▁flat	-7859
▁libr	-7860
▁mach	-7861
▁rasc	-7862
▁shaw	-7863
▁tend	-7864
▁tiny	-7865
▁wing	-7866
necess	-7867
rating	-7868
rative	-7869
teenth	-7870
verted	-7871
▁Honor	-7872
▁Major	-7873
▁Snyas	-7874
▁Telyn	-7875
▁accur	-7876
▁appar	-7877
▁banks	-7878
▁biscu	-7879
▁exile	-7880
▁finds	-7881
▁flame	-7882
▁flock	-7883
▁hence	-7884
▁heres	-7885
▁maneu	-7886
▁newly	-7887
▁samov	-7888
▁sheep	-7889
▁shoot	-7890
▁squee	-7891
▁sympt	-7892
▁token	-7893
▁treas	-7894
▁wheel	-7895
▁Excell	-7896
▁Jesuit	-7897
▁Mihail	-7898
▁abbess	-7899
▁begins	-7900
▁bullet	-7901
▁eighty	-7902
▁elbows	-7903
▁invite	-7904
▁learnt	-7905
▁mighty	-7906
▁overfl	-7907
▁packed	-7908
▁precip	-7909
▁stands	-7910
▁states	-7911
▁stroke	-7912
▁tiptoe	-7913
▁vainly	-7914
▁Dunysha	-7915
▁Exactly	-7916
▁Germain	-7917
▁Pardieu	-7918
▁Tartino	-7919
▁admired	-7920
▁annoyed	-7921
▁avoided	-7922
▁bullets	-7923
▁concern	-7924
▁conspir	-7925
▁cutting	-7926
▁doubted	-7927
▁effects	-7928
▁haughty	-7929
▁improve	-7930
▁induced	-7931
▁intoxic	-7932
▁journal	-7933
▁numbers	-7934
▁release	-7935
▁swaying	-7936
▁swollen	-7937
▁traitor	-7938
▁accursed	-7939
▁covering	-7940
▁disappro	-7941
▁emotions	-7942
▁hundreds	-7943
▁insolent	-7944
▁miracles	-7945
▁promptly	-7946
▁recently	-7947
▁reserved	-7948
▁solemnly	-7949
▁thirteen	-7950
▁trifling	-7951
▁visiting	-7952
▁Chevreuse	-7953
▁attendant	-7954
▁commenced	-7955
▁extending	-7956
▁greatness	-7957
▁including	-7958
▁overheard	-7959
▁penetrate	-7960
▁persisted	-7961
▁philosoph	-7962
▁physician	-7963
▁preferred	-7964
▁reverence	-7965
▁specially	-7966
▁Impossible	-7967
▁accomplish	-7968
▁associated	-7969
▁characters	-7970
▁displeased	-7971
▁incoherent	-7972
▁indicating	-7973
▁interposed	-7974
▁stretching	-7975
nfortunately	-7976
▁Herzenstube	-7977
▁fashionable	-7978
▁grandmother	-7979
▁acknowledged	-7980
▁introduction	-7981
IS	-7982
IT	-7983
RE	-7984
wy	-7985
arv	-7986
por	-7987
psy	-7988
▁DA	-7989
▁Er	-7990
▁Pi	-7991
alls	-7992
emon	-7993
form	-7994
idel	-7995
mity	-7996
stem	-7997
▁Dru	-7998
▁Pop	-7999
▁cad	-8000
▁ham	-8001
▁jaw	-8002
▁jer	-8003
▁shi	-8004
▁tum	-8005
▁unb	-8006
icted	-8007
inity	-8008
iving	-8009
preme	-8010
sibly	-8011
urned	-8012
ussac	-8013
vable	-8014
▁Paul	-8015
▁aged	-8016
▁brut	-8017
▁fits	-8018
▁flow	-8019
▁heed	-8020
▁leis	-8021
▁mile	-8022
▁mode	-8023
▁recl	-8024
▁rele	-8025
▁sand	-8026
▁sarc	-8027
▁sham	-8028
▁surm	-8029
▁surv	-8030
▁susp	-8031
▁tact	-8032
▁tool	-8033
arshal	-8034
▁Ignat	-8035
▁Shins	-8036
▁abode	-8037
▁abuse	-8038
▁coast	-8039
▁esaul	-8040
▁falls	-8041
▁fores	-8042
▁funny	-8043
▁ident	-8044
▁limit	-8045
▁nasty	-8046
▁repay	-8047
▁roads	-8048
▁songs	-8049
▁wings	-8050
aration	-8051
oration	-8052
quisite	-8053
▁Doctor	-8054
▁Drubet	-8055
▁Louise	-8056
▁Master	-8057
▁States	-8058
▁Toward	-8059
▁Vaslis	-8060
▁altern	-8061
▁bestow	-8062
▁carpet	-8063
▁centre	-8064
▁chiefs	-8065
▁convoy	-8066
▁create	-8067
▁easier	-8068
▁fulfil	-8069
▁groups	-8070
▁impert	-8071
▁inquis	-8072
▁ladder	-8073
▁profit	-8074
▁prover	-8075
▁scenes	-8076
▁shaken	-8077
▁snatch	-8078
▁thread	-8079
▁transl	-8080
▁unseem	-8081
▁waving	-8082
▁Cristos	-8083
▁Kondrat	-8084
▁artific	-8085
▁casting	-8086
▁checked	-8087
▁chimney	-8088
▁conject	-8089
▁cruelty	-8090
▁current	-8091
▁earthly	-8092
▁element	-8093
▁exclaim	-8094
▁gravity	-8095
▁hideous	-8096
▁hostess	-8097
▁offense	-8098
▁painted	-8099
▁partner	-8100
▁provide	-8101
▁rapture	-8102
▁samovar	-8103
▁staring	-8104
▁studies	-8105
▁supreme	-8106
▁vividly	-8107
mediately	-8108
▁Faubourg	-8109
▁Morcerfs	-8110
▁Scarcely	-8111
▁alliance	-8112
▁argument	-8113
▁brightly	-8114
▁cavalier	-8115
▁convince	-8116
▁educated	-8117
▁faltered	-8118
▁gigantic	-8119
▁graceful	-8120
▁hurrying	-8121
▁medicine	-8122
▁passport	-8123
▁promises	-8124
▁quivered	-8125
▁symptoms	-8126
▁unnecess	-8127
▁campfires	-8128
▁documents	-8129
▁enchanted	-8130
▁enveloped	-8131
▁exquisite	-8132
▁pronounce	-8133
▁purchased	-8134
▁requested	-8135
▁resounded	-8136
▁springing	-8137
▁tolerably	-8138
▁calculated	-8139
▁inevitably	-8140
▁profession	-8141
▁distributed	-8142
▁involuntary	-8143
▁unfortunately	-8144
11	-8145
oi	-8146
va	-8147
ecd	-8148
eds	-8149
hil	-8150
kht	-8151
nel	-8152
oot	-8153
vrd	-8154
ysi	-8155
anth	-8156
ault	-8157
elim	-8158
enet	-8159
hern	-8160
khin	-8161
llor	-8162
logr	-8163
oday	-8164
ripp	-8165
rous	-8166
sych	-8167
utch	-8168
▁Sim	-8169
▁gri	-8170
▁vac	-8171
agers	-8172
anity	-8173
arski	-8174
hlans	-8175
illot	-8176
inist	-8177
lance	-8178
meric	-8179
riend	-8180
ushas	-8181
▁Club	-8182
▁Damn	-8183
▁Help	-8184
▁Vlna	-8185
▁chur	-8186
▁fill	-8187
▁hint	-8188
▁lend	-8189
▁meat	-8190
▁vous	-8191
icense	-8192
itched	-8193
omfort	-8194
rifice	-8195
rolled	-8196
urable	-8197
vrdino	-8198
▁Cross	-8199
▁Flore	-8200
▁Frank	-8201
▁Kuzma	-8202
▁Place	-8203
▁adieu	-8204
▁anecd	-8205
▁brisk	-8206
▁chast	-8207
▁clung	-8208
▁debts	-8209
▁depos	-8210
▁deput	-8211
▁erect	-8212
▁explo	-8213
▁hears	-8214
▁heels	-8215
▁icons	-8216
▁milit	-8217
▁pains	-8218
▁piast	-8219
▁spurs	-8220
▁stuff	-8221
▁unint	-8222
agnanim	-8223
eration	-8224
inction	-8225
▁Americ	-8226
▁Jussac	-8227
▁Perhot	-8228
▁Poland	-8229
▁Pvlogr	-8230
▁Theyre	-8231
▁calche	-8232
▁cavern	-8233
▁childs	-8234
▁clerks	-8235
▁courte	-8236
▁crowds	-8237
▁daring	-8238
▁deject	-8239
▁devour	-8240
▁fisher	-8241
▁frenzy	-8242
▁hinder	-8243
▁honors	-8244
▁immort	-8245
▁openly	-8246
▁prelim	-8247
▁propri	-8248
▁queens	-8249
▁robbed	-8250
▁scared	-8251
▁superf	-8252
amations	-8253
▁Colosse	-8254
▁Ilushas	-8255
▁Prussia	-8256
▁Vassily	-8257
▁contact	-8258
▁courier	-8259
▁dislike	-8260
▁display	-8261
▁essence	-8262
▁execute	-8263
▁filling	-8264
▁gleamed	-8265
▁limited	-8266
▁problem	-8267
▁prosper	-8268
▁sisters	-8269
▁sleeves	-8270
▁vessels	-8271
▁Brothers	-8272
▁assembly	-8273
▁attempts	-8274
▁curtains	-8275
▁dragging	-8276
▁frequent	-8277
▁glorious	-8278
▁habitual	-8279
▁lifeless	-8280
▁magnanim	-8281
▁peaceful	-8282
▁relieved	-8283
▁resigned	-8284
▁ridicule	-8285
▁selected	-8286
▁shameful	-8287
▁superint	-8288
▁unseemly	-8289
▁vigorous	-8290
▁virtuous	-8291
▁Shevrdino	-8292
▁Willarski	-8293
▁attacking	-8294
▁flattered	-8295
▁glittered	-8296
▁interfere	-8297
▁recalling	-8298
▁sensitive	-8299
▁solemnity	-8300
▁sorrowful	-8301
atisfaction	-8302
▁Buonaparte	-8303
▁Ignatyevna	-8304
▁continuing	-8305
▁expressive	-8306
▁hysterical	-8307
▁reproached	-8308
▁sacrificed	-8309
▁spectators	-8310
▁whispering	-8311
▁Immediately	-8312
▁appreciated	-8313
▁differently	-8314
▁questioning	-8315
▁superiority	-8316
▁unnecessary	-8317
▁contemptuous	-8318
▁deliberately	-8319
▁Vassilyevitch	-8320
▁recollections	-8321
oz	-8322
ato	-8323
azn	-8324
elf	-8325
got	-8326
iam	-8327
uts	-8328
yes	-8329
▁01	-8330
▁Vy	-8331
arme	-8332
olst	-8333
orne	-8334
owry	-8335
ques	-8336
rive	-8337
ront	-8338
▁Krm	-8339
▁bou	-8340
▁mat	-8341
▁rab	-8342
▁shr	-8343
▁von	-8344
adier	-8345
anges	-8346
chess	-8347
ghorn	-8348
iless	-8349
itals	-8350
nited	-8351
notes	-8352
ratic	-8353
▁Blac	-8354
▁Desp	-8355
▁Foll	-8356
▁June	-8357
▁Mess	-8358
▁Toll	-8359
▁fest	-8360
▁folk	-8361
▁orph	-8362
▁sche	-8363
cerity	-8364
essart	-8365
ground	-8366
llable	-8367
ograph	-8368
resses	-8369
retion	-8370
ularly	-8371
versed	-8372
▁Liter	-8373
▁Selim	-8374
▁Swiss	-8375
▁Think	-8376
▁adore	-8377
▁analy	-8378
▁arise	-8379
▁deeds	-8380
▁keeps	-8381
▁kinds	-8382
▁leapt	-8383
▁panie	-8384
▁psych	-8385
▁shawl	-8386
▁stake	-8387
▁stuck	-8388
▁tenth	-8389
▁unite	-8390
▁unlim	-8391
▁weigh	-8392
▁wives	-8393
▁woods	-8394
ational	-8395
cipline	-8396
▁Surely	-8397
▁Theyve	-8398
▁Victor	-8399
▁angels	-8400
▁brains	-8401
▁excite	-8402
▁female	-8403
▁flames	-8404
▁imprud	-8405
▁larger	-8406
▁medium	-8407
▁mutual	-8408
▁pallor	-8409
▁poetry	-8410
▁resent	-8411
▁rubbed	-8412
▁screen	-8413
▁solely	-8414
▁stream	-8415
▁terrif	-8416
▁theyll	-8417
▁theyre	-8418
▁tumult	-8419
▁Edmonds	-8420
▁Empress	-8421
▁Leghorn	-8422
▁Timkhin	-8423
▁approve	-8424
▁belongs	-8425
▁ceiling	-8426
▁citizen	-8427
▁connect	-8428
▁courtes	-8429
▁cruelly	-8430
▁deprive	-8431
▁extingu	-8432
▁hostile	-8433
▁justify	-8434
▁library	-8435
▁marched	-8436
▁marvell	-8437
▁opposed	-8438
▁rejoice	-8439
▁revived	-8440
▁romance	-8441
▁speaker	-8442
▁stained	-8443
▁thereby	-8444
▁usurper	-8445
▁worship	-8446
▁abruptly	-8447
▁approval	-8448
▁corporal	-8449
▁gendarme	-8450
▁imperial	-8451
▁intimacy	-8452
▁marching	-8453
▁restless	-8454
▁spiteful	-8455
▁suspense	-8456
▁welcomed	-8457
▁Colosseum	-8458
▁conquered	-8459
▁eagerness	-8460
▁eloquence	-8461
▁intervals	-8462
▁noiseless	-8463
▁oppressed	-8464
▁smilingly	-8465
▁treasures	-8466
▁treatment	-8467
▁Dessessart	-8468
▁comparison	-8469
▁dismounted	-8470
▁opposition	-8471
▁surprising	-8472
▁anticipated	-8473
▁comfortable	-8474
▁endeavoured	-8475
▁penetrating	-8476
▁represented	-8477
▁disconcerted	-8478
▁mademoiselle	-8479
cap	-8480
sac	-8481
sha	-8482
gard	-8483
gins	-8484
ider	-8485
lets	-8486
stru	-8487
▁Acc	-8488
▁Jud	-8489
▁Nay	-8490
▁Son	-8491
▁bra	-8492
▁cli	-8493
▁mas	-8494
agedy	-8495
break	-8496
hetor	-8497
inous	-8498
onder	-8499
shine	-8500
▁Weve	-8501
▁farm	-8502
▁grim	-8503
▁heap	-8504
▁isol	-8505
▁lust	-8506
▁mead	-8507
▁puck	-8508
▁redd	-8509
▁rent	-8510
▁roar	-8511
▁sacr	-8512
▁slip	-8513
▁soil	-8514
▁sque	-8515
▁thri	-8516
▁vind	-8517
ailing	-8518
asting	-8519
buting	-8520
icable	-8521
khtrov	-8522
ranean	-8523
uality	-8524
ulties	-8525
▁Hlnes	-8526
▁Kalga	-8527
▁appet	-8528
▁bears	-8529
▁birch	-8530
▁bride	-8531
▁brown	-8532
▁cared	-8533
▁colle	-8534
▁copse	-8535
▁curly	-8536
▁dowry	-8537
▁etern	-8538
▁hasnt	-8539
▁hills	-8540
▁irreg	-8541
▁level	-8542
▁livid	-8543
▁loyal	-8544
▁magic	-8545
▁niece	-8546
▁opera	-8547
▁ornam	-8548
▁scrup	-8549
▁skirt	-8550
▁solid	-8551
▁tales	-8552
▁tower	-8553
▁towns	-8554
▁uncon	-8555
▁vener	-8556
itimate	-8557
ulating	-8558
▁Athoss	-8559
▁Blacas	-8560
▁Enough	-8561
▁Krmlin	-8562
▁Semnov	-8563
▁closet	-8564
▁faster	-8565
▁favour	-8566
▁flowed	-8567
▁indisc	-8568
▁judged	-8569
▁lesson	-8570
▁murmur	-8571
▁mustnt	-8572
▁namely	-8573
▁negoti	-8574
▁passes	-8575
▁serene	-8576
▁strove	-8577
▁swayed	-8578
▁system	-8579
▁temple	-8580
▁Penelon	-8581
▁century	-8582
▁chambre	-8583
▁cordial	-8584
▁founded	-8585
▁frankly	-8586
▁grieved	-8587
▁groaned	-8588
▁longing	-8589
▁militia	-8590
▁newspap	-8591
▁nowhere	-8592
▁parting	-8593
▁phrases	-8594
▁presume	-8595
▁reverie	-8596
▁scandal	-8597
▁serpent	-8598
▁theater	-8599
▁tremend	-8600
▁weapons	-8601
▁worldly	-8602
▁Dokhtrov	-8603
▁Nonsense	-8604
▁afforded	-8605
▁assented	-8606
▁churches	-8607
▁dragoons	-8608
▁frontier	-8609
▁measured	-8610
▁mourning	-8611
▁national	-8612
▁pavilion	-8613
▁proposal	-8614
▁rejoined	-8615
▁requires	-8616
▁retained	-8617
▁shrieked	-8618
▁skillful	-8619
▁snuffbox	-8620
▁strained	-8621
▁teaching	-8622
▁threaten	-8623
▁yielding	-8624
▁attentive	-8625
▁committee	-8626
▁faculties	-8627
▁falsehood	-8628
▁obtaining	-8629
▁pleasures	-8630
▁prejudice	-8631
▁provinces	-8632
▁regretted	-8633
▁resembled	-8634
▁Rochellais	-8635
▁attributed	-8636
▁discipline	-8637
▁infinitely	-8638
▁proceeding	-8639
▁regardless	-8640
▁repugnance	-8641
▁fortunately	-8642
▁prosecution	-8643
▁surrendered	-8644
▁aristocratic	-8645
▁confidential	-8646
▁presentiment	-8647
ok	-8648
ti	-8649
▁z	-8650
two	-8651
uce	-8652
vra	-8653
▁00	-8654
▁Cr	-8655
▁Ol	-8656
▁eB	-8657
▁lE	-8658
amen	-8659
bleu	-8660
itar	-8661
onde	-8662
post	-8663
usse	-8664
wood	-8665
▁Fin	-8666
▁Moz	-8667
▁Pur	-8668
▁Saf	-8669
▁San	-8670
▁Six	-8671
▁Ter	-8672
▁fog	-8673
▁hyp	-8674
▁map	-8675
▁san	-8676
▁unl	-8677
bably	-8678
eight	-8679
emark	-8680
ersim	-8681
icket	-8682
ierre	-8683
ishes	-8684
liest	-8685
olate	-8686
rowed	-8687
woman	-8688
▁Hard	-8689
▁Life	-8690
▁Mvra	-8691
▁Read	-8692
▁Till	-8693
▁bade	-8694
▁date	-8695
▁deck	-8696
▁fuss	-8697
▁glow	-8698
▁mask	-8699
▁owed	-8700
▁rein	-8701
▁spec	-8702
▁swim	-8703
▁trib	-8704
bution	-8705
usions	-8706
▁Bring	-8707
▁Doubt	-8708
▁Misha	-8709
▁Revol	-8710
▁Satan	-8711
▁bayon	-8712
▁cabin	-8713
▁coinc	-8714
▁gover	-8715
▁holds	-8716
▁impet	-8717
▁leads	-8718
▁marks	-8719
▁physi	-8720
▁reven	-8721
▁ruins	-8722
▁seats	-8723
▁steal	-8724
▁sweat	-8725
▁waked	-8726
entered	-8727
humored	-8728
inarily	-8729
ounding	-8730
▁George	-8731
▁Gersim	-8732
▁anchor	-8733
▁awaits	-8734
▁barrel	-8735
▁bundle	-8736
▁confer	-8737
▁dagger	-8738
▁defect	-8739
▁denied	-8740
▁drawer	-8741
▁emphat	-8742
▁horrid	-8743
▁impass	-8744
▁insuff	-8745
▁keeper	-8746
▁landed	-8747
▁offers	-8748
▁pearls	-8749
▁reader	-8750
▁riches	-8751
▁saints	-8752
▁season	-8753
▁sleeve	-8754
▁sobbed	-8755
▁supply	-8756
▁tapest	-8757
▁tasted	-8758
▁tempor	-8759
▁theyve	-8760
▁trifle	-8761
cription	-8762
▁Archive	-8763
▁Charles	-8764
▁Fathers	-8765
▁Patrick	-8766
▁Shinshn	-8767
▁William	-8768
▁bounded	-8769
▁confide	-8770
▁culture	-8771
▁delayed	-8772
▁develop	-8773
▁grating	-8774
▁joining	-8775
▁leaders	-8776
▁pardieu	-8777
▁proudly	-8778
▁proverb	-8779
▁proving	-8780
▁regards	-8781
▁robbery	-8782
▁shelter	-8783
▁sighing	-8784
▁stifled	-8785
▁stirred	-8786
▁stooped	-8787
▁tragedy	-8788
▁vehicle	-8789
▁whistle	-8790
▁Literary	-8791
▁believes	-8792
▁bleeding	-8793
▁clenched	-8794
▁detained	-8795
▁disposal	-8796
▁fortunes	-8797
▁frighten	-8798
▁mischief	-8799
▁mistrust	-8800
▁misunder	-8801
▁overtook	-8802
▁piastres	-8803
▁poisoned	-8804
▁pursuing	-8805
▁rejected	-8806
▁sunshine	-8807
▁Everybody	-8808
▁Evidently	-8809
▁Guardsmen	-8810
▁assistant	-8811
▁centuries	-8812
▁consented	-8813
▁frivolous	-8814
▁muttering	-8815
▁nervously	-8816
▁protected	-8817
▁referring	-8818
▁sacrament	-8819
▁sincerity	-8820
▁submitted	-8821
▁trademark	-8822
▁uncomfort	-8823
▁advantages	-8824
▁artificial	-8825
▁benevolent	-8826
▁describing	-8827
▁enterprise	-8828
▁marvellous	-8829
▁reappeared	-8830
▁revolution	-8831
▁temptation	-8832
▁astonishing	-8833
▁exceedingly	-8834
▁occupations	-8835
▁picturesque	-8836
▁Frankenstein	-8837
▁advantageous	-8838
▁convulsively	-8839
▁surroundings	-8840
▁establishment	-8841
AN	-8842
IN	-8843
OR	-8844
adm	-8845
aux	-8846
bru	-8847
cho	-8848
ias	-8849
iem	-8850
ird	-8851
log	-8852
mou	-8853
upp	-8854
zes	-8855
▁Rh	-8856
▁Ry	-8857
▁Sv	-8858
▁gh	-8859
▁ik	-8860
aker	-8861
alle	-8862
azza	-8863
eous	-8864
fold	-8865
gion	-8866
hysk	-8867
iary	-8868
icer	-8869
kins	-8870
oles	-8871
rawn	-8872
they	-8873
time	-8874
▁Ask	-8875
▁Ind	-8876
▁Kre	-8877
▁Rav	-8878
▁Rom	-8879
▁bee	-8880
▁err	-8881
▁fox	-8882
▁fug	-8883
▁hei	-8884
▁tid	-8885
▁voc	-8886
anded	-8887
hered	-8888
itect	-8889
rient	-8890
▁Adel	-8891
▁Bogd	-8892
▁Comp	-8893
▁Cons	-8894
▁Nove	-8895
▁Pont	-8896
▁VIII	-8897
▁bars	-8898
▁bath	-8899
▁belt	-8900
▁bord	-8901
▁chat	-8902
▁dedu	-8903
▁exal	-8904
▁gets	-8905
▁hood	-8906
▁joys	-8907
▁mend	-8908
▁mock	-8909
▁pang	-8910
▁tent	-8911
▁toil	-8912
▁type	-8913
▁unaw	-8914
▁zeal	-8915
bruary	-8916
estion	-8917
licted	-8918
▁Beaus	-8919
▁March	-8920
▁Platn	-8921
▁Safie	-8922
▁Today	-8923
▁Trmou	-8924
▁abhor	-8925
▁abund	-8926
▁besee	-8927
▁brood	-8928
▁couch	-8929
▁culpr	-8930
▁deign	-8931
▁dense	-8932
▁fools	-8933
▁goods	-8934
▁hoofs	-8935
▁ingen	-8936
▁ladys	-8937
▁lemon	-8938
▁likes	-8939
▁mathe	-8940
▁outst	-8941
▁scent	-8942
▁sixth	-8943
▁skull	-8944
inating	-8945
▁Little	-8946
▁Piazza	-8947
▁Rostva	-8948
▁avenue	-8949
▁behalf	-8950
▁behave	-8951
▁breeze	-8952
▁curate	-8953
▁deeper	-8954
▁fairly	-8955
▁glided	-8956
▁goodby	-8957
▁harbor	-8958
▁heroic	-8959
▁insect	-8960
▁leader	-8961
▁losses	-8962
▁mirror	-8963
▁nobles	-8964
▁occurs	-8965
▁simult	-8966
▁throng	-8967
▁toilet	-8968
▁traced	-8969
▁valley	-8970
▁veiled	-8971
▁wasted	-8972
▁weaker	-8973
ceivable	-8974
ceptions	-8975
ulations	-8976
▁Marshal	-8977
▁Morrels	-8978
▁Mozhysk	-8979
▁attacks	-8980
▁chances	-8981
▁constru	-8982
▁deepest	-8983
▁duchess	-8984
▁exhaust	-8985
▁foresee	-8986
▁glowing	-8987
▁inspire	-8988
▁moaning	-8989
▁pleases	-8990
▁protest	-8991
▁refresh	-8992
▁thither	-8993
▁trifles	-8994
sacrifice	-8995
▁Catalans	-8996
▁Catholic	-8997
▁February	-8998
▁November	-8999
▁administ	-9000
▁appropri	-9001
▁capacity	-9002
▁catching	-9003
▁chestnut	-9004
▁converse	-9005
▁deceased	-9006
▁decisive	-9007
▁dispatch	-9008
▁highroad	-9009
▁included	-9010
▁marquise	-9011
▁mentally	-9012
▁overtake	-9013
▁politely	-9014
▁reverend	-9015
▁tortures	-9016
▁wrinkled	-9017
▁Doubtless	-9018
▁conceived	-9019
▁courtiers	-9020
▁decidedly	-9021
▁discussed	-9022
▁energetic	-9023
▁excessive	-9024
▁fearfully	-9025
▁imagining	-9026
▁intending	-9027
▁neglected	-9028
▁prominent	-9029
▁regarding	-9030
▁traversed	-9031
▁utterance	-9032
▁Revolution	-9033
▁accordance	-9034
▁apparition	-9035
▁appreciate	-9036
▁battalions	-9037
▁collecting	-9038
▁destroying	-9039
▁manifested	-9040
▁personages	-9041
▁recompense	-9042
▁suggestion	-9043
▁application	-9044
▁disgraceful	-9045
▁humiliating	-9046
▁transformed	-9047
▁assassinated	-9048
▁countenances	-9049
▁extinguished	-9050
▁contradiction	-9051
▁impossibility	-9052
▁significantly	-9053
▁uncomfortable	-9054
nn	-9055
hem	-9056
ita	-9057
jou	-9058
lor	-9059
pse	-9060
yss	-9061
▁Ca	-9062
aggy	-9063
asha	-9064
ateg	-9065
atha	-9066
bled	-9067
cont	-9068
eren	-9069
giry	-9070
iles	-9071
kers	-9072
ogen	-9073
oked	-9074
only	-9075
pera	-9076
vsky	-9077
ware	-9078
when	-9079
▁Krs	-9080
▁Lat	-9081
▁Mav	-9082
▁Sne	-9083
▁Tro	-9084
▁aug	-9085
▁foe	-9086
▁pup	-9087
▁rot	-9088
ciple	-9089
enses	-9090
escri	-9091
hutch	-9092
ichna	-9093
mante	-9094
raved	-9095
ugged	-9096
urday	-9097
venty	-9098
▁Bour	-9099
▁Rosp	-9100
▁Sohn	-9101
▁Supp	-9102
▁Vill	-9103
▁bees	-9104
▁dArm	-9105
▁econ	-9106
▁fors	-9107
▁load	-9108
▁pine	-9109
▁pite	-9110
▁pose	-9111
▁puzz	-9112
▁ratt	-9113
▁robe	-9114
▁sack	-9115
▁trag	-9116
▁verd	-9117
▁vile	-9118
bation	-9119
cisely	-9120
entric	-9121
erving	-9122
itious	-9123
ptuous	-9124
▁Heres	-9125
▁Kuzmn	-9126
▁Opera	-9127
▁abyss	-9128
▁bonds	-9129
▁corre	-9130
▁exter	-9131
▁gleam	-9132
▁hasty	-9133
▁infer	-9134
▁knelt	-9135
▁legal	-9136
▁maybe	-9137
▁north	-9138
▁overl	-9139
▁slipp	-9140
▁steel	-9141
▁tools	-9142
▁tutor	-9143
ciences	-9144
ereshch	-9145
unction	-9146
version	-9147
▁Popolo	-9148
▁Vruble	-9149
▁adding	-9150
▁button	-9151
▁cultiv	-9152
▁detain	-9153
▁dishes	-9154
▁fierce	-9155
▁gladly	-9156
▁implic	-9157
▁ingrat	-9158
▁jewels	-9159
▁observ	-9160
▁pitied	-9161
▁ponder	-9162
▁purity	-9163
▁rebell	-9164
▁record	-9165
▁refres	-9166
▁rumors	-9167
▁senior	-9168
▁shrill	-9169
▁steady	-9170
▁strain	-9171
▁tables	-9172
aciously	-9173
itations	-9174
▁America	-9175
▁Snegiry	-9176
▁bargain	-9177
▁benefit	-9178
▁carbine	-9179
▁chemist	-9180
▁climbed	-9181
▁comment	-9182
▁contain	-9183
▁counter	-9184
▁customs	-9185
▁demands	-9186
▁dinners	-9187
▁flowing	-9188
▁haunted	-9189
▁leisure	-9190
▁popular	-9191
▁recital	-9192
▁replace	-9193
▁rubbing	-9194
▁smoking	-9195
▁submiss	-9196
▁tempest	-9197
▁vicious	-9198
▁vindict	-9199
▁alighted	-9200
▁articles	-9201
▁assigned	-9202
▁clutched	-9203
▁confided	-9204
▁courtesy	-9205
▁cupboard	-9206
▁document	-9207
▁enjoying	-9208
▁fatigued	-9209
▁gloomily	-9210
▁heavenly	-9211
▁hesitate	-9212
▁indescri	-9213
▁insanity	-9214
▁inviting	-9215
▁obstacle	-9216
▁particip	-9217
▁released	-9218
▁romantic	-9219
▁supplied	-9220
▁Freemason	-9221
▁donations	-9222
▁fragments	-9223
▁horrified	-9224
▁irritable	-9225
▁moonlight	-9226
▁portmante	-9227
▁possesses	-9228
▁redoubled	-9229
▁resources	-9230
▁smugglers	-9231
▁stretcher	-9232
▁sustained	-9233
▁unlimited	-9234
▁Kuzmnichna	-9235
▁Vrublevsky	-9236
▁adventures	-9237
▁attendance	-9238
▁collective	-9239
▁condescend	-9240
▁irreproach	-9241
▁pretending	-9242
▁reflecting	-9243
▁communicate	-9244
▁declaration	-9245
▁hospitality	-9246
▁marketplace	-9247
▁performance	-9248
▁preparation	-9249
▁resignation	-9250
▁superintend	-9251
▁undoubtedly	-9252
▁Kondratyevna	-9253
▁apprehension	-9254
▁congratulate	-9255
▁considerations	-9256
IE	-9257
OO	-9258
zz	-9259
VII	-9260
aun	-9261
avy	-9262
bes	-9263
eep	-9264
inu	-9265
len	-9266
olz	-9267
rit	-9268
▁Ac	-9269
▁Gl	-9270
bred	-9271
eers	-9272
ergy	-9273
ieth	-9274
llen	-9275
onne	-9276
oxys	-9277
ties	-9278
▁Cha	-9279
▁Kir	-9280
▁Men	-9281
▁Sav	-9282
▁Via	-9283
▁awe	-9284
▁enr	-9285
▁gra	-9286
▁ped	-9287
▁pot	-9288
▁sem	-9289
▁tig	-9290
▁vow	-9291
ailor	-9292
armel	-9293
burst	-9294
cible	-9295
comer	-9296
isons	-9297
itors	-9298
logne	-9299
might	-9300
oping	-9301
▁Bois	-9302
▁Form	-9303
▁Varv	-9304
▁Wolz	-9305
▁Youd	-9306
▁aims	-9307
▁bury	-9308
▁danc	-9309
▁deem	-9310
▁dram	-9311
▁epis	-9312
▁ling	-9313
▁scan	-9314
▁skil	-9315
▁surp	-9316
▁toss	-9317
▁tour	-9318
▁unto	-9319
nected	-9320
▁Purit	-9321
▁Tours	-9322
▁ambit	-9323
▁bache	-9324
▁bored	-9325
▁chick	-9326
▁crept	-9327
▁debau	-9328
▁folds	-9329
▁goose	-9330
▁grows	-9331
▁honey	-9332
▁insen	-9333
▁moves	-9334
▁muddy	-9335
▁ninet	-9336
▁penit	-9337
▁perse	-9338
▁pious	-9339
▁recru	-9340
▁scorn	-9341
▁spoil	-9342
▁towel	-9343
▁wills	-9344
nothing	-9345
pending	-9346
periors	-9347
▁Cather	-9348
▁Orient	-9349
▁Sailor	-9350
▁Should	-9351
▁Suvrov	-9352
▁Theyll	-9353
▁Turkey	-9354
▁branch	-9355
▁brutal	-9356
▁dearly	-9357
▁expose	-9358
▁filthy	-9359
▁lawful	-9360
▁legend	-9361
▁oppose	-9362
▁rascal	-9363
▁resume	-9364
▁statue	-9365
▁subord	-9366
▁theirs	-9367
▁worlds	-9368
ceptibly	-9369
▁Corsica	-9370
▁Despite	-9371
▁Himself	-9372
▁Telynin	-9373
▁carries	-9374
▁draught	-9375
▁endowed	-9376
▁footing	-9377
▁forming	-9378
▁furnish	-9379
▁gaining	-9380
▁greeted	-9381
▁guarded	-9382
▁happier	-9383
▁oneself	-9384
▁paroxys	-9385
▁pierced	-9386
▁precise	-9387
▁seventy	-9388
▁sorrows	-9389
▁supplic	-9390
▁surgeon	-9391
▁vaguely	-9392
sequently	-9393
▁Boulogne	-9394
▁Saturday	-9395
▁Vereshch	-9396
▁Wolzogen	-9397
▁ardently	-9398
▁avoiding	-9399
▁backward	-9400
▁bandaged	-9401
▁breeches	-9402
▁careless	-9403
▁counting	-9404
▁dArmilly	-9405
▁dreaming	-9406
▁equality	-9407
▁fainting	-9408
▁flashing	-9409
▁gestures	-9410
▁greeting	-9411
▁horribly	-9412
▁kneeling	-9413
▁lemonade	-9414
▁mathemat	-9415
▁outburst	-9416
▁refusing	-9417
▁secretly	-9418
▁shepherd	-9419
▁unreason	-9420
▁wrinkles	-9421
▁Guardsman	-9422
▁annoyance	-9423
▁attending	-9424
▁brigadier	-9425
▁comforted	-9426
▁countries	-9427
▁criminals	-9428
▁delirious	-9429
▁directing	-9430
▁dispersed	-9431
▁eccentric	-9432
▁embracing	-9433
▁entreated	-9434
▁gathering	-9435
▁greatcoat	-9436
▁irregular	-9437
▁momentary	-9438
▁righteous	-9439
▁staggered	-9440
▁stillness	-9441
▁stockings	-9442
▁willingly	-9443
▁chancellor	-9444
▁concealing	-9445
▁depression	-9446
▁flattering	-9447
▁formidable	-9448
▁ironically	-9449
▁separation	-9450
▁sovereigns	-9451
▁tormenting	-9452
▁Vereshchgin	-9453
▁distinction	-9454
▁immortality	-9455
▁individuals	-9456
▁perceptible	-9457
▁proposition	-9458
▁reluctantly	-9459
▁contemplated	-9460
▁thoughtfully	-9461
▁indescribable	-9462
1.	-9463
CH	-9464
fts	-9465
mar	-9466
mtz	-9467
sya	-9468
why	-9469
▁od	-9470
afya	-9471
aine	-9472
bish	-9473
dued	-9474
from	-9475
gone	-9476
idly	-9477
iens	-9478
issa	-9479
phas	-9480
pire	-9481
riky	-9482
will	-9483
year	-9484
ylum	-9485
▁Ach	-9486
▁Lie	-9487
▁Mag	-9488
▁War	-9489
▁alb	-9490
▁eag	-9491
▁ens	-9492
▁jur	-9493
▁som	-9494
▁vir	-9495
▁vul	-9496
▁woe	-9497
aired	-9498
ammed	-9499
anter	-9500
avich	-9501
cture	-9502
ereur	-9503
ifted	-9504
irect	-9505
ncles	-9506
nskis	-9507
otted	-9508
reled	-9509
skaya	-9510
▁Geno	-9511
▁Lets	-9512
▁Mack	-9513
▁Nmes	-9514
▁buck	-9515
▁cabb	-9516
▁carp	-9517
▁chap	-9518
▁dash	-9519
▁egot	-9520
▁eyel	-9521
▁gild	-9522
▁hing	-9523
▁jump	-9524
▁keys	-9525
▁page	-9526
▁pref	-9527
▁quad	-9528
▁rend	-9529
▁secl	-9530
▁unbe	-9531
▁unch	-9532
▁whir	-9533
▁whos	-9534
▁woke	-9535
anting	-9536
icient	-9537
▁Afric	-9538
▁Horse	-9539
▁Latin	-9540
▁Makar	-9541
▁Olmtz	-9542
▁Ryazn	-9543
▁blush	-9544
▁cadet	-9545
▁hired	-9546
▁jewel	-9547
▁jokes	-9548
▁lucky	-9549
▁manly	-9550
▁manus	-9551
▁model	-9552
▁overp	-9553
▁paler	-9554
▁petty	-9555
▁prost	-9556
▁queer	-9557
▁reins	-9558
▁satin	-9559
▁sting	-9560
▁swore	-9561
▁sworn	-9562
▁tread	-9563
▁troop	-9564
▁vanqu	-9565
▁verse	-9566
▁vigil	-9567
▁wrist	-9568
atively	-9569
chestra	-9570
hutchka	-9571
iveness	-9572
▁Agafya	-9573
▁Agatha	-9574
▁Almost	-9575
▁Beware	-9576
▁Carmel	-9577
▁Drissa	-9578
▁Krsnoe	-9579
▁Palais	-9580
▁Rhetor	-9581
▁asylum	-9582
▁basket	-9583
▁bathed	-9584
▁bounds	-9585
▁conven	-9586
▁coolly	-9587
▁coquet	-9588
▁critic	-9589
▁deputy	-9590
▁dismay	-9591
▁emphas	-9592
▁extric	-9593
▁formal	-9594
▁midday	-9595
▁militi	-9596
▁napkin	-9597
▁obstin	-9598
▁parade	-9599
▁roared	-9600
▁select	-9601
▁spared	-9602
▁sprung	-9603
▁stifle	-9604
▁survey	-9605
▁trades	-9606
▁unseen	-9607
avichord	-9608
daughter	-9609
▁Catalan	-9610
▁Chamber	-9611
▁Colonel	-9612
▁Mavriky	-9613
▁articul	-9614
▁balance	-9615
▁beseech	-9616
▁cabinet	-9617
▁changes	-9618
▁choking	-9619
▁decline	-9620
▁defined	-9621
▁descent	-9622
▁dispose	-9623
▁failing	-9624
▁judging	-9625
▁jumping	-9626
▁phantom	-9627
▁refined	-9628
▁shortly	-9629
▁signify	-9630
▁subdued	-9631
▁upright	-9632
▁variety	-9633
▁victims	-9634
▁Constant	-9635
▁Kuzmitch	-9636
▁appetite	-9637
▁coldness	-9638
▁concerns	-9639
▁crowding	-9640
▁darkened	-9641
▁daybreak	-9642
▁dropping	-9643
▁elements	-9644
▁flushing	-9645
▁headlong	-9646
▁hopeless	-9647
▁humility	-9648
▁huntsman	-9649
▁intrigue	-9650
▁majority	-9651
▁nowadays	-9652
▁paradise	-9653
▁pathetic	-9654
▁philanth	-9655
▁pondered	-9656
▁regained	-9657
▁register	-9658
▁resource	-9659
▁shutters	-9660
▁sinister	-9661
▁striving	-9662
▁superflu	-9663
▁Chevalier	-9664
▁Precisely	-9665
▁Trmouille	-9666
▁Yesterday	-9667
▁admitting	-9668
▁ambitious	-9669
▁apologize	-9670
▁cottagers	-9671
▁dismissed	-9672
▁elsewhere	-9673
▁extremity	-9674
▁frankness	-9675
▁harnessed	-9676
▁irritably	-9677
▁maneuvers	-9678
▁orchestra	-9679
▁precision	-9680
▁prolonged	-9681
▁sarcastic	-9682
▁seventeen	-9683
▁spreading	-9684
▁substance	-9685
▁suspended	-9686
▁travelers	-9687
▁undressed	-9688
▁Alexanders	-9689
▁Karamazovs	-9690
▁brightened	-9691
▁cheerfully	-9692
▁clavichord	-9693
▁compliment	-9694
▁distressed	-9695
▁enchanting	-9696
▁irritation	-9697
▁peculiarly	-9698
▁perfection	-9699
▁princesses	-9700
▁reproaches	-9701
▁tremendous	-9702
▁connections	-9703
▁expressions	-9704
▁neighboring	-9705
▁sorrowfully	-9706
▁carelessness	-9707
▁exclamations	-9708
▁independence	-9709
▁assassination	-9710
▁affectionately	-9711
sc	-9712
ui	-9713
OOK	-9714
bac	-9715
des	-9716
din	-9717
ndr	-9718
ray	-9719
ska	-9720
tem	-9721
▁10	-9722
▁Ap	-9723
▁Hm	-9724
▁Mt	-9725
▁Ts	-9726
▁ow	-9727
acit	-9728
andy	-9729
aros	-9730
cest	-9731
cony	-9732
foli	-9733
gers	-9734
gram	-9735
hill	-9736
hole	-9737
iday	-9738
inqu	-9739
love	-9740
racy	-9741
skin	-9742
were	-9743
▁Ang	-9744
▁Bth	-9745
▁Fif	-9746
▁Liz	-9747
▁Met	-9748
▁Mur	-9749
▁Pos	-9750
▁Put	-9751
▁Rep	-9752
▁Tch	-9753
▁Vir	-9754
▁Vyz	-9755
▁fed	-9756
▁glo	-9757
▁mob	-9758
▁rav	-9759
▁tax	-9760
▁tun	-9761
bacco	-9762
bbers	-9763
caire	-9764
ctive	-9765
evnas	-9766
folio	-9767
human	-9768
iemen	-9769
ieves	-9770
itute	-9771
▁Keep	-9772
▁Makr	-9773
▁Schn	-9774
▁abbs	-9775
▁anti	-9776
▁beck	-9777
▁cens	-9778
▁coup	-9779
▁fanc	-9780
▁feed	-9781
▁gods	-9782
▁mast	-9783
▁matt	-9784
▁penc	-9785
▁rans	-9786
▁role	-9787
▁sale	-9788
▁salt	-9789
▁ting	-9790
▁unce	-9791
▁wash	-9792
▁writ	-9793
alling	-9794
ibited	-9795
issary	-9796
ricken	-9797
utable	-9798
▁Above	-9799
▁Hendr	-9800
▁accum	-9801
▁album	-9802
▁block	-9803
▁boxes	-9804
▁calam	-9805
▁cough	-9806
▁disin	-9807
▁entry	-9808
▁epile	-9809
▁everl	-9810
▁gayly	-9811
▁mirth	-9812
▁pages	-9813
▁prize	-9814
▁relax	-9815
▁spoon	-9816
▁wagon	-9817
ibility	-9818
inement	-9819
picuous	-9820
▁Bthune	-9821
▁Legion	-9822
▁Milord	-9823
▁Niemen	-9824
▁assent	-9825
▁billet	-9826
▁client	-9827
▁gaiety	-9828
▁gilded	-9829
▁indulg	-9830
▁insinu	-9831
▁lament	-9832
▁latest	-9833
▁lowest	-9834
▁luxuri	-9835
▁morose	-9836
▁posted	-9837
▁reckon	-9838
▁requis	-9839
▁stable	-9840
▁suited	-9841
▁tastes	-9842
▁thence	-9843
▁tragic	-9844
▁wander	-9845
bilities	-9846
ountered	-9847
▁Michaud	-9848
▁Redoubt	-9849
▁Someone	-9850
▁Strange	-9851
▁balcony	-9852
▁biscuit	-9853
▁brushed	-9854
▁caprice	-9855
▁ceremon	-9856
▁complic	-9857
▁creaked	-9858
▁dazzled	-9859
▁devised	-9860
▁doubled	-9861
▁doublet	-9862
▁earlier	-9863
▁fixedly	-9864
▁grounds	-9865
▁handful	-9866
▁horrors	-9867
▁injured	-9868
▁liberal	-9869
▁machine	-9870
▁merrily	-9871
▁neglect	-9872
▁payment	-9873
▁pitiful	-9874
▁program	-9875
▁smaller	-9876
▁snapped	-9877
▁stables	-9878
▁superst	-9879
▁tearing	-9880
▁turnkey	-9881
▁warning	-9882
▁winning	-9883
▁wronged	-9884
pressible	-9885
▁Beausset	-9886
▁anothers	-9887
▁approved	-9888
▁declined	-9889
▁deserved	-9890
▁detected	-9891
▁doubtful	-9892
▁ecstatic	-9893
▁escaping	-9894
▁gardener	-9895
▁groaning	-9896
▁horsemen	-9897
▁improved	-9898
▁musketry	-9899
▁pictured	-9900
▁polished	-9901
▁pressure	-9902
▁produces	-9903
▁quadrill	-9904
▁recurred	-9905
▁rejoiced	-9906
▁smallest	-9907
▁sparkled	-9908
▁splendor	-9909
▁standard	-9910
▁studying	-9911
▁supplies	-9912
▁syllable	-9913
▁thrashed	-9914
▁twitched	-9915
▁whistled	-9916
▁Bagratins	-9917
▁Beaucaire	-9918
▁Therefore	-9919
▁awakening	-9920
▁betraying	-9921
▁contrived	-9922
▁discharge	-9923
▁endeavour	-9924
▁equipment	-9925
▁governess	-9926
▁hospitals	-9927
▁insulting	-9928
▁officials	-9929
▁patiently	-9930
▁portfolio	-9931
▁purposely	-9932
▁rapturous	-9933
▁shipowner	-9934
▁twitching	-9935
▁wandering	-9936
▁Rostopchns	-9937
▁attentions	-9938
▁	-9939
e	-9940
t	-9941
a	-9942
o	-9943
n	-9944
i	-9945
h	-9946
s	-9947
r	-9948
d	-9949
l	-9950
u	-9951
m	-9952
c	-9953
w	-9954
f	-9955
y	-9956
,	-9957
g	-9958
p	-9959
b	-9960
.	-9961
v	-9962
k	-9963
I	-9964
A	-9965
T	-9966
M	-9967
?	-9968
;	-9969
x	-9970
H	-9971
!	-9972
P	-9973
B	-9974
W	-9975
D	-9976
S	-9977
q	-9978
C	-9979
j	-9980
N	-9981
F	-9982
Y	-9983
z	-9984
R	-9985
-	-9986
G	-9987
O	-9988
E	-9989
V	-9990
L	-9991
K	-9992
:	-9993
0	-9994
1	-9995
J	-9996
