<unk>	0
<s>	0
</s>	0
A:	0
B:	0
▁t	-0
he	-1
▁a	-2
in	-3
▁w	-4
▁s	-5
▁the	-6
re	-7
▁o	-8
nd	-9
▁h	-10
ou	-11
er	-12
▁b	-13
at	-14
ed	-15
is	-16
it	-17
▁m	-18
▁f	-19
ing	-20
▁c	-21
en	-22
▁to	-23
on	-24
▁and	-25
▁of	-26
▁he	-27
or	-28
▁d	-29
▁th	-30
as	-31
an	-32
ll	-33
▁p	-34
es	-35
ar	-36
▁in	-37
▁l	-38
▁n	-39
▁"	-40
om	-41
▁ha	-42
▁I	-43
le	-44
▁be	-45
ot	-46
▁y	-47
im	-48
▁g	-49
ut	-50
ow	-51
ly	-52
id	-53
▁you	-54
▁e	-55
▁wh	-56
ve	-57
▁that	-58
▁was	-59
ic	-60
se	-61
st	-62
ld	-63
▁his	-64
ent	-65
▁re	-66
▁on	-67
ith	-68
ce	-69
gh	-70
▁it	-71
▁with	-72
▁sa	-73
et	-74
ion	-75
▁u	-76
ver	-77
▁not	-78
▁as	-79
al	-80
▁for	-81
▁her	-82
ad	-83
▁had	-84
ir	-85
▁him	-86
▁A	-87
▁at	-88
ay	-89
ur	-90
ch	-91
▁st	-92
ri	-93
ro	-94
ght	-95
▁T	-96
▁M	-97
▁an	-98
ere	-99
her	-100
ould	-101
."	-102
ter	-103
▁me	-104
oo	-105
am	-106
ill	-107
▁is	-108
ct	-109
▁se	-110
if	-111
ke	-112
ain	-113
▁H	-114
▁sh	-115
,"	-116
ess	-117
▁said	-118
▁she	-119
▁S	-120
▁so	-121
▁my	-122
--	-123
▁de	-124
all	-125
▁have	-126
▁su	-127
▁but	-128
▁k	-129
▁B	-130
ra	-131
ore	-132
▁all	-133
▁The	-134
pe	-135
ome	-136
ich	-137
▁con	-138
th	-139
il	-140
and	-141
qu	-142
rom	-143
▁P	-144
ant	-145
os	-146
▁C	-147
ck	-148
ell	-149
us	-150
ard	-151
▁which	-152
?"	-153
ge	-154
lf	-155
▁do	-156
▁by	-157
ble	-158
ous	-159
▁who	-160
▁from	-161
▁ex	-162
ight	-163
ul	-164
▁r	-165
res	-166
..	-167
pp	-168
▁this	-169
▁up	-170
▁ne	-171
very	-172
▁were	-173
▁whe	-174
▁kn	-175
out	-176
▁D	-177
el	-178
▁W	-179
est	-180
ov	-181
red	-182
▁al	-183
ust	-184
em	-185
▁v	-186
▁or	-187
▁He	-188
▁man	-189
▁li	-190
ist	-191
self	-192
nt	-193
▁ch	-194
ak	-195
▁one	-196
ation	-197
ers	-198
▁int	-199
▁would	-200
ook	-201
ast	-202
ate	-203
ol	-204
art	-205
ap	-206
▁no	-207
▁your	-208
▁ab	-209
▁L	-210
ind	-211
one	-212
ie	-213
▁com	-214
itt	-215
▁been	-216
!"	-217
▁out	-218
▁are	-219
▁what	-220
ound	-221
▁they	-222
ood	-223
▁le	-224
▁we	-225
▁R	-226
ost	-227
▁F	-228
au	-229
ort	-230
▁them	-231
our	-232
▁there	-233
▁will	-234
▁wor	-235
ong	-236
▁know	-237
um	-238
ag	-239
ame	-240
ven	-241
▁thou	-242
▁go	-243
ive	-244
▁qu	-245
ig	-246
▁ag	-247
▁j	-248
▁un	-249
ity	-250
hed	-251
▁when	-252
▁look	-253
un	-254
hing	-255
▁fa	-256
▁if	-257
▁am	-258
▁N	-259
ered	-260
▁G	-261
▁did	-262
▁af	-263
hat	-264
la	-265
od	-266
▁could	-267
▁And	-268
▁more	-269
ry	-270
▁tim	-271
▁fe	-272
ther	-273
able	-274
own	-275
reat	-276
▁ar	-277
urn	-278
way	-279
▁any	-280
other	-281
▁sp	-282
ond	-283
▁their	-284
ake	-285
ure	-286
ount	-287
▁too	-288
▁into	-289
pt	-290
ance	-291
ite	-292
ress	-293
▁some	-294
▁pro	-295
▁But	-296
▁hand	-297
▁ro	-298
cc	-299
ass	-300
▁now	-301
▁about	-302
▁see	-303
▁very	-304
▁Mr	-305
ked	-306
ose	-307
ide	-308
▁im	-309
ect	-310
▁say	-311
ather	-312
ep	-313
end	-314
are	-315
▁can	-316
▁like	-317
▁E	-318
rin	-319
▁only	-320
fore	-321
▁then	-322
ish	-323
ice	-324
op	-325
ng	-326
▁br	-327
ence	-328
▁ad	-329
ine	-330
You	-331
▁off	-332
ious	-333
▁again	-334
ally	-335
▁tw	-336
▁dis	-337
ady	-338
▁time	-339
ac	-340
▁O	-341
ert	-342
pl	-343
ove	-344
ha	-345
ved	-346
▁should	-347
▁us	-348
ving	-349
▁himself	-350
ittle	-351
ile	-352
▁has	-353
ary	-354
▁V	-355
▁than	-356
▁little	-357
▁other	-358
ied	-359
▁over	-360
ade	-361
ru	-362
▁every	-363
▁sm	-364
wn	-365
ife	-366
▁It	-367
▁how	-368
ough	-369
ars	-370
nder	-371
ons	-372
ink	-373
▁before	-374
ran	-375
ness	-376
ne	-377
ried	-378
ment	-379
▁en	-380
ack	-381
ies	-382
age	-383
▁rem	-384
▁day	-385
▁per	-386
ated	-387
▁must	-388
▁beg	-389
▁thought	-390
▁old	-391
ree	-392
▁K	-393
▁ey	-394
▁She	-395
▁after	-396
ud	-397
ful	-398
▁cl	-399
▁come	-400
iss	-401
▁po	-402
per	-403
ward	-404
▁under	-405
▁even	-406
▁pre	-407
▁good	-408
ire	-409
▁pe	-410
▁down	-411
uch	-412
ull	-413
▁fir	-414
▁made	-415
▁spe	-416
▁such	-417
ced	-418
▁cont	-419
bl	-420
ff	-421
▁great	-422
▁think	-423
me	-424
▁gl	-425
ings	-426
▁J	-427
oy	-428
▁went	-429
▁two	-430
na	-431
▁let	-432
▁long	-433
▁young	-434
▁bl	-435
si	-436
▁fri	-437
▁count	-438
ions	-439
▁never	-440
ft	-441
ick	-442
ave	-443
ci	-444
▁much	-445
▁seem	-446
▁part	-447
▁bet	-448
hen	-449
▁bec	-450
▁eyes	-451
▁fl	-452
▁gr	-453
▁own	-454
ier	-455
▁turn	-456
...	-457
ened	-458
thing	-459
ily	-460
▁first	-461
ign	-462
▁upon	-463
▁res	-464
omet	-465
▁our	-466
ord	-467
ang	-468
ise	-469
ach	-470
itch	-471
▁des	-472
▁co	-473
▁without	-474
te	-475
ev	-476
ild	-477
ab	-478
▁comp	-479
ath	-480
▁pl	-481
▁might	-482
▁sc	-483
▁came	-484
ouse	-485
pect	-486
aking	-487
▁here	-488
▁imp	-489
▁thr	-490
ning	-491
▁Th	-492
▁pass	-493
air	-494
▁word	-495
rew	-496
▁way	-497
▁ent	-498
int	-499
▁somet	-500
▁though	-501
▁cons	-502
▁away	-503
▁back	-504
man	-505
▁still	-506
▁head	-507
▁att	-508
▁just	-509
▁ri	-510
▁face	-511
▁tell	-512
cl	-513
▁ret	-514
▁don	-515
▁pos	-516
▁ser	-517
▁mar	-518
▁well	-519
ren	-520
▁nothing	-521
▁friend	-522
▁being	-523
ber	-524
▁op	-525
▁looked	-526
▁these	-527
▁bel	-528
av	-529
▁ob	-530
oll	-531
▁pr	-532
▁may	-533
▁ap	-534
▁happ	-535
▁want	-536
▁same	-537
ip	-538
▁room	-539
▁shall	-540
ue	-541
▁where	-542
▁acc	-543
▁'	-544
we	-545
▁ind	-546
▁feel	-547
ty	-548
▁ra	-549
Yes	-550
▁life	-551
ors	-552
▁You	-553
▁pres	-554
▁pla	-555
ause	-556
leas	-557
▁father	-558
▁house	-559
▁last	-560
alk	-561
anc	-562
den	-563
oment	-564
rince	-565
▁moment	-566
▁tr	-567
ale	-568
elt	-569
▁most	-570
▁wom	-571
iff	-572
ways	-573
▁get	-574
▁once	-575
raw	-576
▁those	-577
less	-578
▁ye	-579
ock	-580
▁make	-581
ew	-582
▁An	-583
▁asked	-584
▁ke	-585
ared	-586
▁ho	-587
ner	-588
▁love	-589
▁car	-590
▁felt	-591
ia	-592
ting	-593
lex	-594
▁seemed	-595
▁always	-596
▁its	-597
▁men	-598
▁something	-599
▁saw	-600
▁comm	-601
▁wr	-602
▁In	-603
▁take	-604
▁rec	-605
ves	-606
▁left	-607
▁took	-608
▁put	-609
▁began	-610
here	-611
▁arm	-612
▁hands	-613
hy	-614
ition	-615
led	-616
row	-617
sw	-618
iz	-619
agn	-620
cess	-621
▁rep	-622
▁mean	-623
▁pers	-624
▁door	-625
▁while	-626
ently	-627
▁another	-628
▁app	-629
▁going	-630
▁underst	-631
▁heart	-632
▁exp	-633
rt	-634
▁right	-635
hap	-636
▁inst	-637
▁answ	-638
ertain	-639
owed	-640
ark	-641
arm	-642
tain	-643
▁cried	-644
▁call	-645
What	-646
▁pleas	-647
ory	-648
ret	-649
▁heard	-650
▁child	-651
▁ord	-652
fort	-653
ople	-654
▁dear	-655
▁new	-656
▁three	-657
atter	-658
▁mind	-659
ener	-660
ater	-661
ished	-662
▁whom	-663
▁Alex	-664
▁sec	-665
▁end	-666
▁quite	-667
▁St	-668
▁gent	-669
▁reg	-670
▁bo	-671
iness	-672
hes	-673
▁through	-674
▁te	-675
▁belie	-676
wards	-677
dden	-678
And	-679
▁people	-680
▁del	-681
agnan	-682
og	-683
▁wa	-684
▁return	-685
▁appe	-686
ict	-687
▁knew	-688
▁dist	-689
▁told	-690
oth	-691
▁em	-692
most	-693
▁conf	-694
▁add	-695
igh	-696
van	-697
▁Miss	-698
▁yet	-699
Art	-700
▁sudden	-701
▁vo	-702
Artagnan	-703
ky	-704
▁sl	-705
ought	-706
▁cour	-707
▁fell	-708
ject	-709
▁sat	-710
▁Prince	-711
▁ac	-712
▁looking	-713
be	-714
▁Mrs	-715
▁give	-716
ley	-717
orm	-718
▁round	-719
ase	-720
ierre	-721
▁gentle	-722
▁found	-723
▁woman	-724
ult	-725
plied	-726
▁place	-727
aw	-728
▁Pierre	-729
▁aff	-730
▁They	-731
ations	-732
▁set	-733
vers	-734
iv	-735
ction	-736
ained	-737
▁replied	-738
pped	-739
ged	-740
aught	-741
ens	-742
ering	-743
▁sin	-744
▁talk	-745
ody	-746
▁ever	-747
▁supp	-748
▁ev	-749
▁fam	-750
▁having	-751
▁ass	-752
az	-753
Well	-754
▁myself	-755
ense	-756
▁night	-757
▁mor	-758
ully	-759
▁whole	-760
▁ref	-761
ix	-762
▁sil	-763
aken	-764
▁inf	-765
▁rel	-766
ks	-767
ched	-768
ian	-769
▁understand	-770
▁seen	-771
▁herself	-772
▁wife	-773
▁light	-774
▁thing	-775
But	-776
▁hor	-777
ever	-778
rov	-779
▁mother	-780
arly	-781
▁What	-782
▁quest	-783
▁turned	-784
ating	-785
▁because	-786
ik	-787
amp	-788
▁vis	-789
▁gu	-790
No	-791
ces	-792
oke	-793
▁inter	-794
▁done	-795
▁cap	-796
▁better	-797
▁soon	-798
▁mon	-799
▁There	-800
ited	-801
▁Ivan	-802
▁letter	-803
ted	-804
sible	-805
up	-806
▁got	-807
▁gi	-808
ined	-809
ired	-810
▁This	-811
▁gener	-812
oney	-813
▁read	-814
The	-815
the	-816
▁hus	-817
cept	-818
▁many	-819
▁words	-820
▁sur	-821
haps	-822
ised	-823
▁At	-824
▁world	-825
get	-826
▁almost	-827
▁God	-828
les	-829
▁diff	-830
▁side	-831
Oh	-832
ss	-833
▁cle	-834
thos	-835
▁voice	-836
▁find	-837
▁everything	-838
▁against	-839
ressed	-840
ister	-841
▁suddenly	-842
▁brother	-843
▁sub	-844
cei	-845
king	-846
▁occ	-847
ille	-848
▁hu	-849
ention	-850
▁aw	-851
▁gave	-852
sel	-853
It	-854
▁lau	-855
ute	-856
▁foll	-857
▁Lev	-858
▁serv	-859
▁ins	-860
▁present	-861
▁poor	-862
▁gra	-863
men	-864
bb	-865
▁home	-866
▁kind	-867
▁contin	-868
▁Al	-869
....	-870
▁ter	-871
▁anything	-872
▁money	-873
▁certain	-874
▁speak	-875
ither	-876
ual	-877
rench	-878
▁When	-879
▁stran	-880
ately	-881
▁sim	-882
▁che	-883
its	-884
▁exc	-885
▁half	-886
oved	-887
rist	-888
▁cor	-889
ling	-890
▁form	-891
atch	-892
riage	-893
day	-894
▁pur	-895
oun	-896
▁dec	-897
▁hon	-898
▁hour	-899
aring	-900
▁el	-901
▁dou	-902
▁Levin	-903
▁min	-904
▁str	-905
ey	-906
arn	-907
▁rest	-908
ial	-909
fully	-910
ween	-911
▁sw	-912
osed	-913
ued	-914
aster	-915
▁As	-916
▁boy	-917
▁things	-918
bt	-919
▁Ch	-920
▁sent	-921
▁since	-922
▁person	-923
owing	-924
ows	-925
not	-926
▁cur	-927
▁remem	-928
gg	-929
▁His	-930
▁wind	-931
▁offic	-932
ovna	-933
▁care	-934
oud	-935
ical	-936
▁believe	-937
▁why	-938
▁between	-939
ured	-940
ten	-941
band	-942
▁smile	-943
▁Ar	-944
▁point	-945
▁French	-946
▁sir	-947
irl	-948
▁cr	-949
▁That	-950
ross	-951
▁both	-952
ief	-953
icul	-954
▁years	-955
ail	-956
eed	-957
▁name	-958
▁does	-959
▁husband	-960
▁inv	-961
cy	-962
ole	-963
▁morning	-964
▁On	-965
▁hel	-966
erest	-967
▁open	-968
▁inc	-969
▁bre	-970
▁sort	-971
▁alone	-972
ger	-973
▁girl	-974
▁Be	-975
so	-976
▁Mad	-977
▁course	-978
iting	-979
ready	-980
▁Mary	-981
ool	-982
that	-983
▁act	-984
▁question	-985
▁hum	-986
▁feeling	-987
ask	-988
--"	-989
▁expect	-990
▁brought	-991
bert	-992
▁dre	-993
▁taken	-994
▁rather	-995
aid	-996
▁Andrew	-997
rying	-998
▁ide	-999
▁list	-1000
osha	-1001
▁already	-1002
▁smil	-1003
lyosha	-1004
▁express	-1005
ank	-1006
ents	-1007
▁son	-1008
ya	-1009
▁stood	-1010
▁passed	-1011
▁stand	-1012
rincess	-1013
▁perhaps	-1014
ery	-1015
▁matter	-1016
aint	-1017
ying	-1018
▁Rus	-1019
▁Alyosha	-1020
ho	-1021
▁consid	-1022
▁towards	-1023
att	-1024
▁fo	-1025
ably	-1026
▁Rost	-1027
▁stre	-1028
asha	-1029
ps	-1030
▁yes	-1031
ides	-1032
ace	-1033
▁Alexand	-1034
▁keep	-1035
ovitch	-1036
▁perf	-1037
ason	-1038
ceived	-1039
▁Pet	-1040
▁No	-1041
▁far	-1042
▁es	-1043
▁disc	-1044
▁table	-1045
▁fr	-1046
▁hard	-1047
▁days	-1048
▁interest	-1049
▁called	-1050
▁tre	-1051
▁sign	-1052
▁family	-1053
xt	-1054
▁each	-1055
▁nat	-1056
▁ill	-1057
▁adv	-1058
ants	-1059
ousand	-1060
▁bed	-1061
rawley	-1062
▁answered	-1063
▁work	-1064
▁Crawley	-1065
▁sure	-1066
▁evening	-1067
ower	-1068
used	-1069
aut	-1070
▁thousand	-1071
alked	-1072
▁sister	-1073
▁cond	-1074
▁lady	-1075
uck	-1076
▁If	-1077
▁sle	-1078
mit	-1079
de	-1080
▁Nat	-1081
▁din	-1082
▁ir	-1083
▁bus	-1084
He	-1085
▁really	-1086
▁best	-1087
▁leave	-1088
med	-1089
▁dep	-1090
arge	-1091
▁Anna	-1092
▁hear	-1093
▁Do	-1094
ka	-1095
ene	-1096
uring	-1097
▁Em	-1098
body	-1099
▁bro	-1100
▁friends	-1101
ont	-1102
▁compan	-1103
iet	-1104
▁suff	-1105
▁ext	-1106
▁fore	-1107
▁draw	-1108
▁four	-1109
▁tru	-1110
▁sou	-1111
▁among	-1112
▁prom	-1113
▁step	-1114
▁simp	-1115
cious	-1116
▁Rostov	-1117
ern	-1118
rel	-1119
▁gone	-1120
▁help	-1121
▁doubt	-1122
▁We	-1123
ures	-1124
▁dev	-1125
▁small	-1126
,--	-1127
itting	-1128
▁convers	-1129
ph	-1130
▁So	-1131
▁lad	-1132
▁whale	-1133
▁yourself	-1134
▁ut	-1135
onte	-1136
▁det	-1137
▁fact	-1138
▁enough	-1139
▁Natasha	-1140
lack	-1141
▁need	-1142
but	-1143
▁few	-1144
▁air	-1145
ieur	-1146
selves	-1147
▁Then	-1148
▁prop	-1149
ken	-1150
ER	-1151
▁ask	-1152
▁dro	-1153
▁mis	-1154
▁least	-1155
ser	-1156
airs	-1157
▁tra	-1158
▁forg	-1159
▁returned	-1160
aughter	-1161
▁bri	-1162
▁wish	-1163
▁general	-1164
▁order	-1165
▁Alexandrov	-1166
That	-1167
onsieur	-1168
orrow	-1169
▁Mor	-1170
▁whose	-1171
▁won	-1172
▁coming	-1173
Why	-1174
ash	-1175
▁indeed	-1176
uth	-1177
▁beh	-1178
fa	-1179
ndred	-1180
▁hope	-1181
oe	-1182
▁ran	-1183
▁meet	-1184
inal	-1185
▁eff	-1186
▁laugh	-1187
▁How	-1188
▁also	-1189
▁unc	-1190
▁hundred	-1191
▁play	-1192
▁times	-1193
room	-1194
othe	-1195
▁Russi	-1196
pr	-1197
▁mist	-1198
▁horse	-1199
▁till	-1200
▁bes	-1201
br	-1202
▁dire	-1203
▁Crist	-1204
enty	-1205
▁else	-1206
ached	-1207
ually	-1208
▁pret	-1209
ided	-1210
▁opp	-1211
aptain	-1212
▁arri	-1213
▁Monte	-1214
▁Cristo	-1215
▁cannot	-1216
▁less	-1217
▁given	-1218
dg	-1219
onsky	-1220
cted	-1221
.'	-1222
▁dark	-1223
▁visit	-1224
▁whether	-1225
▁run	-1226
bor	-1227
▁fellow	-1228
▁hold	-1229
▁For	-1230
▁Mos	-1231
▁strange	-1232
oc	-1233
▁stru	-1234
▁begin	-1235
▁wond	-1236
▁Am	-1237
▁behind	-1238
▁added	-1239
▁death	-1240
ets	-1241
▁use	-1242
▁evid	-1243
▁repe	-1244
▁continued	-1245
▁Her	-1246
▁Ville	-1247
HA	-1248
ude	-1249
▁high	-1250
▁gentleman	-1251
use	-1252
▁full	-1253
▁sound	-1254
Ah	-1255
arth	-1256
▁happy	-1257
cri	-1258
▁second	-1259
idd	-1260
ushed	-1261
▁Villefort	-1262
▁pol	-1263
▁ste	-1264
▁taking	-1265
▁conversation	-1266
ott	-1267
▁black	-1268
▁Captain	-1269
▁ru	-1270
▁lay	-1271
▁next	-1272
iment	-1273
▁position	-1274
aj	-1275
iously	-1276
▁met	-1277
▁Athos	-1278
▁saying	-1279
▁children	-1280
▁mad	-1281
arp	-1282
▁land	-1283
▁used	-1284
ung	-1285
▁mer	-1286
▁abs	-1287
ances	-1288
ments	-1289
▁exce	-1290
gether	-1291
▁respect	-1292
▁together	-1293
itya	-1294
▁fall	-1295
▁carriage	-1296
ught	-1297
ili	-1298
▁Ly	-1299
imes	-1300
▁command	-1301
TER	-1302
▁obser	-1303
▁cir	-1304
▁Mosc	-1305
▁often	-1306
▁quick	-1307
▁white	-1308
▁def	-1309
▁reason	-1310
ush	-1311
▁ang	-1312
▁char	-1313
▁pap	-1314
ible	-1315
▁shout	-1316
▁fin	-1317
▁true	-1318
▁entered	-1319
▁All	-1320
▁CHA	-1321
▁ready	-1322
▁Mitya	-1323
▁Moscow	-1324
ikov	-1325
li	-1326
you	-1327
illed	-1328
▁soul	-1329
▁master	-1330
▁Dor	-1331
irt	-1332
▁acqu	-1333
How	-1334
ards	-1335
othea	-1336
PTER	-1337
▁near	-1338
▁CHAPTER	-1339
,'	-1340
ngl	-1341
▁hur	-1342
▁Madame	-1343
▁sold	-1344
▁delight	-1345
▁kept	-1346
▁others	-1347
▁Engl	-1348
▁inqu	-1349
▁beaut	-1350
▁answer	-1351
▁instant	-1352
vel	-1353
▁Y	-1354
▁ten	-1355
ific	-1356
▁Dorothea	-1357
ctly	-1358
▁Son	-1359
cul	-1360
▁cal	-1361
nikov	-1362
▁adm	-1363
▁dinner	-1364
sh	-1365
▁fort	-1366
itty	-1367
ctor	-1368
▁idea	-1369
▁fur	-1370
▁conv	-1371
ronsky	-1372
▁along	-1373
▁eas	-1374
ans	-1375
iew	-1376
uz	-1377
ison	-1378
▁Vronsky	-1379
▁expression	-1380
amed	-1381
du	-1382
▁tou	-1383
▁real	-1384
▁large	-1385
▁differe	-1386
une	-1387
tered	-1388
▁making	-1389
▁expl	-1390
▁Re	-1391
antes	-1392
▁sing	-1393
bles	-1394
ee	-1395
▁Por	-1396
▁wanted	-1397
▁business	-1398
empt	-1399
▁hast	-1400
▁swe	-1401
▁pain	-1402
▁strong	-1403
▁short	-1404
elia	-1405
▁Sir	-1406
ility	-1407
▁perfect	-1408
▁particul	-1409
▁thir	-1410
▁Dantes	-1411
▁imag	-1412
▁sto	-1413
erous	-1414
▁fear	-1415
ized	-1416
▁leg	-1417
▁remember	-1418
▁art	-1419
▁became	-1420
fter	-1421
▁mur	-1422
▁tri	-1423
ingly	-1424
▁Alexey	-1425
▁opened	-1426
▁appeared	-1427
▁deep	-1428
▁however	-1429
orses	-1430
overed	-1431
▁dress	-1432
laim	-1433
▁secret	-1434
▁live	-1435
▁seeing	-1436
▁foot	-1437
to	-1438
cer	-1439
dgate	-1440
ended	-1441
▁Lydgate	-1442
▁possible	-1443
▁Kitty	-1444
▁surpr	-1445
ively	-1446
▁dead	-1447
▁disp	-1448
▁hair	-1449
▁lost	-1450
▁appro	-1451
ina	-1452
▁lo	-1453
▁bad	-1454
▁nor	-1455
▁pri	-1456
ising	-1457
▁Count	-1458
▁bring	-1459
oss	-1460
▁sum	-1461
▁circ	-1462
▁Albert	-1463
▁bar	-1464
ening	-1465
▁horses	-1466
▁known	-1467
▁appear	-1468
▁themselves	-1469
▁sn	-1470
▁glad	-1471
▁stud	-1472
▁women	-1473
▁turning	-1474
..."	-1475
medi	-1476
peror	-1477
mer	-1478
▁fire	-1479
▁Lord	-1480
ounded	-1481
▁five	-1482
▁spir	-1483
▁account	-1484
▁Now	-1485
▁terri	-1486
peri	-1487
arted	-1488
lars	-1489
▁town	-1490
▁country	-1491
▁officer	-1492
sp	-1493
▁walk	-1494
val	-1495
bon	-1496
▁Par	-1497
anglars	-1498
▁become	-1499
ety	-1500
▁...	-1501
▁honor	-1502
askol	-1503
▁prof	-1504
▁watch	-1505
▁worth	-1506
▁received	-1507
askolnikov	-1508
▁tone	-1509
ange	-1510
▁kiss	-1511
▁Danglars	-1512
▁dri	-1513
▁Raskolnikov	-1514
▁king	-1515
▁doing	-1516
▁daughter	-1517
▁prev	-1518
▁means	-1519
▁bu	-1520
▁sitting	-1521
▁six	-1522
▁close	-1523
▁case	-1524
eor	-1525
bed	-1526
▁held	-1527
▁To	-1528
▁contr	-1529
ates	-1530
▁subject	-1531
▁thinking	-1532
ages	-1533
▁desp	-1534
▁affect	-1535
▁low	-1536
▁fine	-1537
▁object	-1538
▁Joe	-1539
▁manner	-1540
▁une	-1541
▁Fran	-1542
▁soci	-1543
otion	-1544
ec	-1545
▁sleep	-1546
aven	-1547
▁prince	-1548
rupt	-1549
amond	-1550
▁stay	-1551
▁comple	-1552
▁tried	-1553
▁immedi	-1554
Th	-1555
omp	-1556
▁red	-1557
▁Will	-1558
▁drawing	-1559
▁Geor	-1560
▁ship	-1561
▁during	-1562
▁Why	-1563
▁ought	-1564
▁happened	-1565
don	-1566
ror	-1567
▁pat	-1568
▁unt	-1569
▁tears	-1570
aving	-1571
▁talking	-1572
by	-1573
bly	-1574
▁bur	-1575
ug	-1576
▁followed	-1577
outh	-1578
▁ground	-1579
asau	-1580
▁eye	-1581
▁Lady	-1582
▁chief	-1583
▁sight	-1584
raid	-1585
▁water	-1586
My	-1587
▁joy	-1588
itude	-1589
▁bit	-1590
▁import	-1591
▁consider	-1592
00	-1593
▁past	-1594
asaubon	-1595
▁cross	-1596
▁remain	-1597
▁remained	-1598
oor	-1599
▁My	-1600
▁ann	-1601
▁pay	-1602
▁fanc	-1603
▁window	-1604
▁Emperor	-1605
▁hat	-1606
▁creat	-1607
ract	-1608
▁quar	-1609
▁standing	-1610
iced	-1611
▁sit	-1612
▁cold	-1613
▁crow	-1614
▁Casaubon	-1615
▁arms	-1616
▁sun	-1617
▁month	-1618
▁power	-1619
▁spoke	-1620
▁opin	-1621
▁excell	-1622
▁prep	-1623
odor	-1624
yodor	-1625
ead	-1626
▁afraid	-1627
▁blood	-1628
oon	-1629
▁mem	-1630
▁Ivanovna	-1631
eth	-1632
ime	-1633
▁sk	-1634
▁fav	-1635
ously	-1636
▁truth	-1637
▁Fyodor	-1638
▁stopped	-1639
ef	-1640
▁par	-1641
ities	-1642
▁rose	-1643
▁simply	-1644
mbl	-1645
...."	-1646
▁peas	-1647
of	-1648
▁stra	-1649
▁regard	-1650
▁book	-1651
unt	-1652
▁di	-1653
itted	-1654
akes	-1655
▁dra	-1656
II	-1657
ames	-1658
▁resol	-1659
pping	-1660
where	-1661
▁requ	-1662
▁ladies	-1663
▁walked	-1664
▁either	-1665
▁speaking	-1666
iful	-1667
▁cut	-1668
▁dr	-1669
ield	-1670
ored	-1671
ented	-1672
▁Franz	-1673
▁sea	-1674
▁After	-1675
▁sometimes	-1676
ote	-1677
▁sever	-1678
rink	-1679
▁necess	-1680
▁anx	-1681
rig	-1682
▁Nap	-1683
▁est	-1684
▁different	-1685
ceed	-1686
▁George	-1687
ident	-1688
▁sy	-1689
pend	-1690
▁army	-1691
▁card	-1692
cially	-1693
▁ele	-1694
▁twenty	-1695
ape	-1696
▁emb	-1697
▁crowd	-1698
der	-1699
▁"'	-1700
▁didn	-1701
▁gentlemen	-1702
▁Alexandrovitch	-1703
bur	-1704
▁col	-1705
▁lips	-1706
▁Princess	-1707
▁pleasure	-1708
ices	-1709
anged	-1710
▁whis	-1711
ination	-1712
▁pray	-1713
▁show	-1714
▁sense	-1715
ony	-1716
▁Sh	-1717
▁move	-1718
mitri	-1719
▁year	-1720
▁impos	-1721
▁except	-1722
▁immediately	-1723
ek	-1724
ins	-1725
▁quiet	-1726
alth	-1727
▁batt	-1728
▁late	-1729
vern	-1730
▁Fred	-1731
▁above	-1732
▁gre	-1733
▁suppose	-1734
arent	-1735
ency	-1736
ging	-1737
▁Cad	-1738
▁pale	-1739
▁tran	-1740
ased	-1741
head	-1742
▁doctor	-1743
▁Porthos	-1744
▁ca	-1745
▁One	-1746
▁self	-1747
▁Dmitri	-1748
ats	-1749
▁mere	-1750
▁silent	-1751
▁getting	-1752
nce	-1753
amm	-1754
▁Is	-1755
▁feet	-1756
▁steps	-1757
erm	-1758
ogn	-1759
cing	-1760
ixed	-1761
▁eng	-1762
▁complete	-1763
▁repeated	-1764
ster	-1765
▁dut	-1766
▁spite	-1767
▁pretty	-1768
law	-1769
ump	-1770
▁Wh	-1771
arch	-1772
▁satis	-1773
If	-1774
▁chair	-1775
ah	-1776
▁esc	-1777
▁struck	-1778
▁war	-1779
ement	-1780
▁enem	-1781
▁silence	-1782
ois	-1783
gr	-1784
ane	-1785
rus	-1786
▁law	-1787
▁pock	-1788
▁dream	-1789
▁gaz	-1790
▁rid	-1791
oleon	-1792
orn	-1793
ches	-1794
▁fing	-1795
Do	-1796
acter	-1797
clock	-1798
▁English	-1799
wh	-1800
▁Os	-1801
▁tend	-1802
▁trou	-1803
▁wall	-1804
▁living	-1805
oly	-1806
▁itself	-1807
▁mention	-1808
het	-1809
resh	-1810
ically	-1811
▁const	-1812
▁Russian	-1813
▁smiling	-1814
▁princess	-1815
▁character	-1816
for	-1817
ieu	-1818
▁deal	-1819
▁occas	-1820
▁fright	-1821
▁wished	-1822
awdon	-1823
▁Osbor	-1824
▁glass	-1825
▁minute	-1826
▁slight	-1827
▁jo	-1828
▁cou	-1829
▁With	-1830
▁service	-1831
▁Napoleon	-1832
terday	-1833
▁several	-1834
▁ce	-1835
▁sad	-1836
▁free	-1837
▁certainly	-1838
cca	-1839
pid	-1840
▁front	-1841
iddle	-1842
▁usual	-1843
▁longer	-1844
als	-1845
ient	-1846
▁loved	-1847
▁Rawdon	-1848
pecially	-1849
bit	-1850
▁scar	-1851
▁Osborne	-1852
▁mus	-1853
▁able	-1854
▁wonder	-1855
ring	-1856
▁inn	-1857
antly	-1858
▁please	-1859
uff	-1860
There	-1861
que	-1862
▁send	-1863
▁mil	-1864
▁jud	-1865
▁company	-1866
ots	-1867
▁div	-1868
▁eld	-1869
▁und	-1870
▁within	-1871
▁drew	-1872
▁opinion	-1873
ural	-1874
▁view	-1875
▁breat	-1876
▁Morrel	-1877
▁circum	-1878
▁says	-1879
▁married	-1880
▁wait	-1881
▁straight	-1882
ki	-1883
what	-1884
▁clear	-1885
olas	-1886
▁Pav	-1887
▁purp	-1888
▁break	-1889
▁occup	-1890
▁state	-1891
rance	-1892
▁forward	-1893
lli	-1894
▁ball	-1895
▁quickly	-1896
ager	-1897
amis	-1898
urch	-1899
▁fif	-1900
▁refle	-1901
▁inform	-1902
becca	-1903
ution	-1904
icholas	-1905
evitch	-1906
▁wrong	-1907
▁impossible	-1908
iers	-1909
sess	-1910
▁Chap	-1911
▁shouted	-1912
alent	-1913
▁attention	-1914
▁Chapter	-1915
▁possess	-1916
eness	-1917
▁Pavl	-1918
▁Amelia	-1919
▁Rebecca	-1920
▁waiting	-1921
▁ve	-1922
▁fool	-1923
▁hardly	-1924
utes	-1925
▁utter	-1926
▁captain	-1927
▁laughing	-1928
▁gard	-1929
▁port	-1930
▁earth	-1931
▁knows	-1932
▁moved	-1933
▁forget	-1934
▁ast	-1935
▁trying	-1936
ket	-1937
▁prov	-1938
▁Paris	-1939
▁med	-1940
laimed	-1941
morrow	-1942
▁cardinal	-1943
▁terrible	-1944
▁story	-1945
▁Aramis	-1946
▁recogn	-1947
▁evidently	-1948
▁especially	-1949
▁mut	-1950
▁yesterday	-1951
▁grand	-1952
▁smiled	-1953
▁Nicholas	-1954
▁happiness	-1955
▁ago	-1956
▁change	-1957
isted	-1958
ney	-1959
sequ	-1960
▁Ark	-1961
▁Ros	-1962
▁wis	-1963
▁sail	-1964
though	-1965
▁effect	-1966
cend	-1967
▁society	-1968
oom	-1969
▁Well	-1970
▁gall	-1971
▁road	-1972
▁thoughts	-1973
lled	-1974
▁countess	-1975
▁soft	-1976
▁warm	-1977
▁rapid	-1978
ub	-1979
▁Bon	-1980
ceive	-1981
▁prob	-1982
▁bene	-1983
hin	-1984
▁hop	-1985
cely	-1986
▁Mus	-1987
▁Pitt	-1988
ressing	-1989
▁Oh	-1990
▁Arkady	-1991
▁dem	-1992
oving	-1993
▁dest	-1994
▁circumst	-1995
ching	-1996
▁Anne	-1997
▁expected	-1998
▁bott	-1999
fied	-2000
▁apart	-2001
▁dread	-2002
itation	-2003
ital	-2004
▁marriage	-2005
▁Bor	-2006
ajest	-2007
▁remark	-2008
aged	-2009
like	-2010
▁sol	-2011
▁King	-2012
▁meant	-2013
agg	-2014
▁ph	-2015
▁mine	-2016
▁pull	-2017
idence	-2018
▁learn	-2019
▁until	-2020
▁afterwards	-2021
▁understood	-2022
▁forgot	-2023
▁prison	-2024
over	-2025
▁placed	-2026
▁presence	-2027
ops	-2028
▁hours	-2029
▁regiment	-2030
▁que	-2031
▁comfort	-2032
▁fig	-2033
▁devil	-2034
▁ed	-2035
ters	-2036
ining	-2037
▁heaven	-2038
▁noticed	-2039
▁sett	-2040
▁corner	-2041
▁seems	-2042
vere	-2043
▁equ	-2044
▁body	-2045
▁cause	-2046
▁anyone	-2047
▁everyone	-2048
ron	-2049
▁fre	-2050
▁human	-2051
▁carried	-2052
▁Monsieur	-2053
▁feelings	-2054
▁arran	-2055
▁eight	-2056
▁toward	-2057
▁beautiful	-2058
We	-2059
ple	-2060
anced	-2061
▁instead	-2062
ok	-2063
eng	-2064
ghed	-2065
▁gri	-2066
▁obl	-2067
▁nature	-2068
ustom	-2069
▁news	-2070
oint	-2071
▁cry	-2072
▁acquaint	-2073
▁contrary	-2074
▁charm	-2075
▁fixed	-2076
uc	-2077
land	-2078
▁Mil	-2079
▁pen	-2080
▁battle	-2081
▁minutes	-2082
▁therefore	-2083
▁Father	-2084
▁occasion	-2085
asp	-2086
▁bra	-2087
▁arrived	-2088
▁beginning	-2089
▁agree	-2090
▁orders	-2091
▁exclaimed	-2092
omm	-2093
▁sch	-2094
▁reached	-2095
▁av	-2096
▁calm	-2097
▁reply	-2098
▁conscious	-2099
▁pu	-2100
ales	-2101
▁Step	-2102
▁bright	-2103
▁stri	-2104
▁vill	-2105
erousse	-2106
▁talked	-2107
▁interrupt	-2108
Not	-2109
wor	-2110
▁mouth	-2111
bered	-2112
▁entire	-2113
alentine	-2114
let	-2115
▁fut	-2116
inary	-2117
▁bear	-2118
▁dang	-2119
▁marry	-2120
▁pocket	-2121
hov	-2122
▁Not	-2123
▁mod	-2124
▁angry	-2125
▁desire	-2126
▁led	-2127
▁Stepan	-2128
▁former	-2129
▁Caderousse	-2130
ize	-2131
▁pict	-2132
ular	-2133
▁spo	-2134
iled	-2135
icult	-2136
▁thus	-2137
▁giving	-2138
▁du	-2139
▁tem	-2140
ledge	-2141
▁accord	-2142
▁around	-2143
Then	-2144
▁num	-2145
▁lead	-2146
▁fresh	-2147
▁fortune	-2148
▁eager	-2149
▁appearance	-2150
▁Arkadyevitch	-2151
▁observed	-2152
ler	-2153
onel	-2154
▁servant	-2155
▁Valentine	-2156
▁vi	-2157
▁Let	-2158
▁gold	-2159
▁paper	-2160
▁tender	-2161
eal	-2162
▁Pe	-2163
▁try	-2164
▁conc	-2165
▁enemy	-2166
▁Rosamond	-2167
uzov	-2168
▁neigh	-2169
▁spirit	-2170
tern	-2171
aterina	-2172
▁confess	-2173
▁laughed	-2174
▁Kut	-2175
▁Mar	-2176
▁lif	-2177
ative	-2178
▁court	-2179
▁showed	-2180
▁duty	-2181
▁scarcely	-2182
che	-2183
▁enj	-2184
▁compl	-2185
▁later	-2186
▁future	-2187
▁garden	-2188
burg	-2189
▁faith	-2190
▁pie	-2191
▁line	-2192
how	-2193
▁hot	-2194
▁squ	-2195
usion	-2196
ancing	-2197
▁bir	-2198
▁die	-2199
amber	-2200
ience	-2201
▁host	-2202
▁beside	-2203
▁chance	-2204
▁Kutuzov	-2205
umed	-2206
▁coll	-2207
▁plain	-2208
▁Sonya	-2209
▁listened	-2210
▁necessary	-2211
▁knowing	-2212
bo	-2213
▁De	-2214
cliff	-2215
ected	-2216
▁sens	-2217
▁purpose	-2218
▁dog	-2219
ville	-2220
▁elder	-2221
▁streng	-2222
dm	-2223
old	-2224
bbin	-2225
▁peace	-2226
▁soldiers	-2227
▁neck	-2228
ines	-2229
athcliff	-2230
▁sake	-2231
▁weak	-2232
▁Dobbin	-2233
▁consequ	-2234
ray	-2235
▁fat	-2236
▁plan	-2237
▁publ	-2238
▁Every	-2239
▁enjoy	-2240
▁raised	-2241
▁Katerina	-2242
She	-2243
▁coat	-2244
▁fair	-2245
erv	-2246
▁Tre	-2247
▁cast	-2248
▁fran	-2249
elle	-2250
▁box	-2251
app	-2252
▁laid	-2253
▁wine	-2254
▁conce	-2255
mp	-2256
spect	-2257
▁fond	-2258
▁condu	-2259
▁third	-2260
▁sal	-2261
aching	-2262
▁write	-2263
rit	-2264
ounds	-2265
▁fast	-2266
▁months	-2267
▁Bro	-2268
ccess	-2269
▁firm	-2270
▁slow	-2271
▁oppos	-2272
▁Peters	-2273
▁creature	-2274
akov	-2275
▁Lint	-2276
▁rich	-2277
▁sweet	-2278
▁surprise	-2279
▁perfectly	-2280
ax	-2281
hood	-2282
olly	-2283
▁priv	-2284
▁allow	-2285
urs	-2286
teen	-2287
▁comes	-2288
▁experi	-2289
▁further	-2290
▁Heathcliff	-2291
cial	-2292
oned	-2293
icked	-2294
▁kill	-2295
▁aston	-2296
▁liked	-2297
▁important	-2298
▁drun	-2299
▁pecul	-2300
▁heav	-2301
ission	-2302
▁latter	-2303
▁difficult	-2304
oman	-2305
▁cler	-2306
▁peculi	-2307
▁Petersburg	-2308
dy	-2309
▁note	-2310
▁post	-2311
▁exist	-2312
▁remembered	-2313
eks	-2314
bled	-2315
▁easy	-2316
amma	-2317
ishment	-2318
▁Petrov	-2319
▁trembl	-2320
ains	-2321
▁pity	-2322
ajesty	-2323
Is	-2324
bs	-2325
ners	-2326
▁accept	-2327
ilt	-2328
ker	-2329
aled	-2330
▁cra	-2331
▁Here	-2332
ctions	-2333
▁Christ	-2334
▁Linton	-2335
▁street	-2336
▁handsome	-2337
Come	-2338
▁lod	-2339
▁infl	-2340
▁common	-2341
▁glance	-2342
▁particularly	-2343
fe	-2344
▁favor	-2345
▁Brooke	-2346
kn	-2347
aded	-2348
▁tro	-2349
emois	-2350
▁purs	-2351
▁killed	-2352
▁pleased	-2353
▁Sed	-2354
▁youth	-2355
nat	-2356
oose	-2357
▁rev	-2358
▁effort	-2359
emoiselle	-2360
▁hig	-2361
▁boat	-2362
▁prin	-2363
▁sick	-2364
▁concl	-2365
▁Sedley	-2366
und	-2367
▁Yes	-2368
henka	-2369
osing	-2370
▁lying	-2371
▁belong	-2372
▁stranger	-2373
In	-2374
ms	-2375
oh	-2376
▁hist	-2377
▁across	-2378
▁tor	-2379
▁wat	-2380
▁descri	-2381
▁decided	-2382
▁hid	-2383
▁sor	-2384
▁val	-2385
▁wit	-2386
▁wood	-2387
▁determ	-2388
▁simple	-2389
▁changed	-2390
▁meeting	-2391
▁Alexandrovna	-2392
read	-2393
side	-2394
▁ash	-2395
▁lab	-2396
▁wild	-2397
▁figure	-2398
ny	-2399
els	-2400
▁Nik	-2401
▁prot	-2402
erable	-2403
▁mount	-2404
▁holding	-2405
▁monsieur	-2406
▁affection	-2407
To	-2408
▁imm	-2409
itten	-2410
retched	-2411
▁lie	-2412
▁gate	-2413
bility	-2414
▁extre	-2415
▁impress	-2416
▁oblig	-2417
▁govern	-2418
▁noble	-2419
▁party	-2420
▁depart	-2421
▁believed	-2422
hold	-2423
yond	-2424
▁enc	-2425
▁var	-2426
ompan	-2427
▁exam	-2428
▁lived	-2429
▁broken	-2430
▁closed	-2431
▁wounded	-2432
▁sole	-2433
▁counten	-2434
▁pun	-2435
▁thy	-2436
▁enter	-2437
▁besides	-2438
▁success	-2439
Now	-2440
uss	-2441
▁Don	-2442
ified	-2443
▁leng	-2444
▁loud	-2445
▁coach	-2446
par	-2447
upid	-2448
▁exa	-2449
▁drink	-2450
▁floor	-2451
▁strength	-2452
gy	-2453
ues	-2454
cerf	-2455
▁cre	-2456
chief	-2457
▁beyond	-2458
▁natural	-2459
ieux	-2460
ounced	-2461
▁sorry	-2462
rushenka	-2463
▁reading	-2464
▁Treville	-2465
aff	-2466
▁cand	-2467
▁Sonia	-2468
▁alarm	-2469
▁aware	-2470
▁start	-2471
▁notice	-2472
▁Morcerf	-2473
▁leaving	-2474
▁serious	-2475
▁trouble	-2476
co	-2477
arr	-2478
aining	-2479
▁attack	-2480
▁nearly	-2481
▁covered	-2482
▁everybody	-2483
▁viol	-2484
▁cheer	-2485
▁caught	-2486
▁excellency	-2487
ajor	-2488
▁age	-2489
▁study	-2490
▁treat	-2491
▁intell	-2492
▁promise	-2493
hip	-2494
ume	-2495
uous	-2496
night	-2497
▁uneas	-2498
▁worse	-2499
▁wrote	-2500
▁action	-2501
▁public	-2502
▁questions	-2503
hab	-2504
▁health	-2505
▁school	-2506
?'	-2507
ls	-2508
sky	-2509
▁length	-2510
▁win	-2511
ision	-2512
▁jour	-2513
▁although	-2514
dd	-2515
▁por	-2516
▁Lond	-2517
▁legs	-2518
▁Grushenka	-2519
come	-2520
orted	-2521
▁spot	-2522
ashion	-2523
esides	-2524
ushing	-2525
▁putting	-2526
▁Gu	-2527
hale	-2528
▁prec	-2529
▁ring	-2530
▁susp	-2531
ishing	-2532
▁inquir	-2533
atherine	-2534
ics	-2535
▁Bar	-2536
▁shut	-2537
cience	-2538
▁occur	-2539
▁officers	-2540
appe	-2541
pper	-2542
osity	-2543
anging	-2544
▁likely	-2545
▁listen	-2546
▁passion	-2547
▁tea	-2548
▁proud	-2549
▁accompan	-2550
▁shoulders	-2551
rode	-2552
enced	-2553
itary	-2554
▁incl	-2555
▁lean	-2556
▁neither	-2557
▁peculiar	-2558
▁acquaintance	-2559
ella	-2560
▁rou	-2561
▁died	-2562
atever	-2563
▁gloom	-2564
▁passing	-2565
▁Dol	-2566
▁Lou	-2567
duced	-2568
▁London	-2569
▁affair	-2570
▁merely	-2571
▁dressed	-2572
ests	-2573
▁Bri	-2574
▁adj	-2575
avish	-2576
▁countenance	-2577
otr	-2578
ignor	-2579
▁anim	-2580
▁paid	-2581
▁servants	-2582
▁Fyodorovitch	-2583
▁Raz	-2584
▁mid	-2585
ality	-2586
ortun	-2587
pered	-2588
▁bound	-2589
▁convin	-2590
▁entirely	-2591
▁forgotten	-2592
iver	-2593
lend	-2594
So	-2595
▁Pip	-2596
▁dism	-2597
▁fight	-2598
▁possi	-2599
▁interrupted	-2600
ech	-2601
kin	-2602
▁Py	-2603
ocked	-2604
▁Razum	-2605
▁contempt	-2606
rid	-2607
▁ear	-2608
▁clot	-2609
▁bless	-2610
▁fancy	-2611
▁sword	-2612
▁fal	-2613
▁blue	-2614
▁disg	-2615
▁Milady	-2616
▁kissed	-2617
▁despair	-2618
▁meaning	-2619
▁Catherine	-2620
▁demand	-2621
▁stupid	-2622
ihin	-2623
ires	-2624
onsense	-2625
▁considered	-2626
▁running	-2627
▁completely	-2628
!'	-2629
rage	-2630
▁Razumihin	-2631
▁knowledge	-2632
▁Mademoiselle	-2633
▁cru	-2634
ealous	-2635
▁threw	-2636
▁church	-2637
fast	-2638
ested	-2639
acieux	-2640
▁advant	-2641
▁affairs	-2642
▁ordered	-2643
▁Bonacieux	-2644
▁Bul	-2645
▁probably	-2646
ope	-2647
▁burn	-2648
▁conn	-2649
▁filled	-2650
▁touched	-2651
▁distance	-2652
▁commander	-2653
This	-2654
kete	-2655
▁gun	-2656
▁furn	-2657
▁grew	-2658
▁Pyotr	-2659
▁habit	-2660
ries	-2661
wise	-2662
▁From	-2663
▁none	-2664
▁Nikol	-2665
▁drove	-2666
▁opposite	-2667
▁Ag	-2668
▁dare	-2669
▁iron	-2670
▁burst	-2671
▁polit	-2672
▁spent	-2673
▁trans	-2674
▁distin	-2675
▁Muskete	-2676
▁peasant	-2677
mn	-2678
▁resp	-2679
▁makes	-2680
▁recoll	-2681
▁Pl	-2682
▁Ger	-2683
▁faces	-2684
▁intro	-2685
▁shame	-2686
▁ashamed	-2687
aud	-2688
athy	-2689
aval	-2690
enis	-2691
▁unp	-2692
▁Boris	-2693
▁bowed	-2694
▁early	-2695
▁seven	-2696
avisham	-2697
▁Though	-2698
▁follow	-2699
cky	-2700
ggs	-2701
arer	-2702
ship	-2703
▁Whale	-2704
▁extreme	-2705
▁proceed	-2706
▁pa	-2707
▁fle	-2708
dmond	-2709
▁cost	-2710
▁dign	-2711
▁field	-2712
▁ideas	-2713
▁anxious	-2714
▁forgive	-2715
▁Havisham	-2716
▁pal	-2717
ashed	-2718
strode	-2719
▁recall	-2720
▁seized	-2721
▁Per	-2722
▁bank	-2723
▁super	-2724
▁glanced	-2725
▁telling	-2726
do	-2727
cks	-2728
▁By	-2729
▁avo	-2730
worth	-2731
▁cent	-2732
ection	-2733
▁extra	-2734
▁offer	-2735
▁asking	-2736
▁beauty	-2737
▁hurried	-2738
▁Ah	-2739
iety	-2740
▁fit	-2741
▁kne	-2742
▁bell	-2743
▁tast	-2744
▁week	-2745
ton	-2746
▁admir	-2747
▁guard	-2748
▁looks	-2749
▁queen	-2750
▁sharp	-2751
▁commun	-2752
▁apparent	-2753
▁Bulstrode	-2754
osp	-2755
▁Of	-2756
▁Sp	-2757
hand	-2758
fortun	-2759
ration	-2760
▁Denis	-2761
▁James	-2762
▁delic	-2763
▁pract	-2764
▁bitter	-2765
▁village	-2766
▁written	-2767
look	-2768
oted	-2769
itable	-2770
▁separ	-2771
▁speech	-2772
▁Petrovitch	-2773
▁frightened	-2774
ned	-2775
onst	-2776
oured	-2777
▁Becky	-2778
▁decla	-2779
▁influ	-2780
▁splend	-2781
▁listening	-2782
▁ta	-2783
▁fun	-2784
aling	-2785
ories	-2786
▁broke	-2787
▁single	-2788
▁journey	-2789
▁promised	-2790
▁circumstances	-2791
▁Tom	-2792
istol	-2793
▁easily	-2794
▁learned	-2795
▁peasants	-2796
she	-2797
▁fro	-2798
▁pac	-2799
▁maid	-2800
stairs	-2801
▁girls	-2802
▁terror	-2803
▁persons	-2804
▁inquired	-2805
aves	-2806
lling	-2807
erence	-2808
▁Edmond	-2809
▁Denisov	-2810
▁fingers	-2811
▁jealous	-2812
▁greatest	-2813
▁pleasant	-2814
▁Some	-2815
▁thin	-2816
itated	-2817
▁grave	-2818
▁thick	-2819
▁sorrow	-2820
▁opportun	-2821
▁companion	-2822
Don	-2823
arily	-2824
▁fault	-2825
▁attend	-2826
▁finished	-2827
go	-2828
io	-2829
oget	-2830
▁escape	-2831
▁pistol	-2832
▁started	-2833
▁particular	-2834
my	-2835
ys	-2836
ives	-2837
▁big	-2838
▁proc	-2839
▁begun	-2840
▁strugg	-2841
▁suspic	-2842
▁letters	-2843
▁uttered	-2844
▁shoulder	-2845
▁presented	-2846
acy	-2847
ament	-2848
▁cous	-2849
▁harm	-2850
▁fashion	-2851
izing	-2852
known	-2853
▁Only	-2854
tering	-2855
▁middle	-2856
▁slowly	-2857
▁spoken	-2858
▁Majesty	-2859
▁condition	-2860
itc	-2861
ises	-2862
▁Vas	-2863
▁fly	-2864
while	-2865
gged	-2866
race	-2867
rove	-2868
uded	-2869
▁eat	-2870
▁seat	-2871
itions	-2872
▁Pavlovitch	-2873
ades	-2874
ails	-2875
▁soldier	-2876
▁surprised	-2877
▁hung	-2878
▁vict	-2879
▁drunk	-2880
▁forth	-2881
▁walking	-2882
▁awa	-2883
▁suc	-2884
▁top	-2885
okhov	-2886
▁bent	-2887
▁sofa	-2888
▁awful	-2889
▁innoc	-2890
▁princi	-2891
▁arrival	-2892
▁succeed	-2893
rop	-2894
▁Le	-2895
They	-2896
▁deg	-2897
▁grat	-2898
▁breath	-2899
▁Besides	-2900
▁conduct	-2901
▁expressed	-2902
▁following	-2903
▁suffering	-2904
rest	-2905
ences	-2906
▁abbe	-2907
▁Garth	-2908
▁guess	-2909
▁rushed	-2910
▁wouldn	-2911
▁Dolokhov	-2912
▁muttered	-2913
▁whispered	-2914
ays	-2915
▁Col	-2916
▁alt	-2917
▁unable	-2918
▁descend	-2919
ges	-2920
happ	-2921
▁Ahab	-2922
▁rode	-2923
▁force	-2924
▁clever	-2925
▁someone	-2926
▁according	-2927
▁Vin	-2928
ardon	-2929
▁disappe	-2930
▁obliged	-2931
▁occupied	-2932
▁prepared	-2933
ism	-2934
udd	-2935
▁den	-2936
▁beat	-2937
▁bill	-2938
▁formed	-2939
▁honest	-2940
▁dropped	-2941
▁roubles	-2942
ts	-2943
aren	-2944
evna	-2945
▁murd	-2946
ogether	-2947
▁number	-2948
▁hearing	-2949
▁hes	-2950
faction	-2951
▁private	-2952
▁special	-2953
?--	-2954
ius	-2955
▁mel	-2956
oseph	-2957
▁brid	-2958
▁mess	-2959
▁Vincy	-2960
▁scene	-2961
▁directly	-2962
▁mentioned	-2963
Let	-2964
▁Me	-2965
angu	-2966
ases	-2967
arked	-2968
▁symp	-2969
iction	-2970
itchen	-2971
▁franc	-2972
▁heavy	-2973
▁worthy	-2974
▁delighted	-2975
▁relations	-2976
wo	-2977
axim	-2978
lace	-2979
▁bab	-2980
▁mir	-2981
▁nice	-2982
▁Briggs	-2983
▁attempt	-2984
▁Ind	-2985
▁Ser	-2986
merdy	-2987
▁beha	-2988
▁cart	-2989
▁educ	-2990
▁empt	-2991
▁main	-2992
▁Dolly	-2993
▁moving	-2994
▁seated	-2995
▁chamber	-2996
▁whatever	-2997
Who	-2998
asc	-2999
olk	-3000
ists	-3001
rate	-3002
▁sho	-3003
▁camp	-3004
▁intim	-3005
▁report	-3006
▁profess	-3007
Good	-3008
ator	-3009
cher	-3010
ince	-3011
▁lose	-3012
▁murm	-3013
▁spring	-3014
▁allowed	-3015
▁excited	-3016
▁passage	-3017
merdyakov	-3018
!--	-3019
ric	-3020
▁Ste	-3021
iling	-3022
▁earn	-3023
▁mort	-3024
▁thank	-3025
▁imagine	-3026
▁breakfast	-3027
road	-3028
▁drive	-3029
▁shook	-3030
▁brilli	-3031
▁francs	-3032
▁kitchen	-3033
▁propert	-3034
▁nonsense	-3035
▁opportunity	-3036
rum	-3037
▁Come	-3038
▁auth	-3039
▁path	-3040
▁save	-3041
▁timid	-3042
▁assist	-3043
▁unhapp	-3044
▁mistress	-3045
▁convinced	-3046
▁confidence	-3047
uls	-3048
▁agre	-3049
▁stop	-3050
▁uncle	-3051
▁rising	-3052
▁history	-3053
▁settled	-3054
▁charming	-3055
▁mo	-3056
arsh	-3057
▁wide	-3058
perior	-3059
▁Louis	-3060
▁pride	-3061
▁yours	-3062
▁depend	-3063
▁obtain	-3064
▁perform	-3065
▁Smerdyakov	-3066
ze	-3067
Your	-3068
leep	-3069
olog	-3070
▁Jos	-3071
▁bow	-3072
▁cab	-3073
▁van	-3074
▁baron	-3075
▁sides	-3076
▁France	-3077
▁movement	-3078
▁determined	-3079
▁band	-3080
▁These	-3081
▁anger	-3082
▁gazed	-3083
▁ignor	-3084
▁repro	-3085
now	-3086
▁neg	-3087
light	-3088
▁grief	-3089
▁German	-3090
▁Joseph	-3091
▁madame	-3092
▁clothes	-3093
usted	-3094
▁scre	-3095
▁thee	-3096
▁touch	-3097
▁property	-3098
ham	-3099
ubb	-3100
▁El	-3101
▁meas	-3102
▁regret	-3103
▁retreat	-3104
rud	-3105
▁ver	-3106
irtier	-3107
stella	-3108
▁carry	-3109
▁memory	-3110
▁motion	-3111
kerchief	-3112
▁England	-3113
▁continually	-3114
atic	-3115
▁harp	-3116
▁haste	-3117
▁piece	-3118
▁Nikolay	-3119
On	-3120
abl	-3121
▁pi	-3122
▁fet	-3123
using	-3124
▁false	-3125
▁asleep	-3126
▁distur	-3127
▁clearly	-3128
▁exactly	-3129
▁matters	-3130
athe	-3131
ones	-3132
umph	-3133
▁lim	-3134
iform	-3135
owers	-3136
▁jump	-3137
▁unex	-3138
▁fifty	-3139
▁Vasili	-3140
▁offered	-3141
▁trembling	-3142
oming	-3143
▁yell	-3144
▁green	-3145
▁proper	-3146
▁uniform	-3147
▁Noirtier	-3148
▁excellent	-3149
ior	-3150
bers	-3151
ustri	-3152
▁nose	-3153
▁ones	-3154
▁vent	-3155
▁Andre	-3156
▁disapp	-3157
▁papers	-3158
▁suffer	-3159
▁advantage	-3160
▁Go	-3161
▁mass	-3162
▁pack	-3163
▁surr	-3164
▁police	-3165
▁threat	-3166
▁Herbert	-3167
▁addressing	-3168
▁Lad	-3169
▁smo	-3170
cient	-3171
▁Beau	-3172
▁exec	-3173
▁tall	-3174
▁gallop	-3175
▁writing	-3176
▁splendid	-3177
▁watching	-3178
▁Who	-3179
▁ant	-3180
Where	-3181
▁curi	-3182
iments	-3183
▁grown	-3184
▁impat	-3185
▁solemn	-3186
▁troops	-3187
▁waited	-3188
▁explain	-3189
▁quarter	-3190
▁agreeable	-3191
ague	-3192
▁ben	-3193
ounia	-3194
▁Elli	-3195
▁bare	-3196
▁appre	-3197
▁knees	-3198
▁Russia	-3199
▁coun	-3200
▁chest	-3201
▁various	-3202
▁altogether	-3203
ib	-3204
chant	-3205
islaw	-3206
▁hunt	-3207
▁bread	-3208
ception	-3209
▁Guards	-3210
▁finger	-3211
▁result	-3212
▁Estella	-3213
▁greater	-3214
▁spirits	-3215
uk	-3216
iod	-3217
roy	-3218
set	-3219
uee	-3220
▁ris	-3221
iliar	-3222
under	-3223
▁evil	-3224
▁Maxim	-3225
▁twice	-3226
▁engaged	-3227
▁witness	-3228
▁communic	-3229
▁instantly	-3230
▁har	-3231
▁pet	-3232
▁blame	-3233
▁trave	-3234
ustomed	-3235
▁receive	-3236
vey	-3237
asons	-3238
ounce	-3239
utely	-3240
▁Anat	-3241
▁Your	-3242
▁pref	-3243
pected	-3244
▁relig	-3245
osition	-3246
▁intention	-3247
St	-3248
aped	-3249
arya	-3250
erve	-3251
ingu	-3252
queg	-3253
▁wid	-3254
iding	-3255
▁incre	-3256
▁music	-3257
▁stern	-3258
ueequeg	-3259
▁Elliot	-3260
▁voices	-3261
▁whales	-3262
▁Ladislaw	-3263
!...	-3264
ilian	-3265
▁Sper	-3266
▁mill	-3267
▁tong	-3268
ainted	-3269
▁cloud	-3270
▁langu	-3271
▁couldn	-3272
▁cousin	-3273
▁forced	-3274
▁happen	-3275
▁windows	-3276
▁curiosity	-3277
▁Fe	-3278
anch	-3279
sell	-3280
eping	-3281
▁hint	-3282
▁reck	-3283
▁aband	-3284
▁books	-3285
▁frown	-3286
▁irrit	-3287
▁judge	-3288
▁teeth	-3289
▁neighb	-3290
▁Anatole	-3291
▁discuss	-3292
▁keeping	-3293
▁rapidly	-3294
▁Sm	-3295
▁da	-3296
▁id	-3297
ploy	-3298
▁gen	-3299
▁coff	-3300
▁vain	-3301
ceiving	-3302
▁Dounia	-3303
▁caused	-3304
▁danger	-3305
▁horror	-3306
▁period	-3307
▁approached	-3308
aked	-3309
▁unf	-3310
▁broad	-3311
▁author	-3312
▁distingu	-3313
▁entertain	-3314
hel	-3315
▁miss	-3316
▁Where	-3317
▁dying	-3318
▁stairs	-3319
son	-3320
zen	-3321
▁arg	-3322
inite	-3323
▁ears	-3324
▁rooms	-3325
▁stone	-3326
▁moments	-3327
▁shaking	-3328
▁remarked	-3329
▁influence	-3330
All	-3331
case	-3332
with	-3333
▁cho	-3334
▁cheerful	-3335
▁occurred	-3336
▁carefully	-3337
▁Mer	-3338
▁ves	-3339
▁lord	-3340
▁nerv	-3341
ateful	-3342
▁thirty	-3343
▁opening	-3344
rim	-3345
▁Celia	-3346
▁landl	-3347
▁persu	-3348
▁ceased	-3349
▁employ	-3350
▁suffic	-3351
▁arrange	-3352
▁quietly	-3353
▁impression	-3354
▁Cl	-3355
▁Ne	-3356
▁catch	-3357
▁lower	-3358
▁noise	-3359
▁indiff	-3360
▁courage	-3361
▁dignity	-3362
▁unknown	-3363
▁kindness	-3364
▁dim	-3365
iable	-3366
▁virt	-3367
▁today	-3368
▁compre	-3369
▁vessel	-3370
▁beneath	-3371
▁pointed	-3372
ex	-3373
Very	-3374
olya	-3375
bling	-3376
▁ende	-3377
▁magn	-3378
▁board	-3379
▁posit	-3380
▁miserable	-3381
▁accustomed	-3382
▁handkerchief	-3383
jo	-3384
oz	-3385
oves	-3386
rily	-3387
ature	-3388
▁Just	-3389
▁comr	-3390
▁reve	-3391
▁grace	-3392
▁heads	-3393
▁pulled	-3394
▁hall	-3395
▁myster	-3396
▁office	-3397
▁diamond	-3398
▁familiar	-3399
▁personal	-3400
▁previous	-3401
▁perceived	-3402
no	-3403
house	-3404
▁crim	-3405
▁stir	-3406
▁Roman	-3407
▁emotion	-3408
▁pressed	-3409
▁tomorrow	-3410
▁addressed	-3411
af	-3412
cil	-3413
gel	-3414
quis	-3415
▁phy	-3416
▁While	-3417
▁fully	-3418
▁spect	-3419
brother	-3420
▁nobody	-3421
▁parent	-3422
▁temper	-3423
▁unhappy	-3424
▁darkness	-3425
▁extraord	-3426
▁resolved	-3427
▁satisfied	-3428
▁unexpected	-3429
dom	-3430
ino	-3431
aunt	-3432
cked	-3433
iber	-3434
anchet	-3435
iculty	-3436
▁Kolya	-3437
▁fallen	-3438
▁difficulty	-3439
ald	-3440
emm	-3441
ify	-3442
sec	-3443
coat	-3444
hest	-3445
ours	-3446
ples	-3447
▁Yet	-3448
▁sacri	-3449
▁Middle	-3450
▁thrown	-3451
▁concern	-3452
▁intellig	-3453
▁direction	-3454
▁apparently	-3455
sc	-3456
For	-3457
Here	-3458
well	-3459
erted	-3460
stone	-3461
▁cott	-3462
▁wore	-3463
▁calling	-3464
▁watched	-3465
▁laughter	-3466
ike	-3467
cedes	-3468
▁decl	-3469
▁goes	-3470
▁perp	-3471
ending	-3472
▁Saint	-3473
▁Sharp	-3474
▁aside	-3475
▁below	-3476
▁interp	-3477
▁Colonel	-3478
▁fancied	-3479
▁greatly	-3480
▁picture	-3481
▁existence	-3482
sy	-3483
urse	-3484
▁dom	-3485
arest	-3486
emmick	-3487
▁Marya	-3488
▁blind	-3489
▁excit	-3490
▁trust	-3491
▁capital	-3492
▁destroy	-3493
▁dressing	-3494
▁generally	-3495
ait	-3496
iddy	-3497
ivid	-3498
reet	-3499
▁Ily	-3500
champ	-3501
▁Fare	-3502
▁tort	-3503
vanced	-3504
▁clerk	-3505
▁appoint	-3506
▁advanced	-3507
▁apartment	-3508
▁ur	-3509
illy	-3510
iven	-3511
▁aim	-3512
▁city	-3513
▁sugg	-3514
lessly	-3515
▁Stubb	-3516
▁doesn	-3517
▁evident	-3518
▁forehead	-3519
▁brilliant	-3520
▁departure	-3521
▁Ivanovitch	-3522
▁consequence	-3523
HE	-3524
ye	-3525
oura	-3526
▁inj	-3527
----"	-3528
ipped	-3529
▁loss	-3530
▁situ	-3531
iently	-3532
▁smoke	-3533
▁insult	-3534
▁served	-3535
▁Middlem	-3536
▁Wemmick	-3537
▁station	-3538
▁suspect	-3539
▁entrance	-3540
▁conscience	-3541
▁disappeared	-3542
rs	-3543
Have	-3544
sembl	-3545
▁luck	-3546
▁Serge	-3547
▁annoy	-3548
▁assure	-3549
▁endeav	-3550
▁exceed	-3551
▁summer	-3552
▁Russell	-3553
▁Countess	-3554
▁satisfaction	-3555
▁understanding	-3556
fir	-3557
ift	-3558
▁Ab	-3559
quet	-3560
▁aud	-3561
▁cup	-3562
▁obv	-3563
▁snow	-3564
▁Darya	-3565
▁adjut	-3566
▁crime	-3567
▁priest	-3568
onscious	-3569
▁triumph	-3570
▁murmured	-3571
▁interested	-3572
▁dam	-3573
▁drawn	-3574
▁faint	-3575
▁frequ	-3576
▁stair	-3577
▁crossed	-3578
▁earnest	-3579
▁Planchet	-3580
▁superior	-3581
▁supposed	-3582
000	-3583
▁sen	-3584
ighed	-3585
▁Char	-3586
▁aunt	-3587
▁cell	-3588
▁cred	-3589
▁fail	-3590
ernand	-3591
olkons	-3592
▁class	-3593
▁stick	-3594
▁wishes	-3595
▁justice	-3596
▁mistake	-3597
▁interesting	-3598
ta	-3599
elly	-3600
aming	-3601
antic	-3602
there	-3603
▁shad	-3604
▁wear	-3605
eneral	-3606
illing	-3607
▁agreed	-3608
▁crying	-3609
▁higher	-3610
▁finding	-3611
▁importance	-3612
uted	-3613
▁Pol	-3614
▁blow	-3615
▁cook	-3616
▁grow	-3617
▁pill	-3618
▁proof	-3619
▁events	-3620
▁spread	-3621
▁wretched	-3622
▁excitement	-3623
III	-3624
aly	-3625
,000	-3626
▁sla	-3627
▁wel	-3628
▁fever	-3629
attered	-3630
▁sacrif	-3631
▁expecting	-3632
ium	-3633
▁La	-3634
▁gro	-3635
icing	-3636
▁Thou	-3637
▁baby	-3638
▁obey	-3639
▁boots	-3640
▁spend	-3641
▁custom	-3642
▁lighted	-3643
▁signific	-3644
Go	-3645
▁sav	-3646
erred	-3647
ouses	-3648
▁amaz	-3649
▁appl	-3650
▁dull	-3651
▁hide	-3652
▁hind	-3653
▁perm	-3654
▁sank	-3655
▁indic	-3656
▁restr	-3657
▁attent	-3658
▁mistaken	-3659
▁Middlemarch	-3660
key	-3661
▁Sv	-3662
▁Hel	-3663
▁fish	-3664
▁gest	-3665
▁seek	-3666
▁aloud	-3667
▁taste	-3668
▁paused	-3669
▁pounds	-3670
▁absence	-3671
▁Beauchamp	-3672
▁Farebrother	-3673
▁consciousness	-3674
▁pit	-3675
ossim	-3676
▁trem	-3677
▁lives	-3678
▁gloomy	-3679
▁murder	-3680
▁severe	-3681
▁However	-3682
▁utterly	-3683
▁pointing	-3684
▁ourselves	-3685
▁fem	-3686
▁Jane	-3687
▁bold	-3688
▁boys	-3689
▁empty	-3690
▁bottom	-3691
▁tongue	-3692
▁illness	-3693
▁innocent	-3694
Of	-3695
ds	-3696
gs	-3697
gan	-3698
▁Or	-3699
apart	-3700
▁flew	-3701
▁vast	-3702
▁build	-3703
▁horri	-3704
▁throw	-3705
▁supper	-3706
▁outside	-3707
kes	-3708
uit	-3709
▁hy	-3710
elve	-3711
ilar	-3712
olunt	-3713
▁pron	-3714
aggers	-3715
▁avoid	-3716
▁freed	-3717
▁fifteen	-3718
▁somewhat	-3719
iny	-3720
▁vex	-3721
eless	-3722
ption	-3723
▁Went	-3724
▁cord	-3725
▁absol	-3726
▁cruel	-3727
▁hopes	-3728
cerning	-3729
▁Sergey	-3730
▁search	-3731
olkonski	-3732
▁Du	-3733
ilty	-3734
▁clo	-3735
▁cann	-3736
▁clean	-3737
▁wants	-3738
▁betray	-3739
▁establ	-3740
▁instru	-3741
▁pardon	-3742
▁Fernand	-3743
▁informed	-3744
▁unfortun	-3745
ils	-3746
▁la	-3747
acle	-3748
keep	-3749
▁mal	-3750
▁sky	-3751
erved	-3752
iture	-3753
ocket	-3754
▁Rome	-3755
▁sigh	-3756
▁Having	-3757
▁interv	-3758
▁growing	-3759
▁playing	-3760
▁unpleas	-3761
▁coachman	-3762
▁visitors	-3763
ikh	-3764
onc	-3765
▁ban	-3766
▁civ	-3767
▁env	-3768
ashing	-3769
ocking	-3770
▁shown	-3771
agement	-3772
rinking	-3773
▁degree	-3774
▁yellow	-3775
▁Wentworth	-3776
As	-3777
Are	-3778
asm	-3779
▁Kar	-3780
umble	-3781
▁Good	-3782
▁ener	-3783
▁orig	-3784
▁rare	-3785
▁suit	-3786
▁flung	-3787
▁forty	-3788
▁nurse	-3789
▁storm	-3790
▁bottle	-3791
▁guests	-3792
▁Mercedes	-3793
▁somewhere	-3794
▁discovered	-3795
bbed	-3796
itin	-3797
▁pra	-3798
▁hero	-3799
▁hill	-3800
▁hosp	-3801
▁huss	-3802
▁shot	-3803
orough	-3804
▁amuse	-3805
▁event	-3806
looking	-3807
▁arrest	-3808
▁Pavlovna	-3809
▁declared	-3810
▁unconscious	-3811
▁due	-3812
▁Even	-3813
▁thro	-3814
▁thrust	-3815
▁whisper	-3816
▁regarded	-3817
▁concerning	-3818
▁extraordinary	-3819
gar	-3820
hend	-3821
inct	-3822
oused	-3823
stand	-3824
▁Stey	-3825
▁gray	-3826
▁shri	-3827
▁ended	-3828
▁mamma	-3829
▁famous	-3830
▁twelve	-3831
▁undert	-3832
▁painful	-3833
▁carrying	-3834
▁instance	-3835
▁Christian	-3836
▁experienced	-3837
▁imagination	-3838
aty	-3839
▁Br	-3840
▁ec	-3841
▁mot	-3842
▁brow	-3843
▁fate	-3844
akitin	-3845
▁artic	-3846
▁cloak	-3847
▁corre	-3848
▁notes	-3849
▁Steyne	-3850
▁refuse	-3851
▁intense	-3852
▁invited	-3853
▁reasons	-3854
owd	-3855
▁Fl	-3856
▁ease	-3857
▁game	-3858
▁safe	-3859
▁warn	-3860
▁equal	-3861
ability	-3862
▁lifted	-3863
▁Musketeers	-3864
ohn	-3865
▁Can	-3866
▁uns	-3867
▁fart	-3868
▁phil	-3869
▁tail	-3870
▁alive	-3871
▁reach	-3872
natured	-3873
▁guilty	-3874
▁anxiety	-3875
▁curious	-3876
▁military	-3877
▁delightful	-3878
hum	-3879
▁Co	-3880
iter	-3881
rank	-3882
▁ere	-3883
ights	-3884
▁rejo	-3885
arrass	-3886
▁disag	-3887
▁Austri	-3888
▁breast	-3889
▁Rakitin	-3890
▁eagerly	-3891
▁entreat	-3892
▁visitor	-3893
▁neighbor	-3894
▁succeeded	-3895
▁accompanied	-3896
▁Il	-3897
arse	-3898
ompl	-3899
bbing	-3900
igned	-3901
▁debt	-3902
▁oper	-3903
▁rank	-3904
▁yard	-3905
▁hoped	-3906
▁hurry	-3907
▁lines	-3908
theless	-3909
▁bridge	-3910
▁nearer	-3911
▁played	-3912
▁repres	-3913
▁Perhaps	-3914
▁nervous	-3915
erem	-3916
▁sty	-3917
▁chap	-3918
▁diss	-3919
▁grou	-3920
▁mour	-3921
inence	-3922
racted	-3923
▁purch	-3924
▁weeks	-3925
▁Andrea	-3926
▁anybody	-3927
▁possibly	-3928
▁prisoner	-3929
▁education	-3930
▁recognized	-3931
dle	-3932
▁er	-3933
orse	-3934
rang	-3935
▁amb	-3936
▁exch	-3937
▁hurt	-3938
▁irre	-3939
urally	-3940
▁saved	-3941
▁advice	-3942
▁direct	-3943
▁honour	-3944
▁refused	-3945
▁intended	-3946
▁staircase	-3947
▁possession	-3948
this	-3949
arrow	-3950
▁miles	-3951
▁tired	-3952
ancholy	-3953
▁Church	-3954
▁begged	-3955
▁Jaggers	-3956
▁address	-3957
▁introdu	-3958
▁official	-3959
▁Bolkonski	-3960
▁embarrass	-3961
▁disappoint	-3962
▁Mme	-3963
▁Bute	-3964
▁Biddy	-3965
▁pause	-3966
▁abroad	-3967
▁double	-3968
▁explan	-3969
▁resumed	-3970
▁support	-3971
▁shouting	-3972
any	-3973
▁Lu	-3974
acher	-3975
▁enth	-3976
▁nine	-3977
▁phys	-3978
inging	-3979
▁admit	-3980
▁waist	-3981
▁circle	-3982
▁angrily	-3983
▁quarrel	-3984
▁companions	-3985
▁melancholy	-3986
usi	-3987
wed	-3988
▁dry	-3989
astic	-3990
▁song	-3991
▁remind	-3992
▁dreadful	-3993
▁interval	-3994
▁announced	-3995
ara	-3996
ury	-3997
▁Did	-3998
▁rum	-3999
▁terms	-4000
▁cheeks	-4001
▁deeply	-4002
▁hatred	-4003
▁retired	-4004
▁showing	-4005
▁violent	-4006
▁weather	-4007
▁relation	-4008
▁hurriedly	-4009
▁interview	-4010
▁acquainted	-4011
▁profession	-4012
isc	-4013
When	-4014
wing	-4015
isten	-4016
▁John	-4017
▁nodd	-4018
▁share	-4019
fortune	-4020
▁hither	-4021
▁repeat	-4022
agration	-4023
▁glancing	-4024
umn	-4025
firy	-4026
▁Ben	-4027
▁Look	-4028
▁fold	-4029
arling	-4030
▁speed	-4031
▁trees	-4032
▁choose	-4033
▁gazing	-4034
▁indign	-4035
▁desired	-4036
▁somehow	-4037
▁profound	-4038
cle	-4039
▁--	-4040
▁Ali	-4041
▁crew	-4042
▁lawy	-4043
inking	-4044
▁grass	-4045
▁paces	-4046
▁Helene	-4047
▁excuse	-4048
▁accompl	-4049
▁enthusi	-4050
▁leaning	-4051
▁prevent	-4052
▁astonishment	-4053
acc	-4054
ember	-4055
isely	-4056
ivers	-4057
▁major	-4058
▁match	-4059
▁names	-4060
oundrel	-4061
ertainly	-4062
▁request	-4063
▁adjutant	-4064
▁entering	-4065
▁thorough	-4066
▁experience	-4067
▁unpleasant	-4068
▁approaching	-4069
hev	-4070
ucc	-4071
uses	-4072
▁lac	-4073
abeth	-4074
▁Have	-4075
▁myst	-4076
▁ruin	-4077
atures	-4078
▁brief	-4079
▁uneasy	-4080
▁details	-4081
▁finally	-4082
▁hanging	-4083
▁recollect	-4084
▁Maximilian	-4085
▁mysterious	-4086
gl	-4087
▁Wal	-4088
▁gay	-4089
▁vig	-4090
asped	-4091
which	-4092
▁Lise	-4093
▁huge	-4094
▁mood	-4095
vation	-4096
▁distr	-4097
▁doors	-4098
▁mater	-4099
izabeth	-4100
▁Street	-4101
▁winter	-4102
▁Porfiry	-4103
▁foolish	-4104
▁freedom	-4105
▁younger	-4106
▁generous	-4107
▁touching	-4108
▁misfortune	-4109
irm	-4110
lin	-4111
▁Bou	-4112
ading	-4113
isher	-4114
▁vale	-4115
▁Major	-4116
▁favour	-4117
▁wealth	-4118
▁Charles	-4119
▁advance	-4120
▁farther	-4121
▁singing	-4122
At	-4123
oop	-4124
▁eh	-4125
chin	-4126
▁Ber	-4127
▁delay	-4128
▁kindly	-4129
▁sought	-4130
▁wicked	-4131
▁General	-4132
▁immense	-4133
▁manners	-4134
▁arranged	-4135
▁dangerous	-4136
Be	-4137
▁Mi	-4138
plic	-4139
▁Rue	-4140
▁holy	-4141
▁rend	-4142
▁summ	-4143
▁trif	-4144
arenka	-4145
▁imper	-4146
▁shirt	-4147
▁sorts	-4148
athered	-4149
▁utmost	-4150
▁Feather	-4151
▁highest	-4152
▁stepped	-4153
▁pictures	-4154
▁comprehend	-4155
▁government	-4156
lly	-4157
ians	-4158
uing	-4159
▁Eur	-4160
▁lot	-4161
▁pair	-4162
▁pick	-4163
▁wand	-4164
▁charge	-4165
▁credit	-4166
▁misery	-4167
▁appears	-4168
▁bringing	-4169
▁disagree	-4170
▁governor	-4171
▁Bagration	-4172
▁presently	-4173
▁ep	-4174
atis	-4175
enge	-4176
erer	-4177
iest	-4178
llen	-4179
▁Two	-4180
orous	-4181
▁lear	-4182
▁mild	-4183
▁stro	-4184
▁angel	-4185
▁birth	-4186
▁vague	-4187
▁wound	-4188
▁proved	-4189
▁sounds	-4190
▁devoted	-4191
▁leading	-4192
▁regular	-4193
▁actually	-4194
▁Elizabeth	-4195
▁explained	-4196
▁possessed	-4197
▁Englishman	-4198
fl	-4199
por	-4200
rand	-4201
utor	-4202
ially	-4203
▁obst	-4204
ensive	-4205
▁South	-4206
▁haven	-4207
▁prove	-4208
▁river	-4209
▁humili	-4210
▁places	-4211
▁colonel	-4212
▁usually	-4213
▁recalled	-4214
▁gratitude	-4215
▁scoundrel	-4216
▁circumstance	-4217
Did	-4218
uce	-4219
▁Se	-4220
▁elb	-4221
▁unm	-4222
gress	-4223
lease	-4224
ulous	-4225
▁born	-4226
▁capt	-4227
▁lamp	-4228
▁rise	-4229
▁Never	-4230
▁claim	-4231
▁smell	-4232
▁stock	-4233
▁widow	-4234
▁libert	-4235
▁streets	-4236
▁attitude	-4237
▁ordinary	-4238
▁upstairs	-4239
▁otherwise	-4240
act	-4241
aps	-4242
arc	-4243
fen	-4244
▁Our	-4245
▁jew	-4246
▁roy	-4247
ample	-4248
board	-4249
▁Such	-4250
▁stat	-4251
▁midst	-4252
▁purse	-4253
▁yield	-4254
▁couple	-4255
▁fortun	-4256
▁jumped	-4257
▁sprang	-4258
▁bedroom	-4259
▁burning	-4260
▁evidence	-4261
▁reflected	-4262
▁difference	-4263
▁positively	-4264
urd	-4265
enka	-4266
▁Bal	-4267
oring	-4268
▁rage	-4269
ivered	-4270
▁mercy	-4271
▁value	-4272
hearted	-4273
▁Europe	-4274
▁Varenka	-4275
▁flushed	-4276
▁project	-4277
▁wearing	-4278
▁language	-4279
▁information	-4280
"--	-4281
they	-4282
▁Low	-4283
▁pan	-4284
▁unw	-4285
▁voy	-4286
ental	-4287
▁farm	-4288
▁hate	-4289
▁lies	-4290
▁rain	-4291
inated	-4292
keeper	-4293
rigory	-4294
▁Baron	-4295
▁Somet	-4296
▁marsh	-4297
▁worst	-4298
▁bought	-4299
▁candle	-4300
▁consol	-4301
▁assured	-4302
▁fellows	-4303
▁agitated	-4304
▁precious	-4305
▁friendship	-4306
iaz	-4307
▁Nor	-4308
othed	-4309
range	-4310
▁dust	-4311
▁houses	-4312
▁weight	-4313
▁capable	-4314
▁maintain	-4315
▁proposed	-4316
▁prospect	-4317
▁returning	-4318
▁wonderful	-4319
▁considering	-4320
Ex	-4321
pir	-4322
anti	-4323
▁flo	-4324
antry	-4325
cknow	-4326
illes	-4327
▁dine	-4328
▁exha	-4329
▁walls	-4330
▁unless	-4331
▁Bonapart	-4332
▁Featherstone	-4333
ob	-4334
vi	-4335
een	-4336
leg	-4337
ache	-4338
acles	-4339
▁inde	-4340
ternal	-4341
▁withd	-4342
utation	-4343
▁Pocket	-4344
▁cannon	-4345
▁hidden	-4346
▁inward	-4347
▁settle	-4348
▁silver	-4349
▁Grigory	-4350
▁darling	-4351
▁liberty	-4352
▁similar	-4353
▁drinking	-4354
▁reproach	-4355
▁required	-4356
▁slightest	-4357
One	-4358
isp	-4359
zed	-4360
▁Pa	-4361
cles	-4362
five	-4363
rous	-4364
anted	-4365
ateau	-4366
▁drop	-4367
▁benef	-4368
▁whist	-4369
▁acknow	-4370
▁forest	-4371
▁gained	-4372
▁hearts	-4373
▁marked	-4374
▁Rostovs	-4375
▁falling	-4376
▁plainly	-4377
▁sincere	-4378
▁torment	-4379
▁useless	-4380
▁gathered	-4381
▁sympathy	-4382
Wh	-4383
Mer	-4384
ibly	-4385
osop	-4386
oting	-4387
rated	-4388
▁Sund	-4389
▁dish	-4390
▁Sperm	-4391
▁dance	-4392
▁royal	-4393
▁narrow	-4394
▁features	-4395
▁ignorant	-4396
▁unfortunate	-4397
zy	-4398
▁Ph	-4399
iece	-4400
▁THE	-4401
▁fra	-4402
▁isn	-4403
chook	-4404
gging	-4405
▁Hend	-4406
▁Vass	-4407
▁comb	-4408
▁flat	-4409
▁moon	-4410
▁ways	-4411
▁dared	-4412
▁harpo	-4413
▁spare	-4414
▁feared	-4415
▁loving	-4416
▁needed	-4417
▁recomm	-4418
▁conceal	-4419
▁wishing	-4420
▁becoming	-4421
▁demanded	-4422
▁sentiment	-4423
▁astonished	-4424
▁tenderness	-4425
bid	-4426
lov	-4427
▁cat	-4428
▁wed	-4429
retch	-4430
▁Bert	-4431
▁Musg	-4432
▁busy	-4433
▁ride	-4434
▁argum	-4435
▁cover	-4436
▁group	-4437
▁hotel	-4438
▁style	-4439
▁treas	-4440
▁dining	-4441
▁grateful	-4442
▁produced	-4443
▁slightly	-4444
umblechook	-4445
▁confusion	-4446
▁surrounded	-4447
.,	-4448
cies	-4449
empl	-4450
then	-4451
▁ard	-4452
▁mag	-4453
agger	-4454
ivity	-4455
pless	-4456
uously	-4457
▁valet	-4458
▁absurd	-4459
▁desper	-4460
▁height	-4461
▁patron	-4462
▁monaster	-4463
▁philosop	-4464
▁Alexander	-4465
▁extremely	-4466
▁furniture	-4467
▁household	-4468
▁situation	-4469
▁Pumblechook	-4470
▁exceedingly	-4471
▁explanation	-4472
ien	-4473
bray	-4474
ding	-4475
quod	-4476
▁Fir	-4477
▁Squ	-4478
▁ble	-4479
venge	-4480
▁More	-4481
▁grad	-4482
▁poet	-4483
▁star	-4484
▁overt	-4485
▁serve	-4486
▁signs	-4487
▁Before	-4488
▁Pequod	-4489
▁calcul	-4490
▁portra	-4491
▁reflect	-4492
▁setting	-4493
▁working	-4494
Mr	-4495
lt	-4496
haw	-4497
geon	-4498
usha	-4499
▁Are	-4500
▁Jul	-4501
avalc	-4502
▁crown	-4503
▁lover	-4504
▁Debray	-4505
▁handed	-4506
▁sighed	-4507
▁bearing	-4508
▁visible	-4509
▁throwing	-4510
▁naturally	-4511
▁suspicion	-4512
bre	-4513
▁fu	-4514
▁vol	-4515
kward	-4516
uccio	-4517
▁join	-4518
▁pure	-4519
▁worn	-4520
▁labor	-4521
iveness	-4522
onstant	-4523
▁domest	-4524
▁finish	-4525
▁firmly	-4526
▁pushed	-4527
▁thanks	-4528
▁ancient	-4529
▁magnific	-4530
▁striking	-4531
▁agitation	-4532
▁described	-4533
▁considerable	-4534
fs	-4535
ma	-4536
was	-4537
▁Alp	-4538
velop	-4539
▁excl	-4540
▁papa	-4541
▁absor	-4542
▁brain	-4543
▁produ	-4544
fulness	-4545
▁Lowick	-4546
▁intent	-4547
▁prepar	-4548
▁parents	-4549
▁treated	-4550
▁imagined	-4551
▁concluded	-4552
▁interests	-4553
▁obviously	-4554
umb	-4555
form	-4556
irty	-4557
▁bew	-4558
▁cop	-4559
▁gle	-4560
▁phr	-4561
atych	-4562
gment	-4563
▁Duke	-4564
▁Tell	-4565
▁arch	-4566
▁bore	-4567
atched	-4568
▁raising	-4569
avalcanti	-4570
▁delicate	-4571
▁hastened	-4572
▁minister	-4573
▁suffered	-4574
By	-4575
alf	-4576
ader	-4577
olen	-4578
ueen	-4579
▁key	-4580
entle	-4581
ikhay	-4582
▁brave	-4583
▁plans	-4584
itating	-4585
▁Mikhay	-4586
▁polite	-4587
▁porter	-4588
▁savage	-4589
▁reality	-4590
▁friendly	-4591
▁Bertuccio	-4592
▁confident	-4593
▁descended	-4594
▁conviction	-4595
erc	-4596
▁Su	-4597
enne	-4598
osen	-4599
▁Hay	-4600
eding	-4601
erent	-4602
▁fier	-4603
▁food	-4604
▁pipe	-4605
riages	-4606
▁During	-4607
▁coffee	-4608
▁lovely	-4609
▁riding	-4610
▁awkward	-4611
▁deliber	-4612
▁gesture	-4613
▁visited	-4614
▁Alpatych	-4615
▁breaking	-4616
▁Cavalcanti	-4617
De	-4618
enth	-4619
resp	-4620
▁Old	-4621
iance	-4622
right	-4623
▁Ital	-4624
▁eleg	-4625
▁shop	-4626
▁Chateau	-4627
▁consent	-4628
▁escaped	-4629
▁example	-4630
▁accident	-4631
▁beforehand	-4632
▁resolution	-4633
▁disagreeable	-4634
riet	-4635
▁May	-4636
▁bod	-4637
▁cow	-4638
▁wra	-4639
lovna	-4640
ucking	-4641
▁Petya	-4642
▁greet	-4643
▁swall	-4644
▁tempt	-4645
▁flying	-4646
▁joined	-4647
▁blushed	-4648
▁foreign	-4649
▁struggle	-4650
▁recovered	-4651
▁Mikhaylovna	-4652
▁ga	-4653
icip	-4654
ites	-4655
▁Was	-4656
denly	-4657
▁deck	-4658
▁Still	-4659
▁cards	-4660
▁caval	-4661
▁stout	-4662
▁swear	-4663
▁afford	-4664
▁estate	-4665
▁prayer	-4666
▁social	-4667
▁worked	-4668
▁removed	-4669
▁seeking	-4670
▁univers	-4671
▁favorite	-4672
▁involunt	-4673
▁silently	-4674
▁weakness	-4675
▁concealed	-4676
▁admiration	-4677
▁constantly	-4678
▁everywhere	-4679
arb	-4680
pse	-4681
rem	-4682
▁sac	-4683
▁scr	-4684
▁wet	-4685
▁cool	-4686
▁hers	-4687
▁keen	-4688
▁exerc	-4689
▁knife	-4690
▁shake	-4691
uddenly	-4692
▁highly	-4693
▁island	-4694
▁alarmed	-4695
▁pulling	-4696
▁doubtless	-4697
▁absolutely	-4698
apa	-4699
aleb	-4700
kind	-4701
only	-4702
▁tit	-4703
inate	-4704
oning	-4705
▁shru	-4706
▁boats	-4707
▁cerem	-4708
▁cheek	-4709
▁frame	-4710
▁condem	-4711
▁resist	-4712
▁assumed	-4713
▁observe	-4714
▁Eminence	-4715
▁confused	-4716
▁hospital	-4717
▁insisted	-4718
▁monastery	-4719
ux	-4720
tle	-4721
hens	-4722
▁Him	-4723
▁hun	-4724
▁vic	-4725
acity	-4726
rence	-4727
▁sire	-4728
father	-4729
▁embra	-4730
▁fetch	-4731
▁revol	-4732
▁takes	-4733
▁Ilusha	-4734
▁strict	-4735
▁victim	-4736
▁curtain	-4737
▁perplex	-4738
ification	-4739
▁criminal	-4740
▁whenever	-4741
▁gradually	-4742
iam	-4743
ipp	-4744
lebr	-4745
▁bal	-4746
place	-4747
▁race	-4748
▁subm	-4749
▁Julie	-4750
▁Peter	-4751
▁glory	-4752
▁parts	-4753
▁staff	-4754
▁tight	-4755
▁celebr	-4756
▁stared	-4757
lessness	-4758
▁hastily	-4759
▁welcome	-4760
onstantin	-4761
▁attached	-4762
▁distinctly	-4763
Bec	-4764
com	-4765
igs	-4766
rows	-4767
▁See	-4768
ucket	-4769
▁Thus	-4770
▁carp	-4771
▁guns	-4772
▁lock	-4773
▁mark	-4774
▁pond	-4775
▁Caleb	-4776
▁cabin	-4777
▁enorm	-4778
▁gover	-4779
▁indul	-4780
▁amount	-4781
▁driven	-4782
▁rolled	-4783
▁softly	-4784
▁beating	-4785
▁enemies	-4786
▁flowers	-4787
▁respond	-4788
▁Frenchman	-4789
▁increased	-4790
▁engagement	-4791
With	-4792
▁New	-4793
▁aid	-4794
▁unl	-4795
istic	-4796
▁crit	-4797
▁fulf	-4798
rienne	-4799
▁merry	-4800
▁moral	-4801
Because	-4802
ivering	-4803
▁Walter	-4804
▁aspect	-4805
▁accepted	-4806
▁independ	-4807
▁instinct	-4808
▁intimate	-4809
▁Bourienne	-4810
▁creatures	-4811
▁necessity	-4812
▁sensation	-4813
▁distinguished	-4814
An	-4815
alt	-4816
ams	-4817
imm	-4818
aign	-4819
noon	-4820
wall	-4821
when	-4822
aches	-4823
▁heat	-4824
▁nurs	-4825
▁tear	-4826
pelled	-4827
▁conqu	-4828
▁space	-4829
▁ruined	-4830
▁disturb	-4831
▁mounted	-4832
▁related	-4833
▁stronger	-4834
▁meanwhile	-4835
▁seriously	-4836
.'"	-4837
Per	-4838
asy	-4839
nes	-4840
ria	-4841
sip	-4842
uzz	-4843
▁Ex	-4844
▁gh	-4845
book	-4846
down	-4847
iant	-4848
peak	-4849
rees	-4850
▁hay	-4851
▁bend	-4852
▁gown	-4853
▁inev	-4854
▁drank	-4855
▁silly	-4856
▁chosen	-4857
▁contro	-4858
▁convey	-4859
▁dreams	-4860
▁endure	-4861
▁helped	-4862
▁content	-4863
▁campaign	-4864
▁deceived	-4865
▁helpless	-4866
▁neighbour	-4867
▁political	-4868
▁reflection	-4869
▁comfortable	-4870
Dowd	-4871
play	-4872
▁ham	-4873
ribut	-4874
▁doct	-4875
▁gain	-4876
▁quit	-4877
▁beast	-4878
▁frank	-4879
▁gives	-4880
respond	-4881
▁Hendon	-4882
▁Sunday	-4883
▁advent	-4884
▁duties	-4885
▁failed	-4886
▁modest	-4887
▁attract	-4888
▁distant	-4889
▁pursued	-4890
▁weeping	-4891
▁Russians	-4892
▁landlord	-4893
▁material	-4894
▁governess	-4895
▁intellect	-4896
▁spiritual	-4897
pon	-4898
Take	-4899
ncle	-4900
▁Com	-4901
ables	-4902
▁cher	-4903
▁dogs	-4904
▁wise	-4905
▁cries	-4906
▁Rostop	-4907
▁pieces	-4908
▁poison	-4909
▁preced	-4910
▁shadow	-4911
▁sooner	-4912
Monsieur	-4913
▁Italian	-4914
▁sisters	-4915
▁approach	-4916
▁decision	-4917
▁harpoone	-4918
▁progress	-4919
▁recognize	-4920
▁introduced	-4921
Sh	-4922
bye	-4923
arns	-4924
fact	-4925
stem	-4926
▁ing	-4927
▁sev	-4928
opsle	-4929
ourse	-4930
▁parl	-4931
▁prud	-4932
▁roof	-4933
▁test	-4934
asping	-4935
anwhile	-4936
▁Wopsle	-4937
▁leaves	-4938
▁notion	-4939
▁prosec	-4940
aughters	-4941
▁ridicul	-4942
▁discover	-4943
▁intently	-4944
▁Everything	-4945
▁correspond	-4946
Re	-4947
aya	-4948
nal	-4949
oci	-4950
▁Sc	-4951
?...	-4952
agin	-4953
bted	-4954
▁Hen	-4955
▁ess	-4956
▁oil	-4957
ailed	-4958
▁caut	-4959
▁hang	-4960
▁sell	-4961
▁truly	-4962
▁weary	-4963
▁absent	-4964
▁design	-4965
▁longed	-4966
▁efforts	-4967
▁princip	-4968
▁procure	-4969
▁Suddenly	-4970
▁affected	-4971
▁constant	-4972
▁directed	-4973
▁gracious	-4974
▁jealousy	-4975
▁quarters	-4976
▁wondered	-4977
▁Musketeer	-4978
▁Rostopchin	-4979
▁magnificent	-4980
.--	-4981
azov	-4982
hsky	-4983
▁Far	-4984
▁Tur	-4985
▁Ves	-4986
▁jaw	-4987
▁tow	-4988
ector	-4989
▁amid	-4990
▁jack	-4991
▁wasn	-4992
▁desir	-4993
▁loves	-4994
▁Louisa	-4995
▁humble	-4996
▁picked	-4997
▁kissing	-4998
▁steward	-4999
▁noticing	-5000
▁perceive	-5001
▁stopping	-5002
▁concerned	-5003
▁receiving	-5004
▁stretched	-5005
▁remarkable	-5006
▁sufficient	-5007
▁thoroughly	-5008
mb	-5009
Will	-5010
etsy	-5011
igne	-5012
ills	-5013
▁Sem	-5014
glass	-5015
▁Prov	-5016
▁deed	-5017
▁fury	-5018
▁inval	-5019
▁subst	-5020
▁lawyer	-5021
▁locked	-5022
▁parted	-5023
▁stayed	-5024
▁travel	-5025
▁Nothing	-5026
▁require	-5027
▁belonged	-5028
▁offended	-5029
▁trembled	-5030
▁exception	-5031
▁wondering	-5032
Al	-5033
--'	-5034
ais	-5035
eps	-5036
who	-5037
arks	-5038
ieve	-5039
uish	-5040
▁cro	-5041
▁tum	-5042
asing	-5043
amazov	-5044
▁Sviaz	-5045
▁depth	-5046
▁shape	-5047
▁associ	-5048
▁attach	-5049
▁choice	-5050
▁prompt	-5051
▁strang	-5052
▁throat	-5053
wallader	-5054
▁footman	-5055
▁domestic	-5056
▁somebody	-5057
▁conclusion	-5058
▁Gl	-5059
▁Jon	-5060
▁Thy	-5061
▁mud	-5062
overy	-5063
▁rang	-5064
▁Again	-5065
▁Betsy	-5066
▁bench	-5067
▁cases	-5068
▁delir	-5069
▁penet	-5070
▁lately	-5071
▁propos	-5072
▁sailor	-5073
▁tranqu	-5074
▁voyage	-5075
▁announce	-5076
▁contempl	-5077
▁disposed	-5078
▁faithful	-5079
▁hitherto	-5080
▁abandoned	-5081
▁proceeded	-5082
▁Cadwallader	-5083
ourt	-5084
rent	-5085
▁Pul	-5086
▁clut	-5087
ulated	-5088
▁Their	-5089
▁named	-5090
▁shudd	-5091
▁slept	-5092
▁sperm	-5093
Nothing	-5094
▁ascend	-5095
▁lively	-5096
▁relief	-5097
▁guessed	-5098
▁absorbed	-5099
▁brothers	-5100
▁merchant	-5101
▁portrait	-5102
▁Meanwhile	-5103
▁Sviazhsky	-5104
▁precisely	-5105
▁sacrifice	-5106
▁motionless	-5107
▁pronounced	-5108
oms	-5109
uel	-5110
▁Dr	-5111
Look	-5112
dgar	-5113
rier	-5114
some	-5115
▁ado	-5116
▁der	-5117
▁pin	-5118
aries	-5119
ashev	-5120
ugust	-5121
▁Hall	-5122
▁joke	-5123
▁knee	-5124
▁sour	-5125
attery	-5126
ifying	-5127
▁Edgar	-5128
▁agony	-5129
▁compar	-5130
▁fisher	-5131
▁pillow	-5132
▁transp	-5133
▁useful	-5134
▁compass	-5135
▁convict	-5136
▁knocked	-5137
▁Balashev	-5138
▁admitted	-5139
▁crossing	-5140
▁horrible	-5141
▁destroyed	-5142
▁represent	-5143
▁possibility	-5144
▁intelligence	-5145
▁z	-5146
eem	-5147
cean	-5148
cuse	-5149
eral	-5150
ldom	-5151
uten	-5152
vant	-5153
▁gar	-5154
▁ice	-5155
rived	-5156
▁mast	-5157
▁Cathy	-5158
▁brand	-5159
▁bride	-5160
▁queer	-5161
▁smart	-5162
alities	-5163
▁Heaven	-5164
▁interf	-5165
▁plenty	-5166
▁amiable	-5167
▁anticip	-5168
▁dancing	-5169
▁fearful	-5170
▁medical	-5171
▁monster	-5172
▁patient	-5173
▁science	-5174
▁wedding	-5175
uckingham	-5176
▁rendered	-5177
▁Karamazov	-5178
▁carriages	-5179
iat	-5180
reen	-5181
▁bor	-5182
▁exh	-5183
▁odd	-5184
▁rad	-5185
anity	-5186
▁pier	-5187
▁toss	-5188
cheria	-5189
▁Jonah	-5190
▁Would	-5191
▁clock	-5192
▁upper	-5193
▁Square	-5194
▁banker	-5195
▁eating	-5196
▁incomp	-5197
▁taught	-5198
▁tavern	-5199
entlemen	-5200
▁complex	-5201
▁letting	-5202
▁resembl	-5203
▁staying	-5204
▁religion	-5205
▁Pulcheria	-5206
▁Buckingham	-5207
▁permission	-5208
▁indifference	-5209
IN	-5210
▁.	-5211
God	-5212
reg	-5213
ule	-5214
▁Sw	-5215
▁ty	-5216
ancy	-5217
ozha	-5218
▁Luz	-5219
▁fee	-5220
Meran	-5221
athan	-5222
itive	-5223
olent	-5224
▁duke	-5225
▁holl	-5226
▁rate	-5227
▁rene	-5228
▁rock	-5229
▁task	-5230
▁guest	-5231
▁press	-5232
arnshaw	-5233
eryozha	-5234
▁Luzhin	-5235
▁losing	-5236
▁secure	-5237
▁seldom	-5238
▁surely	-5239
▁sailors	-5240
▁shining	-5241
▁wanting	-5242
▁goodness	-5243
▁pressing	-5244
▁committed	-5245
▁disturbed	-5246
▁exhausted	-5247
▁frequently	-5248
ON	-5249
ode	-5250
give	-5251
zing	-5252
▁Har	-5253
▁iss	-5254
▁Gree	-5255
▁betr	-5256
▁bull	-5257
▁loft	-5258
▁sele	-5259
lovsky	-5260
▁impro	-5261
▁stage	-5262
▁train	-5263
▁active	-5264
▁energy	-5265
▁system	-5266
▁dislike	-5267
▁inquiry	-5268
▁devotion	-5269
▁powerful	-5270
▁afternoon	-5271
▁Dmitrievna	-5272
Ind	-5273
Sir	-5274
hew	-5275
itor	-5276
long	-5277
raph	-5278
ulse	-5279
▁Pro	-5280
▁bos	-5281
▁hab	-5282
▁hol	-5283
eling	-5284
▁curs	-5285
arbuck	-5286
isting	-5287
▁Mamma	-5288
▁irres	-5289
▁march	-5290
▁raise	-5291
▁shore	-5292
▁coarse	-5293
▁fourth	-5294
▁gently	-5295
▁invest	-5296
▁appreci	-5297
▁chiefly	-5298
▁inspect	-5299
▁thunder	-5300
▁whaling	-5301
▁comrades	-5302
▁marrying	-5303
▁Veslovsky	-5304
▁connected	-5305
▁preparing	-5306
▁remaining	-5307
apt	-5308
rose	-5309
▁chim	-5310
▁jail	-5311
▁monk	-5312
ential	-5313
hether	-5314
igneur	-5315
▁Faria	-5316
▁facts	-5317
▁rough	-5318
▁decide	-5319
▁leaned	-5320
▁reconc	-5321
▁thinks	-5322
▁driving	-5323
▁managed	-5324
▁remains	-5325
▁suggest	-5326
▁Earnshaw	-5327
▁anywhere	-5328
▁enormous	-5329
▁daughters	-5330
▁ridiculous	-5331
AR	-5332
sk	-5333
box	-5334
eve	-5335
itz	-5336
▁Bl	-5337
▁buy	-5338
▁cig	-5339
▁doc	-5340
▁pop	-5341
inent	-5342
wenty	-5343
▁inex	-5344
▁tree	-5345
Indeed	-5346
ipping	-5347
omfort	-5348
▁civil	-5349
▁dirty	-5350
▁toler	-5351
▁admire	-5352
▁inside	-5353
▁nodded	-5354
▁render	-5355
antucket	-5356
▁heavens	-5357
▁inquire	-5358
▁respons	-5359
▁inclined	-5360
▁judgment	-5361
▁breathing	-5362
▁movements	-5363
▁consideration	-5364
Can	-5365
his	-5366
onf	-5367
Tell	-5368
▁lin	-5369
▁reb	-5370
chair	-5371
enger	-5372
habit	-5373
▁High	-5374
▁lodg	-5375
▁ming	-5376
▁shed	-5377
rimaud	-5378
unning	-5379
▁balls	-5380
▁groan	-5381
▁sport	-5382
ruction	-5383
utenant	-5384
▁belief	-5385
▁buried	-5386
▁defend	-5387
▁virtue	-5388
▁wooden	-5389
▁wretch	-5390
▁divided	-5391
Certainly	-5392
▁Starbuck	-5393
▁awaiting	-5394
▁baroness	-5395
▁employed	-5396
▁reputation	-5397
▁disposition	-5398
▁affectionate	-5399
boy	-5400
net	-5401
pin	-5402
aced	-5403
aker	-5404
iano	-5405
umes	-5406
▁Ara	-5407
▁Lid	-5408
▁Min	-5409
▁Obl	-5410
▁bag	-5411
Never	-5412
owder	-5413
▁drag	-5414
▁ecst	-5415
▁risk	-5416
▁House	-5417
▁Marfa	-5418
▁adopt	-5419
▁badly	-5420
▁inner	-5421
▁manif	-5422
▁Parfen	-5423
▁firing	-5424
▁waters	-5425
seigneur	-5426
▁correct	-5427
▁cutting	-5428
▁Musgrove	-5429
▁district	-5430
▁Bonaparte	-5431
▁strangely	-5432
▁uncertain	-5433
▁acquaintances	-5434
OR	-5435
▁Pr	-5436
▁ma	-5437
oses	-5438
▁lar	-5439
brary	-5440
osure	-5441
▁Cors	-5442
▁Span	-5443
▁Take	-5444
▁lack	-5445
▁shaw	-5446
▁torn	-5447
ossima	-5448
▁cared	-5449
▁fatal	-5450
▁spark	-5451
▁eleven	-5452
▁Another	-5453
▁careful	-5454
▁comrade	-5455
▁revenge	-5456
▁staring	-5457
▁stories	-5458
▁timidly	-5459
▁disgrace	-5460
▁galloped	-5461
▁guardian	-5462
▁obtained	-5463
▁Nantucket	-5464
▁execution	-5465
▁thousands	-5466
▁Konstantin	-5467
▁conditions	-5468
▁uneasiness	-5469
▁Parfenovitch	-5470
▁respectfully	-5471
plom	-5472
cross	-5473
▁Nast	-5474
▁meth	-5475
▁unus	-5476
▁whip	-5477
areton	-5478
▁loose	-5479
▁porch	-5480
▁swift	-5481
▁teach	-5482
▁title	-5483
▁views	-5484
▁corrid	-5485
▁gather	-5486
▁habits	-5487
▁points	-5488
▁drunken	-5489
▁addition	-5490
▁blushing	-5491
▁murdered	-5492
▁reception	-5493
▁religious	-5494
▁downstairs	-5495
▁indifferent	-5496
ral	-5497
ugg	-5498
chan	-5499
odya	-5500
▁Berg	-5501
▁rush	-5502
▁Court	-5503
▁Great	-5504
▁Marse	-5505
▁beard	-5506
▁bosom	-5507
▁minds	-5508
▁plate	-5509
▁ranks	-5510
▁rival	-5511
▁trick	-5512
▁venge	-5513
▁senses	-5514
▁sovere	-5515
▁article	-5516
▁cottage	-5517
▁display	-5518
▁individ	-5519
▁quitted	-5520
▁Seryozha	-5521
▁building	-5522
▁definite	-5523
▁departed	-5524
▁treasure	-5525
▁politeness	-5526
cip	-5527
dot	-5528
Dear	-5529
ford	-5530
ican	-5531
just	-5532
▁Had	-5533
▁Sam	-5534
▁bas	-5535
▁cas	-5536
cause	-5537
cript	-5538
erves	-5539
icted	-5540
▁Both	-5541
▁Tush	-5542
▁lest	-5543
▁arose	-5544
▁vivid	-5545
quisite	-5546
▁clergy	-5547
▁laying	-5548
▁member	-5549
▁partly	-5550
▁closely	-5551
▁funeral	-5552
▁measure	-5553
▁selfish	-5554
▁shouldn	-5555
▁slipped	-5556
▁Oblonsky	-5557
▁subjects	-5558
▁commission	-5559
col	-5560
ese	-5561
off	-5562
uct	-5563
,--"	-5564
seen	-5565
▁fix	-5566
▁hal	-5567
▁pot	-5568
▁rom	-5569
▁row	-5570
▁wag	-5571
▁wip	-5572
atory	-5573
attle	-5574
woman	-5575
▁obsc	-5576
▁pace	-5577
▁rail	-5578
asting	-5579
▁color	-5580
▁final	-5581
▁liber	-5582
▁negle	-5583
▁ocean	-5584
▁owner	-5585
▁shade	-5586
▁skill	-5587
▁stoop	-5588
▁suppl	-5589
Perhaps	-5590
▁flight	-5591
▁forbid	-5592
▁warmly	-5593
standing	-5594
▁invalid	-5595
▁recover	-5596
▁sounded	-5597
▁examined	-5598
▁solitary	-5599
▁appointed	-5600
▁exquisite	-5601
▁waistcoat	-5602
▁Marseilles	-5603
▁enthusiasm	-5604
▁grandfather	-5605
rou	-5606
asya	-5607
will	-5608
▁Mat	-5609
▁orn	-5610
▁ple	-5611
▁ren	-5612
asted	-5613
table	-5614
urely	-5615
urity	-5616
▁Poor	-5617
▁laws	-5618
▁nois	-5619
▁pred	-5620
▁skin	-5621
▁medic	-5622
▁straw	-5623
▁trial	-5624
chamber	-5625
itution	-5626
▁career	-5627
▁condes	-5628
▁diplom	-5629
▁retire	-5630
▁roused	-5631
▁Grimaud	-5632
▁inhabit	-5633
▁members	-5634
▁pockets	-5635
▁prisoners	-5636
▁separated	-5637
▁celebrated	-5638
▁occasionally	-5639
▁involuntarily	-5640
och	-5641
ocr	-5642
see	-5643
held	-5644
yard	-5645
▁bul	-5646
▁fru	-5647
Thank	-5648
▁Once	-5649
▁bird	-5650
▁gaze	-5651
▁rapt	-5652
▁wake	-5653
orable	-5654
▁flank	-5655
▁price	-5656
▁saint	-5657
▁scorn	-5658
▁ships	-5659
▁shock	-5660
▁squee	-5661
▁Grange	-5662
▁encoun	-5663
▁hoping	-5664
▁mighty	-5665
attering	-5666
▁actions	-5667
▁beloved	-5668
▁contrad	-5669
▁library	-5670
▁mystery	-5671
▁parties	-5672
▁frowning	-5673
▁learning	-5674
▁opinions	-5675
▁attracted	-5676
▁previously	-5677
▁attentively	-5678
▁significance	-5679
sm	-5680
arl	-5681
ipt	-5682
yes	-5683
rors	-5684
sels	-5685
▁emp	-5686
▁pil	-5687
▁spl	-5688
liked	-5689
verse	-5690
▁eyeb	-5691
▁grin	-5692
▁impl	-5693
▁narr	-5694
▁pink	-5695
▁silk	-5696
anting	-5697
ension	-5698
▁Three	-5699
▁gates	-5700
▁knock	-5701
▁wrink	-5702
ourable	-5703
▁bowing	-5704
▁calmly	-5705
▁doubts	-5706
▁excess	-5707
▁Hareton	-5708
▁Ilyitch	-5709
▁remarks	-5710
▁distress	-5711
▁millions	-5712
▁murderer	-5713
▁overcome	-5714
▁strongly	-5715
▁authority	-5716
▁conducted	-5717
▁responded	-5718
▁sovereign	-5719
Mad	-5720
ohl	-5721
yon	-5722
▁Ed	-5723
▁Te	-5724
anks	-5725
hail	-5726
hett	-5727
oked	-5728
▁vel	-5729
icken	-5730
uable	-5731
▁Hohl	-5732
▁base	-5733
▁duel	-5734
▁indu	-5735
▁Rodya	-5736
▁slave	-5737
▁trous	-5738
▁behold	-5739
▁female	-5740
▁fields	-5741
▁footst	-5742
▁haught	-5743
▁smooth	-5744
▁strike	-5745
▁dismiss	-5746
▁enjoyed	-5747
▁hussars	-5748
▁Hohlakov	-5749
▁arrested	-5750
▁singular	-5751
▁sleeping	-5752
▁Sometimes	-5753
▁amazement	-5754
▁childhood	-5755
▁suspected	-5756
Ren	-5757
pel	-5758
rap	-5759
rue	-5760
▁od	-5761
▁Bel	-5762
▁fla	-5763
▁liv	-5764
asper	-5765
erton	-5766
▁Next	-5767
▁grav	-5768
▁rude	-5769
▁soup	-5770
Listen	-5771
headed	-5772
▁champ	-5773
▁dozen	-5774
▁overw	-5775
▁sixty	-5776
▁stiff	-5777
▁arrive	-5778
▁mortal	-5779
▁repuls	-5780
▁saddle	-5781
▁William	-5782
▁disgust	-5783
▁exasper	-5784
▁objects	-5785
▁remorse	-5786
▁victory	-5787
▁disliked	-5788
▁original	-5789
▁sensible	-5790
▁contained	-5791
▁vengeance	-5792
▁connection	-5793
▁individual	-5794
▁invitation	-5795
IS	-5796
dig	-5797
▁Ad	-5798
▁oh	-5799
▁wo	-5800
Only	-5801
phew	-5802
▁bef	-5803
▁tur	-5804
aping	-5805
ieved	-5806
ilies	-5807
itski	-5808
stead	-5809
▁Mich	-5810
▁onto	-5811
▁tale	-5812
Renaud	-5813
factor	-5814
liness	-5815
▁Gaunt	-5816
▁docum	-5817
▁novel	-5818
▁unnat	-5819
▁abrupt	-5820
▁clouds	-5821
▁market	-5822
▁nephew	-5823
▁cavalry	-5824
▁consult	-5825
▁dragged	-5826
▁equally	-5827
▁happens	-5828
▁process	-5829
▁willing	-5830
▁animated	-5831
▁landlady	-5832
▁betrothed	-5833
▁honorable	-5834
▁occasions	-5835
▁performed	-5836
▁impatience	-5837
▁difficulties	-5838
▁sufficiently	-5839
gu	-5840
dee	-5841
esh	-5842
sey	-5843
str	-5844
▁Av	-5845
▁Sch	-5846
▁bon	-5847
inter	-5848
ukhov	-5849
▁Fair	-5850
▁hell	-5851
▁ribb	-5852
▁sees	-5853
▁Karen	-5854
▁acted	-5855
▁brown	-5856
▁crack	-5857
▁hated	-5858
▁shone	-5859
▁upset	-5860
ilities	-5861
▁Mihail	-5862
▁animal	-5863
▁coward	-5864
▁darted	-5865
▁disord	-5866
▁esteem	-5867
▁genius	-5868
▁method	-5869
▁modern	-5870
▁native	-5871
▁reward	-5872
▁benefit	-5873
▁costume	-5874
▁furious	-5875
▁Nastasya	-5876
▁activity	-5877
▁infantry	-5878
▁likewise	-5879
▁reaching	-5880
▁amusement	-5881
▁ignorance	-5882
▁pretended	-5883
▁regarding	-5884
▁suggested	-5885
▁communication	-5886
occ	-5887
why	-5888
From	-5889
Give	-5890
▁Bez	-5891
▁aut	-5892
▁cla	-5893
▁sha	-5894
▁spr	-5895
▁tot	-5896
imate	-5897
ology	-5898
▁jest	-5899
▁oath	-5900
▁roll	-5901
▁rust	-5902
▁term	-5903
ighted	-5904
urance	-5905
▁First	-5906
▁Those	-5907
▁fatig	-5908
▁image	-5909
▁lodge	-5910
▁needs	-5911
▁facing	-5912
▁mechan	-5913
▁mental	-5914
▁notary	-5915
▁palace	-5916
▁square	-5917
▁forever	-5918
▁pistols	-5919
▁sending	-5920
▁blessing	-5921
▁distinct	-5922
▁practice	-5923
▁vanished	-5924
▁prosecutor	-5925
▁nevertheless	-5926
;"	-5927
AN	-5928
oir	-5929
rog	-5930
▁ax	-5931
▁et	-5932
cast	-5933
rumm	-5934
wick	-5935
▁Any	-5936
▁Dan	-5937
▁Liz	-5938
▁hit	-5939
▁mat	-5940
ators	-5941
irmed	-5942
▁bree	-5943
▁bund	-5944
▁club	-5945
▁obed	-5946
▁sang	-5947
mother	-5948
ouring	-5949
▁linen	-5950
▁monks	-5951
▁store	-5952
plicity	-5953
▁hungry	-5954
▁lasted	-5955
▁season	-5956
▁visits	-5957
▁whence	-5958
▁awaited	-5959
▁blessed	-5960
▁declare	-5961
▁enchant	-5962
▁heavily	-5963
▁mankind	-5964
▁fighting	-5965
▁pistoles	-5966
▁solitude	-5967
▁accompany	-5968
▁desperate	-5969
▁intervals	-5970
▁observing	-5971
▁repeating	-5972
▁violently	-5973
▁intentions	-5974
ids	-5975
back	-5976
camp	-5977
▁Kuz	-5978
▁rul	-5979
!..."	-5980
cherb	-5981
▁aven	-5982
▁genu	-5983
▁mare	-5984
▁sarc	-5985
▁tied	-5986
▁wept	-5987
▁blank	-5988
▁daily	-5989
▁flour	-5990
▁lofty	-5991
▁histor	-5992
▁insist	-5993
▁manage	-5994
▁motive	-5995
▁provin	-5996
▁Baronet	-5997
▁doorway	-5998
▁lodging	-5999
▁majesty	-6000
▁ringing	-6001
▁venture	-6002
▁Bezukhov	-6003
▁families	-6004
▁separate	-6005
▁starting	-6006
▁messenger	-6007
▁compassion	-6008
ox	-6009
era	-6010
iot	-6011
jud	-6012
vet	-6013
amet	-6014
ante	-6015
cent	-6016
face	-6017
ived	-6018
mind	-6019
▁Sht	-6020
▁lun	-6021
▁rob	-6022
erene	-6023
ushka	-6024
verty	-6025
▁Bath	-6026
▁chin	-6027
▁dise	-6028
▁grim	-6029
▁heir	-6030
brance	-6031
orious	-6032
▁exact	-6033
▁beheld	-6034
▁bewild	-6035
▁column	-6036
▁hollow	-6037
▁reform	-6038
▁concent	-6039
▁lifting	-6040
▁lightly	-6041
▁message	-6042
▁poverty	-6043
▁prayers	-6044
▁betrayed	-6045
▁corridor	-6046
▁deserted	-6047
▁fastened	-6048
▁principal	-6049
▁respected	-6050
▁apartments	-6051
▁interposed	-6052
▁compliments	-6053
▁expectation	-6054
oqu	-6055
rah	-6056
▁Ts	-6057
▁ug	-6058
anty	-6059
kaya	-6060
more	-6061
▁Cro	-6062
▁hut	-6063
▁lan	-6064
▁rig	-6065
▁sus	-6066
▁glit	-6067
▁plun	-6068
▁sway	-6069
leased	-6070
rummle	-6071
▁Chett	-6072
▁built	-6073
▁confl	-6074
▁folly	-6075
▁yards	-6076
▁borrow	-6077
▁loudly	-6078
▁phrase	-6079
▁poured	-6080
▁sacred	-6081
▁stones	-6082
▁Drummle	-6083
▁Heights	-6084
▁candles	-6085
▁develop	-6086
▁encoura	-6087
▁parting	-6088
▁precaut	-6089
▁torture	-6090
▁wrapped	-6091
▁attended	-6092
▁exercise	-6093
▁overwhel	-6094
▁persuade	-6095
▁delivered	-6096
▁uncomfort	-6097
▁assistance	-6098
▁personally	-6099
▁instructions	-6100
nch	-6101
oul	-6102
rav	-6103
▁ic	-6104
owls	-6105
▁Bet	-6106
▁Pal	-6107
▁gos	-6108
pinay	-6109
press	-6110
▁Amer	-6111
▁clos	-6112
▁fasc	-6113
▁ours	-6114
▁shan	-6115
twenty	-6116
▁Flask	-6117
▁Italy	-6118
▁dined	-6119
▁organ	-6120
▁piano	-6121
▁score	-6122
ication	-6123
ossimov	-6124
umbling	-6125
▁prefer	-6126
▁signed	-6127
▁altered	-6128
▁harness	-6129
▁lessons	-6130
▁eyebrows	-6131
▁humanity	-6132
▁patience	-6133
▁troubled	-6134
▁inquiries	-6135
▁discussion	-6136
▁remembrance	-6137
ED	-6138
sa	-6139
icar	-6140
kers	-6141
lets	-6142
▁Cam	-6143
▁shy	-6144
▁sym	-6145
▁tap	-6146
asket	-6147
occup	-6148
uding	-6149
uming	-6150
▁Brit	-6151
▁Hind	-6152
▁cult	-6153
▁hath	-6154
▁ling	-6155
▁mant	-6156
▁mate	-6157
▁weep	-6158
Epinay	-6159
ground	-6160
▁chose	-6161
▁incon	-6162
▁mourn	-6163
▁Semyon	-6164
▁accent	-6165
▁folded	-6166
▁paying	-6167
▁specul	-6168
▁wholly	-6169
▁protect	-6170
▁attacked	-6171
▁investig	-6172
▁resolute	-6173
▁answering	-6174
▁fortnight	-6175
▁impressed	-6176
▁prevented	-6177
▁forgetting	-6178
▁occupation	-6179
▁punishment	-6180
▁indignation	-6181
▁consequently	-6182
bury	-6183
grat	-6184
orce	-6185
your	-6186
▁dun	-6187
▁lat	-6188
iving	-6189
odino	-6190
▁Abbe	-6191
▁edge	-6192
▁neat	-6193
▁rear	-6194
▁scru	-6195
▁ugly	-6196
▁fears	-6197
▁groom	-6198
▁humor	-6199
▁level	-6200
▁waves	-6201
▁August	-6202
▁hiding	-6203
▁hinder	-6204
▁praise	-6205
▁rarely	-6206
cherbats	-6207
▁awfully	-6208
▁elegant	-6209
▁improve	-6210
▁sharply	-6211
▁travell	-6212
▁extended	-6213
▁realized	-6214
▁sentence	-6215
▁frightful	-6216
▁secretary	-6217
▁spectacles	-6218
▁consolation	-6219
▁recollection	-6220
▁unconsciously	-6221
:--	-6222
eer	-6223
agne	-6224
isht	-6225
ival	-6226
rois	-6227
▁Bog	-6228
▁Kal	-6229
▁lip	-6230
after	-6231
▁pled	-6232
▁slip	-6233
icious	-6234
▁Greek	-6235
▁elbow	-6236
▁ghost	-6237
▁horiz	-6238
▁opera	-6239
▁risen	-6240
▁shoes	-6241
▁stead	-6242
▁stuff	-6243
▁turns	-6244
▁Indeed	-6245
▁hussar	-6246
▁intend	-6247
▁intrig	-6248
▁nights	-6249
▁Chettam	-6250
▁Without	-6251
▁battery	-6252
▁control	-6253
▁eternal	-6254
▁exagger	-6255
▁genuine	-6256
▁nearest	-6257
▁quality	-6258
▁Borodino	-6259
▁ceremony	-6260
▁childish	-6261
▁generals	-6262
▁revealed	-6263
▁surround	-6264
▁hesitation	-6265
▁Shtcherbats	-6266
ns	-6267
ampa	-6268
olom	-6269
▁Baz	-6270
▁Fer	-6271
▁Man	-6272
▁fil	-6273
▁lit	-6274
▁lux	-6275
▁nin	-6276
dotya	-6277
hetic	-6278
itate	-6279
▁deny	-6280
▁trun	-6281
master	-6282
minded	-6283
ularly	-6284
▁White	-6285
▁birds	-6286
▁blows	-6287
▁forms	-6288
▁owing	-6289
▁scand	-6290
▁spout	-6291
▁urged	-6292
humored	-6293
ibility	-6294
▁Haydee	-6295
▁Island	-6296
▁lesson	-6297
▁magist	-6298
▁obeyed	-6299
▁prayed	-6300
hensible	-6301
▁congrat	-6302
▁crushed	-6303
▁dearest	-6304
▁feather	-6305
▁kingdom	-6306
▁painted	-6307
▁surface	-6308
▁compared	-6309
▁midnight	-6310
▁restrain	-6311
▁Romanovna	-6312
▁anxiously	-6313
▁confessed	-6314
▁embarrassed	-6315
▁particulars	-6316
edy	-6317
oni	-6318
vre	-6319
dmir	-6320
issy	-6321
▁ate	-6322
anski	-6323
iusov	-6324
▁Many	-6325
▁dawn	-6326
▁dece	-6327
▁ends	-6328
▁mead	-6329
▁prem	-6330
verted	-6331
▁Lidia	-6332
▁benev	-6333
▁cares	-6334
▁dwell	-6335
▁haunt	-6336
▁outer	-6337
▁sadly	-6338
certain	-6339
raction	-6340
▁Miusov	-6341
▁amused	-6342
▁majest	-6343
▁prodig	-6344
▁signal	-6345
▁unlike	-6346
▁vanity	-6347
▁bending	-6348
▁collect	-6349
▁desires	-6350
▁flashed	-6351
▁accounts	-6352
▁infinite	-6353
▁insulted	-6354
▁relative	-6355
▁Southdown	-6356
▁belonging	-6357
▁qualities	-6358
▁sufferings	-6359
▁established	-6360
VIII	-6361
arov	-6362
omes	-6363
▁Roc	-6364
▁unb	-6365
▁mult	-6366
▁sche	-6367
▁weap	-6368
Really	-6369
acious	-6370
▁Ellen	-6371
▁Vampa	-6372
▁decor	-6373
▁incap	-6374
▁mixed	-6375
▁serfs	-6376
▁stret	-6377
▁suite	-6378
▁trace	-6379
▁vexed	-6380
emember	-6381
▁conven	-6382
▁fairly	-6383
▁incred	-6384
▁Avdotya	-6385
▁admired	-6386
▁anguish	-6387
▁assembl	-6388
▁convuls	-6389
▁cordial	-6390
▁crowded	-6391
▁pursuit	-6392
▁readily	-6393
▁rolling	-6394
▁secrets	-6395
▁audience	-6396
▁continue	-6397
▁memories	-6398
▁physical	-6399
▁services	-6400
▁acknowled	-6401
▁advancing	-6402
▁compelled	-6403
▁earnestly	-6404
▁enjoyment	-6405
▁impatient	-6406
▁personage	-6407
▁persuaded	-6408
▁intelligent	-6409
▁uncomfortable	-6410
etto	-6411
oubt	-6412
past	-6413
▁Thr	-6414
▁ain	-6415
▁bid	-6416
▁log	-6417
olens	-6418
▁Comm	-6419
▁butt	-6420
▁cham	-6421
▁flag	-6422
▁heed	-6423
▁insp	-6424
▁sobs	-6425
▁stif	-6426
ametov	-6427
leness	-6428
umbled	-6429
▁check	-6430
▁cloth	-6431
ulation	-6432
▁beaten	-6433
▁corpse	-6434
▁divine	-6435
▁easier	-6436
▁income	-6437
▁lights	-6438
▁powers	-6439
▁repent	-6440
▁smiles	-6441
atisfied	-6442
▁abandon	-6443
▁amusing	-6444
▁bottles	-6445
▁cunning	-6446
▁hunting	-6447
▁million	-6448
▁persist	-6449
▁teacher	-6450
▁composed	-6451
▁describe	-6452
▁embraced	-6453
▁offering	-6454
▁provided	-6455
▁Speranski	-6456
▁discovery	-6457
▁furnished	-6458
▁complexion	-6459
▁directions	-6460
▁remembering	-6461
▁respectable	-6462
fy	-6463
afe	-6464
bez	-6465
ipe	-6466
nel	-6467
acks	-6468
chev	-6469
roid	-6470
sman	-6471
▁Hor	-6472
▁gig	-6473
▁saf	-6474
▁sly	-6475
faced	-6476
ildad	-6477
▁Give	-6478
▁degr	-6479
▁milk	-6480
▁sink	-6481
▁sons	-6482
utions	-6483
▁Roche	-6484
▁brows	-6485
▁likes	-6486
▁pains	-6487
▁polic	-6488
▁reass	-6489
▁swell	-6490
amation	-6491
▁anyway	-6492
▁dishon	-6493
▁jailer	-6494
▁stands	-6495
▁Austria	-6496
▁frowned	-6497
▁instrum	-6498
▁masters	-6499
▁parlour	-6500
▁seeming	-6501
▁bitterly	-6502
▁lodgings	-6503
▁reminded	-6504
▁screamed	-6505
▁troubles	-6506
▁valuable	-6507
▁consisted	-6508
▁contented	-6509
▁shuddered	-6510
▁principles	-6511
▁unexpectedly	-6512
met	-6513
omy	-6514
rad	-6515
▁Kr	-6516
▁Sat	-6517
▁coo	-6518
▁fol	-6519
Which	-6520
alled	-6521
aveta	-6522
onies	-6523
ovich	-6524
▁Coss	-6525
▁hook	-6526
▁rule	-6527
beziat	-6528
isions	-6529
▁carts	-6530
▁chall	-6531
▁cough	-6532
▁drops	-6533
▁exped	-6534
▁fired	-6535
▁merit	-6536
▁older	-6537
▁shawl	-6538
▁solic	-6539
▁burden	-6540
▁procur	-6541
▁source	-6542
▁accused	-6543
▁restore	-6544
▁stirred	-6545
▁unusual	-6546
▁division	-6547
▁feverish	-6548
▁incident	-6549
▁irresist	-6550
▁probable	-6551
▁confirmed	-6552
▁essential	-6553
▁tormented	-6554
beziatnikov	-6555
▁expressing	-6556
▁sensations	-6557
▁simplicity	-6558
";	-6559
azz	-6560
Wait	-6561
alia	-6562
bull	-6563
omen	-6564
pher	-6565
spap	-6566
▁sup	-6567
▁vac	-6568
Shall	-6569
iated	-6570
onder	-6571
▁Emmy	-6572
▁fain	-6573
▁hadn	-6574
▁mach	-6575
▁rout	-6576
▁subd	-6577
▁wolf	-6578
ortion	-6579
▁Admir	-6580
▁Green	-6581
▁awake	-6582
▁calls	-6583
▁drown	-6584
▁sunsh	-6585
▁swore	-6586
ouncing	-6587
stained	-6588
version	-6589
▁Bildad	-6590
▁assass	-6591
▁detail	-6592
▁feeble	-6593
▁hyster	-6594
▁jacket	-6595
▁missed	-6596
▁nation	-6597
▁perpet	-6598
▁theory	-6599
▁thread	-6600
▁velvet	-6601
▁vision	-6602
▁Hindley	-6603
▁Spanish	-6604
▁expense	-6605
▁glasses	-6606
▁grounds	-6607
▁madness	-6608
▁portion	-6609
▁seconds	-6610
▁sternly	-6611
▁changing	-6612
▁properly	-6613
▁purchase	-6614
▁complaint	-6615
▁examining	-6616
▁favourite	-6617
▁witnesses	-6618
▁confession	-6619
▁harpooneer	-6620
▁passionate	-6621
▁distinguish	-6622
▁forgiveness	-6623
▁arrangements	-6624
▁consequences	-6625
▁Lebeziatnikov	-6626
IL	-6627
bin	-6628
lle	-6629
aire	-6630
four	-6631
gain	-6632
laced	-6633
▁Gasc	-6634
▁Thee	-6635
▁puff	-6636
▁seas	-6637
ulting	-6638
▁Croft	-6639
▁frost	-6640
▁hence	-6641
▁stars	-6642
▁waved	-6643
▁Tushin	-6644
▁assert	-6645
▁causes	-6646
▁critic	-6647
▁gossip	-6648
▁powder	-6649
▁reader	-6650
▁reluct	-6651
▁uncomm	-6652
▁Admiral	-6653
▁gallant	-6654
▁gravely	-6655
▁impulse	-6656
▁newspap	-6657
▁pushing	-6658
▁scandal	-6659
▁Austrian	-6660
▁province	-6661
▁ascertain	-6662
▁happening	-6663
▁indicated	-6664
▁objection	-6665
▁president	-6666
▁attachment	-6667
▁procurator	-6668
withstanding	-6669
▁inhabitants	-6670
▁expectations	-6671
OO	-6672
isk	-6673
rec	-6674
▁Ap	-6675
▁Im	-6676
▁na	-6677
ilst	-6678
sper	-6679
▁Nes	-6680
▁hyp	-6681
▁owe	-6682
lying	-6683
▁damp	-6684
▁glim	-6685
▁meek	-6686
▁rags	-6687
olomon	-6688
verend	-6689
worthy	-6690
▁Smith	-6691
▁bones	-6692
▁marve	-6693
▁quant	-6694
▁solid	-6695
▁squad	-6696
▁Paissy	-6697
▁appeal	-6698
▁brandy	-6699
▁danced	-6700
▁desert	-6701
▁dismal	-6702
▁freely	-6703
▁golden	-6704
▁labore	-6705
▁Barrois	-6706
▁amongst	-6707
▁doctors	-6708
▁leather	-6709
▁seizing	-6710
▁smoking	-6711
▁argument	-6712
▁preoccup	-6713
▁tenderly	-6714
▁clergyman	-6715
▁eagerness	-6716
▁footsteps	-6717
▁introduce	-6718
▁sincerely	-6719
▁unnatural	-6720
▁glittering	-6721
▁observation	-6722
▁contemptuously	-6723
▁disappointment	-6724
EN	-6725
ES	-6726
;--	-6727
kov	-6728
oes	-6729
rif	-6730
gent	-6731
idel	-6732
omin	-6733
rive	-6734
utch	-6735
▁god	-6736
▁clim	-6737
▁dumb	-6738
▁gets	-6739
▁hole	-6740
▁park	-6741
▁rent	-6742
▁rese	-6743
▁shel	-6744
Excuse	-6745
affles	-6746
icated	-6747
olensk	-6748
▁Since	-6749
▁gaily	-6750
▁inher	-6751
▁liter	-6752
▁serge	-6753
▁chairs	-6754
▁dismay	-6755
▁dispos	-6756
▁fought	-6757
▁morrow	-6758
▁rights	-6759
ceptible	-6760
▁Solomon	-6761
▁glances	-6762
▁gravity	-6763
▁mingled	-6764
Gentlemen	-6765
ppercross	-6766
▁contrast	-6767
▁formerly	-6768
▁numerous	-6769
▁restored	-6770
▁exchanged	-6771
▁hesitated	-6772
▁practical	-6773
▁benefactor	-6774
▁magistrate	-6775
▁appointment	-6776
▁reflections	-6777
can	-6778
ica	-6779
igi	-6780
▁Gr	-6781
uite	-6782
▁Fin	-6783
▁bol	-6784
▁dil	-6785
▁ens	-6786
cture	-6787
enses	-6788
▁City	-6789
▁Pres	-6790
▁ante	-6791
▁desk	-6792
▁disd	-6793
▁elev	-6794
▁leis	-6795
▁lone	-6796
▁tiny	-6797
olence	-6798
vitski	-6799
▁Peleg	-6800
▁Which	-6801
▁alter	-6802
▁bloom	-6803
▁flesh	-6804
▁refer	-6805
ression	-6806
▁Indian	-6807
▁musket	-6808
▁prejud	-6809
▁reject	-6810
▁rested	-6811
ishtchev	-6812
▁Raffles	-6813
▁applied	-6814
▁comprom	-6815
▁embroid	-6816
▁propose	-6817
▁Everyone	-6818
▁Moreover	-6819
▁Smolensk	-6820
▁ambition	-6821
▁catching	-6822
▁commence	-6823
▁trousers	-6824
▁ventured	-6825
▁withdraw	-6826
▁collected	-6827
▁fortunate	-6828
▁immediate	-6829
▁reckoning	-6830
▁recommend	-6831
▁inevitable	-6832
▁Nevertheless	-6833
tis	-6834
aska	-6835
bing	-6836
lers	-6837
pled	-6838
▁Cat	-6839
▁Fen	-6840
▁Kur	-6841
aging	-6842
udder	-6843
ulate	-6844
▁Levi	-6845
▁Pole	-6846
▁bald	-6847
▁beer	-6848
▁bows	-6849
▁earl	-6850
▁emer	-6851
▁seam	-6852
illery	-6853
▁Kelly	-6854
▁arist	-6855
▁ingen	-6856
▁keeps	-6857
▁pitch	-6858
▁shrie	-6859
▁souls	-6860
▁works	-6861
▁wrath	-6862
▁centre	-6863
▁subtle	-6864
▁council	-6865
▁divorce	-6866
▁landing	-6867
▁lantern	-6868
▁plunged	-6869
▁privile	-6870
▁prosper	-6871
▁tremble	-6872
▁Kellynch	-6873
▁acquired	-6874
▁counting	-6875
▁dropping	-6876
▁mourning	-6877
▁Nesvitski	-6878
▁condemned	-6879
▁interpret	-6880
▁terrified	-6881
▁comparison	-6882
▁compliment	-6883
▁struggling	-6884
▁superiority	-6885
▁establishment	-6886
His	-6887
amb	-6888
mas	-6889
----	-6890
iend	-6891
rust	-6892
work	-6893
eresa	-6894
erick	-6895
▁Vera	-6896
▁buff	-6897
▁grey	-6898
▁lift	-6899
▁moan	-6900
▁peep	-6901
▁spec	-6902
00,000	-6903
usions	-6904
▁ahead	-6905
▁alike	-6906
▁screw	-6907
▁scrut	-6908
▁snuff	-6909
atching	-6910
▁battal	-6911
▁bundle	-6912
▁coldly	-6913
▁forces	-6914
▁lackey	-6915
▁origin	-6916
▁resour	-6917
▁united	-6918
▁waving	-6919
▁behaved	-6920
▁commiss	-6921
▁connect	-6922
▁counted	-6923
▁killing	-6924
▁studies	-6925
▁thanked	-6926
▁worried	-6927
▁articles	-6928
▁medicine	-6929
▁uttering	-6930
▁encounter	-6931
▁mountains	-6932
▁questioned	-6933
▁examination	-6934
▁independent	-6935
▁monseigneur	-6936
▁threatening	-6937
▁disappointed	-6938
▁Shtcherbatsky	-6939
ael	-6940
amn	-6941
gor	-6942
min	-6943
Just	-6944
keys	-6945
oyal	-6946
usal	-6947
▁Jes	-6948
▁fer	-6949
▁sna	-6950
▁stu	-6951
▁tip	-6952
▁wax	-6953
?..."	-6954
Every	-6955
ailov	-6956
assot	-6957
idrig	-6958
iring	-6959
throp	-6960
▁Arab	-6961
▁Bili	-6962
▁Like	-6963
▁lads	-6964
▁rows	-6965
▁tore	-6966
ounted	-6967
▁Phara	-6968
▁Vicar	-6969
▁feast	-6970
▁monst	-6971
▁curate	-6972
▁deeper	-6973
▁eldest	-6974
▁jewell	-6975
▁mutual	-6976
▁steady	-6977
▁Bilibin	-6978
▁Brother	-6979
▁chimney	-6980
▁clasped	-6981
▁created	-6982
▁degrees	-6983
▁produce	-6984
▁radiant	-6985
▁student	-6986
▁worldly	-6987
▁Lizaveta	-6988
▁disorder	-6989
▁moreover	-6990
▁shooting	-6991
▁sunshine	-6992
▁vexation	-6993
idrigailov	-6994
▁arguments	-6995
▁neighbors	-6996
▁persisted	-6997
▁preferred	-6998
▁quivering	-6999
▁supposing	-7000
▁Providence	-7001
▁threatened	-7002
▁confidential	-7003
▁0	-7004
ette	-7005
ider	-7006
lest	-7007
rain	-7008
▁Car	-7009
▁Hon	-7010
▁apt	-7011
▁bac	-7012
▁pup	-7013
▁ske	-7014
▁Past	-7015
▁defe	-7016
▁mend	-7017
▁sand	-7018
▁scow	-7019
▁sket	-7020
▁bliss	-7021
▁chain	-7022
▁disgu	-7023
▁feels	-7024
▁fruit	-7025
▁illum	-7026
▁indef	-7027
▁mustn	-7028
▁closer	-7029
▁dashed	-7030
▁depths	-7031
▁humour	-7032
▁joyful	-7033
▁remove	-7034
▁saving	-7035
▁stream	-7036
assotkin	-7037
▁conject	-7038
▁crimson	-7039
▁figures	-7040
▁notions	-7041
▁pretend	-7042
▁protest	-7043
▁species	-7044
▁sympath	-7045
▁warning	-7046
▁Although	-7047
▁lowering	-7048
▁softened	-7049
olenishtchev	-7050
▁description	-7051
▁inclination	-7052
▁Svidrigailov	-7053
▁neighborhood	-7054
▁characteristic	-7055
zv	-7056
May	-7057
gin	-7058
hic	-7059
lac	-7060
ault	-7061
enes	-7062
nigs	-7063
time	-7064
▁Mac	-7065
▁Tra	-7066
▁ech	-7067
▁sne	-7068
count	-7069
field	-7070
ganov	-7071
leton	-7072
piece	-7073
umber	-7074
▁Trum	-7075
▁Tsar	-7076
▁cash	-7077
▁gift	-7078
▁idle	-7079
▁thri	-7080
▁whit	-7081
anches	-7082
▁Hills	-7083
▁brood	-7084
▁eaten	-7085
▁exert	-7086
▁fence	-7087
▁newly	-7088
▁thief	-7089
ributed	-7090
▁Signor	-7091
▁Vanity	-7092
▁cellar	-7093
▁hermit	-7094
▁indisp	-7095
▁Whether	-7096
▁aroused	-7097
▁becomes	-7098
▁earlier	-7099
▁examine	-7100
▁harpoon	-7101
▁induced	-7102
▁worship	-7103
▁Vassenka	-7104
▁branches	-7105
▁delirium	-7106
▁nobility	-7107
▁quantity	-7108
▁severely	-7109
▁summoned	-7110
▁champagne	-7111
▁inquiring	-7112
▁painfully	-7113
▁principle	-7114
▁condescend	-7115
▁reasonable	-7116
▁sentiments	-7117
▁preparations	-7118
▁Golenishtchev	-7119
Ch	-7120
IV	-7121
yr	-7122
uil	-7123
▁je	-7124
Alas	-7125
emed	-7126
uits	-7127
▁dig	-7128
agues	-7129
pherd	-7130
▁Dick	-7131
▁aide	-7132
▁fill	-7133
▁kick	-7134
▁trap	-7135
▁vers	-7136
nigsen	-7137
otions	-7138
ourage	-7139
▁Place	-7140
▁brisk	-7141
▁chase	-7142
▁debts	-7143
▁disch	-7144
▁flash	-7145
▁infer	-7146
▁stamp	-7147
▁theat	-7148
▁Edward	-7149
▁Seeing	-7150
▁acting	-7151
▁center	-7152
▁collar	-7153
▁elbows	-7154
▁naught	-7155
▁proble	-7156
▁trades	-7157
▁wisdom	-7158
▁Pharaon	-7159
▁charged	-7160
▁confirm	-7161
▁partner	-7162
▁rushing	-7163
▁shudder	-7164
▁Kalganov	-7165
▁Petrovna	-7166
▁Trumbull	-7167
▁delicacy	-7168
▁diamonds	-7169
▁enjoying	-7170
▁graceful	-7171
▁interrog	-7172
▁snatched	-7173
▁whalemen	-7174
▁Leviathan	-7175
▁adventure	-7176
▁apprehens	-7177
▁commanded	-7178
▁residence	-7179
▁advantages	-7180
▁bewildered	-7181
▁generosity	-7182
▁perplexity	-7183
▁respectful	-7184
▁acknowledge	-7185
▁determination	-7186
za	-7187
oos	-7188
tic	-7189
▁Eh	-7190
ming	-7191
rant	-7192
ukov	-7193
▁Gen	-7194
▁deb	-7195
assad	-7196
inine	-7197
otted	-7198
▁Very	-7199
▁coin	-7200
▁meat	-7201
▁rasc	-7202
▁subs	-7203
abella	-7204
akened	-7205
everal	-7206
idents	-7207
▁Nelly	-7208
▁consp	-7209
▁fires	-7210
▁plump	-7211
▁stuck	-7212
▁Amalia	-7213
▁Rector	-7214
▁apolog	-7215
▁autumn	-7216
▁flower	-7217
▁quarre	-7218
▁repose	-7219
▁tempor	-7220
itations	-7221
▁Henriet	-7222
▁Michael	-7223
▁cleared	-7224
▁embrace	-7225
▁miracle	-7226
▁perspir	-7227
▁placing	-7228
▁reports	-7229
▁sinking	-7230
▁abruptly	-7231
▁educated	-7232
▁majestic	-7233
▁sergeant	-7234
▁squadron	-7235
▁whiskers	-7236
rehensible	-7237
▁Bennigsen	-7238
▁animation	-7239
▁assembled	-7240
▁certainty	-7241
▁continual	-7242
▁irritated	-7243
▁hesitating	-7244
▁thoughtful	-7245
▁accomplished	-7246
▁deliberately	-7247
ean	-7248
hal	-7249
mon	-7250
nut	-7251
ski	-7252
Miss	-7253
Poor	-7254
afea	-7255
port	-7256
▁Bus	-7257
▁ecc	-7258
▁fac	-7259
▁Pink	-7260
▁ages	-7261
▁bust	-7262
▁ferv	-7263
▁fled	-7264
▁puzz	-7265
▁subl	-7266
rained	-7267
▁Fenya	-7268
▁Mihal	-7269
▁Right	-7270
▁appet	-7271
▁bored	-7272
▁cease	-7273
▁grant	-7274
▁madam	-7275
▁races	-7276
▁amazed	-7277
▁dreary	-7278
▁incess	-7279
▁livres	-7280
▁marvel	-7281
▁punish	-7282
▁review	-7283
▁rubles	-7284
▁stolen	-7285
▁wasted	-7286
▁whilst	-7287
fortunes	-7288
▁annoyed	-7289
▁breathe	-7290
▁checked	-7291
▁closing	-7292
▁despise	-7293
▁hideous	-7294
▁longing	-7295
▁careless	-7296
▁despised	-7297
▁expenses	-7298
▁feminine	-7299
▁habitual	-7300
▁inconven	-7301
▁mountain	-7302
▁security	-7303
▁trifling	-7304
▁uneasily	-7305
▁Henrietta	-7306
▁Mihalovna	-7307
▁Pinkerton	-7308
▁elsewhere	-7309
▁incapable	-7310
▁Krassotkin	-7311
▁destruction	-7312
▁entertained	-7313
▁probability	-7314
▁embarrassment	-7315
▁notwithstanding	-7316
ste	-7317
▁II	-7318
eves	-7319
lini	-7320
quar	-7321
urov	-7322
wood	-7323
▁axe	-7324
▁jer	-7325
▁lap	-7326
Mamma	-7327
anges	-7328
ashes	-7329
hered	-7330
urred	-7331
▁Jove	-7332
▁page	-7333
▁rosy	-7334
ailiff	-7335
hering	-7336
isible	-7337
rewell	-7338
▁Bazin	-7339
▁Stand	-7340
▁bills	-7341
▁colle	-7342
▁holid	-7343
▁sheet	-7344
▁skull	-7345
▁tones	-7346
atively	-7347
▁Agafea	-7348
▁Master	-7349
▁Teresa	-7350
▁bachel	-7351
▁butler	-7352
▁carpet	-7353
▁county	-7354
▁extent	-7355
▁hearth	-7356
▁hinted	-7357
▁hunger	-7358
▁safety	-7359
▁shouts	-7360
▁Maximov	-7361
▁adopted	-7362
▁avoided	-7363
▁begging	-7364
▁deserve	-7365
▁disease	-7366
▁dreaded	-7367
▁dreamed	-7368
▁ecstasy	-7369
▁whither	-7370
▁ambassad	-7371
▁daylight	-7372
▁eighteen	-7373
▁exchange	-7374
▁farewell	-7375
▁knocking	-7376
▁manifest	-7377
▁painting	-7378
▁secretly	-7379
▁solemnly	-7380
▁admirable	-7381
▁inspector	-7382
▁scattered	-7383
▁statement	-7384
▁swallowed	-7385
▁containing	-7386
fic	-7387
pro	-7388
two	-7389
iate	-7390
rini	-7391
text	-7392
vert	-7393
▁Lat	-7394
▁awe	-7395
▁ink	-7396
▁nap	-7397
owner	-7398
ridge	-7399
smith	-7400
uster	-7401
uting	-7402
▁Bald	-7403
▁Bull	-7404
▁Holy	-7405
▁Port	-7406
▁Prus	-7407
▁anch	-7408
▁orph	-7409
▁pang	-7410
▁rope	-7411
▁tomb	-7412
▁unre	-7413
▁veil	-7414
▁wing	-7415
closed	-7416
erving	-7417
itably	-7418
▁Grand	-7419
▁Luigi	-7420
▁coast	-7421
▁moder	-7422
▁naked	-7423
▁reign	-7424
▁using	-7425
▁Andrey	-7426
▁actual	-7427
▁loaded	-7428
▁relate	-7429
▁remote	-7430
▁Kuragin	-7431
▁Vassily	-7432
▁deliver	-7433
▁emperor	-7434
▁haughty	-7435
▁marshal	-7436
▁Isabella	-7437
▁Pastrini	-7438
▁contents	-7439
▁fourteen	-7440
▁mustache	-7441
▁youthful	-7442
▁interfere	-7443
▁procureur	-7444
▁supported	-7445
▁treatment	-7446
▁universal	-7447
▁suspicions	-7448
▁suspicious	-7449
▁antechamber	-7450
▁fashionable	-7451
eds	-7452
ete	-7453
uge	-7454
ulp	-7455
uly	-7456
▁Mo	-7457
Stop	-7458
avil	-7459
ique	-7460
mosp	-7461
odka	-7462
quen	-7463
▁Hug	-7464
▁III	-7465
▁mix	-7466
▁sul	-7467
apsed	-7468
icule	-7469
istin	-7470
ucked	-7471
urrah	-7472
▁Phil	-7473
▁Soon	-7474
▁dart	-7475
▁fren	-7476
▁glow	-7477
▁grie	-7478
▁keys	-7479
▁unne	-7480
cribed	-7481
rother	-7482
▁Among	-7483
▁Horro	-7484
▁angle	-7485
▁armed	-7486
▁bells	-7487
▁billi	-7488
▁blush	-7489
▁crush	-7490
▁didst	-7491
▁guide	-7492
▁ident	-7493
▁niece	-7494
▁satin	-7495
▁scold	-7496
▁surre	-7497
▁tells	-7498
▁trade	-7499
▁waste	-7500
▁weigh	-7501
▁Louvre	-7502
▁atmosp	-7503
▁brains	-7504
▁burned	-7505
▁coffin	-7506
▁hanged	-7507
▁horrid	-7508
▁strain	-7509
▁stroke	-7510
▁thirst	-7511
▁tossed	-7512
▁traces	-7513
▁wheels	-7514
quarters	-7515
sibility	-7516
▁Several	-7517
▁counter	-7518
▁exposed	-7519
▁filling	-7520
▁resting	-7521
▁shadows	-7522
▁armchair	-7523
▁backward	-7524
▁deprived	-7525
▁joyfully	-7526
▁positive	-7527
▁preserve	-7528
▁proposal	-7529
▁referred	-7530
▁smallest	-7531
▁suitable	-7532
▁terribly	-7533
▁annoyance	-7534
▁commenced	-7535
▁innocence	-7536
▁invisible	-7537
▁preceding	-7538
▁strangers	-7539
▁distressed	-7540
▁dreadfully	-7541
▁resolutely	-7542
▁housekeeper	-7543
▁misfortunes	-7544
avy	-7545
bar	-7546
iel	-7547
obe	-7548
rey	-7549
six	-7550
▁OF	-7551
bred	-7552
idge	-7553
isha	-7554
phas	-7555
udes	-7556
uity	-7557
▁Tow	-7558
▁bay	-7559
▁oak	-7560
▁sed	-7561
▁voc	-7562
▁vul	-7563
iably	-7564
inger	-7565
istak	-7566
liest	-7567
orney	-7568
viour	-7569
▁Dron	-7570
▁Lyme	-7571
▁fund	-7572
▁meal	-7573
▁mile	-7574
▁resc	-7575
▁size	-7576
▁woke	-7577
herent	-7578
resses	-7579
▁borne	-7580
▁dried	-7581
▁error	-7582
▁grasp	-7583
▁legal	-7584
▁shoot	-7585
▁songs	-7586
▁sympt	-7587
▁vigor	-7588
itching	-7589
ittered	-7590
▁advers	-7591
▁altern	-7592
▁consum	-7593
▁emphas	-7594
▁exting	-7595
▁hoarse	-7596
▁insign	-7597
▁invite	-7598
▁joking	-7599
▁liking	-7600
▁lonely	-7601
▁roared	-7602
▁rubbed	-7603
▁supply	-7604
▁washed	-7605
▁Benwick	-7606
▁artific	-7607
▁bailiff	-7608
▁barrier	-7609
▁discern	-7610
▁dispute	-7611
▁existed	-7612
▁fatigue	-7613
▁nursery	-7614
▁pretext	-7615
▁prudent	-7616
▁realize	-7617
▁slender	-7618
▁declined	-7619
▁frequent	-7620
▁intimacy	-7621
▁presents	-7622
▁promptly	-7623
▁shameful	-7624
▁unmistak	-7625
▁wherever	-7626
▁Christmas	-7627
▁artillery	-7628
▁believing	-7629
▁protection	-7630
▁differently	-7631
▁impressions	-7632
▁inquiringly	-7633
Av	-7634
Was	-7635
aux	-7636
elf	-7637
iev	-7638
vin	-7639
▁En	-7640
ayed	-7641
emon	-7642
hind	-7643
ilet	-7644
▁Jac	-7645
▁Mur	-7646
armel	-7647
heard	-7648
uries	-7649
▁Papa	-7650
▁Ward	-7651
▁bast	-7652
▁buck	-7653
▁dict	-7654
▁fant	-7655
▁mars	-7656
▁mart	-7657
▁prel	-7658
Please	-7659
haired	-7660
othing	-7661
pended	-7662
▁India	-7663
▁guilt	-7664
▁guine	-7665
▁pavil	-7666
▁skirt	-7667
▁vodka	-7668
idently	-7669
liament	-7670
ousquet	-7671
▁Little	-7672
▁advise	-7673
▁ardent	-7674
▁beings	-7675
▁butter	-7676
▁profit	-7677
▁scared	-7678
▁stable	-7679
▁warmth	-7680
▁corners	-7681
▁depends	-7682
▁disdain	-7683
▁dresses	-7684
▁nodding	-7685
▁prolong	-7686
▁Highness	-7687
▁bestowed	-7688
▁emotions	-7689
▁gloomily	-7690
▁violence	-7691
▁gathering	-7692
▁pleasures	-7693
▁tranquill	-7694
▁maintained	-7695
▁perceiving	-7696
▁distinction	-7697
▁impatiently	-7698
▁recommended	-7699
thy	-7700
▁dw	-7701
▁iv	-7702
eyed	-7703
gate	-7704
mber	-7705
ripp	-7706
vial	-7707
▁Kir	-7708
▁Rod	-7709
▁hoo	-7710
omach	-7711
ubble	-7712
▁Dess	-7713
▁Each	-7714
▁Paul	-7715
▁Rich	-7716
▁Vien	-7717
▁abst	-7718
▁cure	-7719
▁lake	-7720
▁mute	-7721
▁wash	-7722
Madame	-7723
coming	-7724
course	-7725
idding	-7726
▁Canty	-7727
▁Latin	-7728
▁crazy	-7729
▁elect	-7730
▁erect	-7731
▁fiend	-7732
▁idiot	-7733
▁limbs	-7734
▁moist	-7735
▁stagg	-7736
▁thres	-7737
▁worry	-7738
ameless	-7739
quenard	-7740
▁candid	-7741
▁daring	-7742
▁decent	-7743
▁gloves	-7744
▁handle	-7745
▁joyous	-7746
▁learnt	-7747
▁malign	-7748
▁occupy	-7749
▁physic	-7750
▁serene	-7751
aneously	-7752
▁answers	-7753
▁circles	-7754
▁committ	-7755
▁obvious	-7756
▁prepare	-7757
▁reserve	-7758
▁satisfy	-7759
▁sobbing	-7760
ousqueton	-7761
▁ascended	-7762
▁bachelor	-7763
▁conveyed	-7764
▁invented	-7765
▁measured	-7766
▁relieved	-7767
▁reported	-7768
▁stepping	-7769
▁unnecess	-7770
▁vigorous	-7771
▁Coquenard	-7772
▁behaviour	-7773
▁preserved	-7774
▁senseless	-7775
▁traveller	-7776
▁opposition	-7777
▁regimental	-7778
▁travelling	-7779
▁overwhelmed	-7780
▁introduction	-7781
gue	-7782
hil	-7783
iva	-7784
mat	-7785
ube	-7786
upp	-7787
▁Bo	-7788
▁gy	-7789
acon	-7790
even	-7791
olic	-7792
smen	-7793
such	-7794
upon	-7795
▁Bed	-7796
▁Mon	-7797
▁Yan	-7798
▁bat	-7799
▁irr	-7800
▁lur	-7801
▁mas	-7802
▁ric	-7803
never	-7804
▁Arch	-7805
▁Brus	-7806
▁bind	-7807
▁clum	-7808
▁envy	-7809
▁scan	-7810
imming	-7811
ossess	-7812
▁agent	-7813
▁faded	-7814
▁irreg	-7815
▁lucky	-7816
▁punct	-7817
▁rever	-7818
▁stole	-7819
nothing	-7820
▁avenue	-7821
▁fierce	-7822
▁invent	-7823
▁madman	-7824
▁meadow	-7825
▁observ	-7826
▁recent	-7827
▁theirs	-7828
▁throne	-7829
▁vulgar	-7830
▁waiter	-7831
▁warned	-7832
▁writes	-7833
ustrious	-7834
▁advised	-7835
▁fathers	-7836
▁happily	-7837
▁praying	-7838
▁stomach	-7839
▁subdued	-7840
▁trivial	-7841
▁wealthy	-7842
▁Brussels	-7843
▁assented	-7844
▁conflict	-7845
▁depended	-7846
▁executed	-7847
▁external	-7848
▁hopeless	-7849
▁passions	-7850
▁politics	-7851
▁treacher	-7852
▁arranging	-7853
▁horseback	-7854
▁lightning	-7855
▁bitterness	-7856
▁calculated	-7857
▁insignific	-7858
▁irritation	-7859
▁lieutenant	-7860
▁represented	-7861
▁intellectual	-7862
▁mechanically	-7863
wr	-7864
bes	-7865
oft	-7866
uft	-7867
▁Ca	-7868
acco	-7869
aret	-7870
have	-7871
maid	-7872
ucky	-7873
▁Fed	-7874
▁Mal	-7875
▁bou	-7876
▁san	-7877
adays	-7878
assed	-7879
bacco	-7880
ommod	-7881
▁Ilya	-7882
▁Pray	-7883
▁chat	-7884
▁cush	-7885
▁sale	-7886
▁surm	-7887
▁wave	-7888
atives	-7889
formed	-7890
▁About	-7891
▁Miles	-7892
▁corps	-7893
▁craft	-7894
▁eloqu	-7895
▁finds	-7896
▁fools	-7897
▁harsh	-7898
▁ideal	-7899
▁invar	-7900
▁loath	-7901
▁peril	-7902
▁recei	-7903
▁revel	-7904
▁seize	-7905
▁sheep	-7906
▁stare	-7907
▁token	-7908
▁vehic	-7909
▁vener	-7910
▁Prussi	-7911
▁assume	-7912
▁boldly	-7913
▁cattle	-7914
▁fitted	-7915
▁intens	-7916
▁nerves	-7917
▁shared	-7918
▁talent	-7919
▁volume	-7920
▁ceiling	-7921
▁current	-7922
▁dinners	-7923
▁drawers	-7924
▁healthy	-7925
▁leisure	-7926
▁marvell	-7927
▁mission	-7928
▁refusal	-7929
▁seventy	-7930
▁thither	-7931
▁improved	-7932
▁meantime	-7933
▁reserved	-7934
▁respects	-7935
▁romantic	-7936
▁shrugged	-7937
▁startled	-7938
▁assurance	-7939
▁attending	-7940
▁finishing	-7941
▁forbidden	-7942
▁purchased	-7943
▁recalling	-7944
▁unwilling	-7945
▁wandering	-7946
▁Mousqueton	-7947
▁yourselves	-7948
▁grandmother	-7949
▁humiliation	-7950
▁performance	-7951
▁neighbourhood	-7952
Or	-7953
▁AN	-7954
▁ah	-7955
▁ge	-7956
▁ena	-7957
▁fan	-7958
▁ign	-7959
▁sam	-7960
alley	-7961
apont	-7962
evich	-7963
gence	-7964
imity	-7965
olyte	-7966
▁Moby	-7967
▁Sept	-7968
▁Tash	-7969
▁West	-7970
▁cope	-7971
▁dand	-7972
▁fest	-7973
▁fist	-7974
▁flow	-7975
▁fors	-7976
▁male	-7977
▁vest	-7978
ardieu	-7979
oubted	-7980
▁Comte	-7981
▁Could	-7982
▁abund	-7983
▁block	-7984
▁gente	-7985
▁heels	-7986
▁infam	-7987
▁maybe	-7988
▁ornam	-7989
▁rocks	-7990
▁track	-7991
▁Gascon	-7992
▁People	-7993
▁Vienna	-7994
▁artist	-7995
▁begins	-7996
▁behalf	-7997
▁bodies	-7998
▁courty	-7999
▁engage	-8000
▁louder	-8001
▁odious	-8002
▁parish	-8003
▁permit	-8004
▁welcom	-8005
interest	-8006
▁Because	-8007
▁conquer	-8008
▁console	-8009
▁deceive	-8010
▁dungeon	-8011
▁fearing	-8012
▁follows	-8013
▁horizon	-8014
▁liberal	-8015
▁marshes	-8016
▁superst	-8017
▁tobacco	-8018
cientific	-8019
▁Ferapont	-8020
▁creation	-8021
▁forgiven	-8022
▁inferior	-8023
▁rapidity	-8024
▁superint	-8025
▁symptoms	-8026
▁viscount	-8027
▁assistant	-8028
▁composure	-8029
▁neglected	-8030
▁permitted	-8031
▁readiness	-8032
▁reverence	-8033
▁instrument	-8034
▁respecting	-8035
▁successful	-8036
▁university	-8037
▁preparation	-8038
▁responsible	-8039
▁significant	-8040
▁concentrated	-8041
ba	-8042
Get	-8043
ded	-8044
vol	-8045
▁IV	-8046
▁au	-8047
alls	-8048
aule	-8049
from	-8050
hole	-8051
lain	-8052
lder	-8053
vard	-8054
▁Has	-8055
▁Jew	-8056
▁Med	-8057
▁ach	-8058
▁loc	-8059
▁non	-8060
urday	-8061
▁Cape	-8062
▁Hand	-8063
▁Hipp	-8064
▁June	-8065
▁bade	-8066
▁dram	-8067
▁echo	-8068
▁econ	-8069
▁hasn	-8070
▁liqu	-8071
▁outl	-8072
▁pave	-8073
▁sins	-8074
▁ward	-8075
alling	-8076
estion	-8077
▁Waule	-8078
▁admin	-8079
▁chill	-8080
▁decis	-8081
▁flame	-8082
▁frock	-8083
▁impet	-8084
▁milit	-8085
▁miser	-8086
▁naive	-8087
▁phant	-8088
▁rigid	-8089
▁steep	-8090
▁union	-8091
▁wheel	-8092
ardinal	-8093
ization	-8094
▁Listen	-8095
▁Polish	-8096
▁affirm	-8097
▁brings	-8098
▁commit	-8099
▁emphat	-8100
▁hasten	-8101
▁larger	-8102
▁marble	-8103
▁packed	-8104
▁paraly	-8105
▁scenes	-8106
▁sleeve	-8107
▁survey	-8108
▁unjust	-8109
uthering	-8110
▁chapter	-8111
▁estates	-8112
▁glowing	-8113
▁lowered	-8114
▁outward	-8115
▁stables	-8116
▁sublime	-8117
▁wrought	-8118
▁Remember	-8119
▁arriving	-8120
▁breathed	-8121
▁complain	-8122
▁conceive	-8123
▁hurrying	-8124
▁measures	-8125
▁overcoat	-8126
▁punished	-8127
▁Frederick	-8128
▁September	-8129
▁Something	-8130
▁completed	-8131
▁falsehood	-8132
▁instances	-8133
▁irritable	-8134
▁atmosphere	-8135
▁breathless	-8136
▁encouraged	-8137
▁explaining	-8138
▁proportion	-8139
▁scientific	-8140
▁irresistible	-8141
LL	-8142
Has	-8143
did	-8144
ige	-8145
ova	-8146
ares	-8147
hern	-8148
▁Des	-8149
▁Mak	-8150
▁cit	-8151
▁lou	-8152
▁ped	-8153
▁sex	-8154
0,000	-8155
Count	-8156
cloth	-8157
sibly	-8158
▁Aged	-8159
▁East	-8160
▁Luci	-8161
▁adjo	-8162
▁bond	-8163
▁corn	-8164
▁roar	-8165
▁seal	-8166
▁shab	-8167
▁spin	-8168
▁sunk	-8169
▁trot	-8170
bridge	-8171
gments	-8172
▁Shall	-8173
▁abuse	-8174
▁clung	-8175
▁curse	-8176
▁exhib	-8177
▁folks	-8178
▁hasty	-8179
▁hints	-8180
▁jokes	-8181
▁talks	-8182
▁unacc	-8183
▁Rodion	-8184
▁bodily	-8185
▁claims	-8186
▁driver	-8187
▁guards	-8188
▁infant	-8189
▁openly	-8190
▁persec	-8191
▁purple	-8192
▁scream	-8193
▁tables	-8194
▁wounds	-8195
▁Bullock	-8196
▁constru	-8197
▁counsel	-8198
▁earthly	-8199
▁elderly	-8200
▁forming	-8201
▁happier	-8202
▁leagues	-8203
▁orderly	-8204
▁resolve	-8205
▁sadness	-8206
▁scrutin	-8207
▁sixteen	-8208
▁sleeves	-8209
▁appetite	-8210
▁awakened	-8211
▁evenings	-8212
▁mischief	-8213
▁shrieked	-8214
▁sideways	-8215
▁Wuthering	-8216
▁courtyard	-8217
▁depressed	-8218
▁documents	-8219
▁retreated	-8220
▁carelessly	-8221
▁contradict	-8222
▁arrangement	-8223
▁acknowledged	-8224
ING	-8225
con	-8226
ird	-8227
True	-8228
cell	-8229
eous	-8230
eren	-8231
omte	-8232
peys	-8233
▁Kat	-8234
▁Lie	-8235
▁hom	-8236
▁jun	-8237
▁pig	-8238
▁woe	-8239
Would	-8240
mates	-8241
roval	-8242
utter	-8243
▁Cler	-8244
▁Dear	-8245
▁Mont	-8246
▁barn	-8247
▁borz	-8248
▁brut	-8249
▁damn	-8250
▁lace	-8251
▁oars	-8252
▁pall	-8253
▁swim	-8254
▁unse	-8255
ailing	-8256
ashvin	-8257
assing	-8258
icable	-8259
itious	-8260
peyson	-8261
▁Catal	-8262
▁Henry	-8263
▁Other	-8264
▁Young	-8265
▁bears	-8266
▁forge	-8267
▁hills	-8268
▁paint	-8269
▁stupe	-8270
▁swept	-8271
▁wives	-8272
inarily	-8273
inating	-8274
▁Wardes	-8275
▁button	-8276
▁combat	-8277
▁eighty	-8278
▁induce	-8279
▁landed	-8280
▁poetry	-8281
▁reappe	-8282
▁sailed	-8283
▁waking	-8284
▁weapon	-8285
▁yonder	-8286
ulations	-8287
▁casting	-8288
▁destiny	-8289
▁energet	-8290
▁grasped	-8291
▁popular	-8292
▁rubbing	-8293
▁serving	-8294
▁speaker	-8295
▁submiss	-8296
▁subsequ	-8297
▁tremend	-8298
▁villain	-8299
▁weighed	-8300
▁detected	-8301
▁floating	-8302
▁heartily	-8303
▁ironical	-8304
▁propriet	-8305
▁situated	-8306
▁teaching	-8307
▁tortured	-8308
▁withdrew	-8309
▁Hippolyte	-8310
▁attentive	-8311
▁searching	-8312
▁struggled	-8313
▁substance	-8314
▁threshold	-8315
▁tolerably	-8316
▁attractive	-8317
▁philosophy	-8318
▁recognised	-8319
▁strengthen	-8320
▁connections	-8321
▁intercourse	-8322
▁announcement	-8323
▁passionately	-8324
▁instinctively	-8325
',	-8326
ti	-8327
bad	-8328
gen	-8329
ped	-8330
rat	-8331
rib	-8332
win	-8333
clay	-8334
mann	-8335
mean	-8336
otel	-8337
otto	-8338
riot	-8339
▁Var	-8340
▁fog	-8341
▁sob	-8342
about	-8343
chess	-8344
ersed	-8345
every	-8346
ifted	-8347
ishop	-8348
▁Bapt	-8349
▁Carc	-8350
▁bord	-8351
▁dazz	-8352
▁deaf	-8353
▁nast	-8354
▁ratt	-8355
▁ruff	-8356
▁vice	-8357
ements	-8358
itched	-8359
llable	-8360
rating	-8361
▁Think	-8362
▁appar	-8363
▁apply	-8364
▁boxes	-8365
▁curly	-8366
▁intol	-8367
▁ivory	-8368
▁marks	-8369
▁wiped	-8370
factory	-8371
▁Behind	-8372
▁Busoni	-8373
▁Smurov	-8374
▁Wrench	-8375
▁Yanina	-8376
▁adored	-8377
▁attain	-8378
▁beggar	-8379
▁behave	-8380
▁crowns	-8381
▁deadly	-8382
▁devils	-8383
▁immort	-8384
▁inquis	-8385
▁magnan	-8386
▁mantle	-8387
▁masses	-8388
▁packet	-8389
▁pursue	-8390
▁resign	-8391
▁sealed	-8392
▁sentin	-8393
▁speaks	-8394
▁stated	-8395
▁string	-8396
▁submit	-8397
▁Barclay	-8398
▁Clerval	-8399
▁Through	-8400
▁Yashvin	-8401
▁blowing	-8402
▁changes	-8403
▁element	-8404
▁fishery	-8405
▁granted	-8406
▁injured	-8407
▁lackeys	-8408
▁monarch	-8409
▁motives	-8410
▁studied	-8411
▁vaguely	-8412
▁virtues	-8413
▁vividly	-8414
▁whereas	-8415
▁Carconte	-8416
▁Saturday	-8417
▁destined	-8418
▁pavilion	-8419
▁replaced	-8420
▁selected	-8421
▁wandered	-8422
▁welcomed	-8423
▁challenge	-8424
▁dignified	-8425
▁muttering	-8426
▁obedience	-8427
▁salvation	-8428
▁sparkling	-8429
▁stockings	-8430
▁ambassador	-8431
▁attendance	-8432
▁conception	-8433
▁descending	-8434
▁displeased	-8435
▁expedition	-8436
▁precaution	-8437
▁proceeding	-8438
▁retreating	-8439
▁stretching	-8440
▁authorities	-8441
▁philosopher	-8442
▁unnecessary	-8443
Am	-8444
RE	-8445
bro	-8446
cts	-8447
fya	-8448
▁VI	-8449
Pray	-8450
Sire	-8451
Thou	-8452
bler	-8453
bour	-8454
fect	-8455
grim	-8456
▁Dav	-8457
▁Mav	-8458
▁Red	-8459
▁Tim	-8460
actly	-8461
arson	-8462
itors	-8463
might	-8464
since	-8465
▁asse	-8466
▁brig	-8467
▁chem	-8468
▁date	-8469
▁fits	-8470
▁lend	-8471
▁mode	-8472
▁pony	-8473
Father	-8474
rances	-8475
▁Sofya	-8476
▁burnt	-8477
▁cigar	-8478
▁hired	-8479
▁perse	-8480
▁petty	-8481
▁prett	-8482
▁punch	-8483
colored	-8484
▁Winter	-8485
▁deject	-8486
▁issued	-8487
▁mercer	-8488
▁scheme	-8489
▁shaken	-8490
▁transf	-8491
▁bargain	-8492
▁baronet	-8493
▁beaming	-8494
▁demonst	-8495
▁despite	-8496
▁effects	-8497
▁enabled	-8498
▁exclaim	-8499
▁floated	-8500
▁footmen	-8501
▁frantic	-8502
▁obscure	-8503
▁theater	-8504
▁bleeding	-8505
▁brightly	-8506
▁covering	-8507
▁desirous	-8508
▁frighten	-8509
▁inspired	-8510
▁pavement	-8511
▁prudence	-8512
▁reckoned	-8513
▁supplied	-8514
▁galloping	-8515
▁irregular	-8516
▁specially	-8517
▁undertake	-8518
▁management	-8519
▁marvellous	-8520
▁peculiarly	-8521
▁recollected	-8522
▁tranquillity	-8523
TH	-8524
'--	-8525
ada	-8526
ahl	-8527
eva	-8528
igg	-8529
lls	-8530
pen	-8531
▁Af	-8532
▁Pf	-8533
aise	-8534
bear	-8535
elix	-8536
gery	-8537
ogue	-8538
open	-8539
tell	-8540
ugen	-8541
▁Cle	-8542
▁Con	-8543
▁Gar	-8544
▁dru	-8545
▁shr	-8546
▁tid	-8547
dened	-8548
enter	-8549
ghton	-8550
going	-8551
inity	-8552
itsky	-8553
ppino	-8554
riend	-8555
▁Clay	-8556
▁Elba	-8557
▁Love	-8558
▁Most	-8559
▁Park	-8560
▁Pere	-8561
▁Rect	-8562
▁Thom	-8563
▁bath	-8564
▁bone	-8565
▁clen	-8566
▁fret	-8567
▁inse	-8568
▁merc	-8569
▁pour	-8570
▁tact	-8571
manuel	-8572
rusted	-8573
▁accur	-8574
▁awoke	-8575
▁coats	-8576
▁flood	-8577
▁kinds	-8578
▁nails	-8579
▁noted	-8580
▁paced	-8581
▁penny	-8582
▁rings	-8583
▁scent	-8584
▁shows	-8585
▁south	-8586
▁stamm	-8587
▁steel	-8588
ational	-8589
fashion	-8590
perhaps	-8591
▁armies	-8592
▁barrel	-8593
▁carved	-8594
▁colour	-8595
▁cultiv	-8596
▁deemed	-8597
▁hounds	-8598
▁judged	-8599
▁pencil	-8600
▁record	-8601
▁thence	-8602
▁trifle	-8603
iliation	-8604
▁Justine	-8605
▁fancies	-8606
▁gallery	-8607
▁genteel	-8608
▁harmony	-8609
▁haunted	-8610
▁inherit	-8611
▁nowhere	-8612
▁oneself	-8613
▁phrases	-8614
▁policem	-8615
▁presume	-8616
▁renewed	-8617
▁ribbons	-8618
▁smaller	-8619
▁surgeon	-8620
▁Brighton	-8621
▁Mihailov	-8622
▁accommod	-8623
▁curtains	-8624
▁gigantic	-8625
▁hundreds	-8626
▁laborers	-8627
▁pressure	-8628
▁retorted	-8629
▁thirteen	-8630
▁unworthy	-8631
▁visiting	-8632
▁attempted	-8633
▁battalion	-8634
▁displayed	-8635
▁favorable	-8636
▁utterance	-8637
▁Parliament	-8638
▁appreciate	-8639
▁provincial	-8640
▁Romanovitch	-8641
▁exasperated	-8642
▁communicated	-8643
▁dissatisfied	-8644
LE	-8645
VI	-8646
yl	-8647
OOK	-8648
See	-8649
had	-8650
hor	-8651
ips	-8652
lym	-8653
owl	-8654
rep	-8655
ugn	-8656
ums	-8657
▁Er	-8658
Lord	-8659
aste	-8660
iles	-8661
omed	-8662
rine	-8663
stri	-8664
zvon	-8665
▁Lav	-8666
▁ram	-8667
▁tal	-8668
These	-8669
arded	-8670
cular	-8671
ients	-8672
ollen	-8673
▁Four	-8674
▁Life	-8675
▁Plym	-8676
▁Supp	-8677
▁boot	-8678
▁conj	-8679
▁curt	-8680
▁hamm	-8681
▁prey	-8682
▁sore	-8683
▁stab	-8684
▁tick	-8685
▁usur	-8686
itudes	-8687
ugenie	-8688
uteuil	-8689
▁Makar	-8690
▁Siber	-8691
▁State	-8692
▁Stone	-8693
▁anter	-8694
▁await	-8695
▁besee	-8696
▁cheap	-8697
▁fifth	-8698
▁gleam	-8699
▁knelt	-8700
▁mates	-8701
▁schol	-8702
▁slipp	-8703
▁sober	-8704
▁studs	-8705
▁Firkin	-8706
▁Lucien	-8707
▁anchor	-8708
▁bonnet	-8709
▁defeat	-8710
▁errand	-8711
▁frenzy	-8712
▁jewels	-8713
▁obstin	-8714
▁offend	-8715
▁pacing	-8716
▁reckon	-8717
▁refuge	-8718
▁shabby	-8719
▁sullen	-8720
▁swords	-8721
▁verses	-8722
▁wildly	-8723
▁wiping	-8724
▁British	-8725
▁Instead	-8726
▁Rectory	-8727
▁belongs	-8728
▁chances	-8729
▁contact	-8730
▁discont	-8731
▁machine	-8732
▁precise	-8733
▁swiftly	-8734
▁thereby	-8735
▁yielded	-8736
fashioned	-8737
▁Corsican	-8738
▁admiring	-8739
▁aristocr	-8740
▁captured	-8741
▁commands	-8742
▁confined	-8743
▁farthing	-8744
▁flashing	-8745
▁greeting	-8746
▁mournful	-8747
▁piercing	-8748
▁quivered	-8749
▁skeleton	-8750
▁wondrous	-8751
▁Baptistin	-8752
▁adjoining	-8753
▁attendant	-8754
▁committee	-8755
▁encourage	-8756
▁reference	-8757
▁stationed	-8758
▁accomplish	-8759
▁benevolent	-8760
▁characters	-8761
▁convenient	-8762
▁expressive	-8763
▁mentioning	-8764
▁perfection	-8765
▁personages	-8766
▁resistance	-8767
▁throughout	-8768
▁whispering	-8769
▁application	-8770
▁embroidered	-8771
▁humiliating	-8772
▁questioning	-8773
▁recognizing	-8774
▁sentimental	-8775
▁constitution	-8776
▁perspiration	-8777
▁conversations	-8778
Eh	-8779
ano	-8780
odo	-8781
▁Es	-8782
▁Ir	-8783
adov	-8784
elie	-8785
oise	-8786
pers	-8787
▁Pen	-8788
▁ded	-8789
▁rot	-8790
▁tig	-8791
acres	-8792
ikhon	-8793
ishes	-8794
rooms	-8795
ubber	-8796
▁Bare	-8797
▁Tipt	-8798
▁aged	-8799
▁balc	-8800
▁cock	-8801
▁eyel	-8802
▁heap	-8803
▁muff	-8804
▁prim	-8805
▁rays	-8806
▁snug	-8807
▁vile	-8808
advant	-8809
cerity	-8810
▁Laska	-8811
▁Murat	-8812
▁Pfuel	-8813
▁Speak	-8814
▁Stahl	-8815
▁goods	-8816
▁invol	-8817
▁mirth	-8818
▁model	-8819
▁renew	-8820
▁simpl	-8821
▁smugg	-8822
▁wings	-8823
inement	-8824
▁Nikola	-8825
▁dishes	-8826
▁frivol	-8827
▁hammer	-8828
▁harder	-8829
▁rebell	-8830
▁sevent	-8831
▁subord	-8832
cription	-8833
▁Peppino	-8834
▁Siberia	-8835
▁courtes	-8836
▁deepest	-8837
▁enterpr	-8838
▁founded	-8839
▁glimpse	-8840
▁grieved	-8841
▁helping	-8842
▁honored	-8843
▁hostess	-8844
▁marched	-8845
▁schools	-8846
▁shelter	-8847
▁swollen	-8848
▁temples	-8849
▁tempted	-8850
▁tonight	-8851
▁Superior	-8852
▁borrowed	-8853
▁calmness	-8854
▁clasping	-8855
▁clutched	-8856
▁dreaming	-8857
▁fortunes	-8858
▁nobleman	-8859
▁nowadays	-8860
▁ridicule	-8861
▁severity	-8862
▁unreason	-8863
▁Frenchmen	-8864
▁adversary	-8865
▁customary	-8866
▁disappear	-8867
▁momentary	-8868
▁moonlight	-8869
▁noiseless	-8870
▁requested	-8871
▁spectacle	-8872
▁transport	-8873
▁depression	-8874
▁indulgence	-8875
▁insignificant	-8876
vor	-8877
▁Ro	-8878
▁SA	-8879
fold	-8880
gest	-8881
olio	-8882
otin	-8883
unch	-8884
▁Che	-8885
▁Get	-8886
▁Gos	-8887
▁Say	-8888
▁bla	-8889
▁bru	-8890
▁laz	-8891
▁rud	-8892
Avrig	-8893
Still	-8894
adise	-8895
arovo	-8896
ushes	-8897
▁Five	-8898
▁Mark	-8899
▁Ragg	-8900
▁Turk	-8901
▁airs	-8902
▁brew	-8903
▁craw	-8904
▁hare	-8905
▁jaws	-8906
▁owed	-8907
▁salt	-8908
▁tack	-8909
▁tipt	-8910
vering	-8911
▁Bowls	-8912
▁Mason	-8913
▁Spain	-8914
▁abode	-8915
▁banks	-8916
▁brute	-8917
▁engra	-8918
▁grain	-8919
▁irony	-8920
▁kings	-8921
▁lance	-8922
▁penit	-8923
▁stove	-8924
▁tooth	-8925
Avrigny	-8926
because	-8927
gorukov	-8928
ounding	-8929
▁Daniel	-8930
▁Govern	-8931
▁Samson	-8932
▁Tikhon	-8933
▁Tipton	-8934
▁basket	-8935
▁cursed	-8936
▁elders	-8937
▁finest	-8938
▁fixing	-8939
▁prelim	-8940
▁rascal	-8941
▁sleigh	-8942
▁toilet	-8943
▁unseen	-8944
inations	-8945
ountable	-8946
stricken	-8947
ucharovo	-8948
▁Auteuil	-8949
▁Cossack	-8950
▁Eugenie	-8951
▁approve	-8952
▁articul	-8953
▁century	-8954
▁condemn	-8955
▁cousins	-8956
▁disconc	-8957
▁frankly	-8958
▁gardens	-8959
▁hostile	-8960
▁lawyers	-8961
▁mothers	-8962
▁refresh	-8963
▁secured	-8964
▁stooped	-8965
▁vessels	-8966
▁washing	-8967
▁Cardinal	-8968
▁Harville	-8969
▁anteroom	-8970
▁civilian	-8971
▁diplomat	-8972
▁emphasis	-8973
▁inwardly	-8974
▁jeweller	-8975
▁petition	-8976
▁promises	-8977
▁quitting	-8978
▁suspense	-8979
▁virtuous	-8980
▁Presently	-8981
▁comforted	-8982
▁decidedly	-8983
▁delicious	-8984
▁disadvant	-8985
▁Arkadyevna	-8986
▁Dolgorukov	-8987
▁affections	-8988
▁artificial	-8989
▁cheerfully	-8990
▁commanders	-8991
▁prodigious	-8992
▁restrained	-8993
▁accordingly	-8994
▁harpooneers	-8995
▁illustrious	-8996
▁professional	-8997
awn	-8998
ita	-8999
ols	-9000
tem	-9001
▁Ye	-9002
agon	-9003
ands	-9004
esar	-9005
fena	-9006
hall	-9007
iron	-9008
kins	-9009
litz	-9010
ocks	-9011
papa	-9012
▁Fre	-9013
▁Sec	-9014
▁Tem	-9015
▁Tit	-9016
▁enl	-9017
▁gru	-9018
▁hed	-9019
▁jet	-9020
▁nay	-9021
▁nod	-9022
▁wre	-9023
ander	-9024
arged	-9025
eches	-9026
knife	-9027
would	-9028
▁Toll	-9029
▁affl	-9030
▁agon	-9031
▁beef	-9032
▁inco	-9033
▁levi	-9034
▁load	-9035
▁mans	-9036
▁musk	-9037
▁rely	-9038
▁ting	-9039
▁toil	-9040
affold	-9041
idable	-9042
rafena	-9043
▁Black	-9044
▁Felix	-9045
▁Hotel	-9046
▁dimin	-9047
▁flush	-9048
▁funny	-9049
▁innum	-9050
▁spoil	-9051
▁swung	-9052
▁veins	-9053
aration	-9054
▁Auster	-9055
▁Doctor	-9056
▁Mother	-9057
▁clerks	-9058
▁coolly	-9059
▁extrem	-9060
▁inches	-9061
▁mirror	-9062
▁orphan	-9063
▁repugn	-9064
▁tiptoe	-9065
▁volunt	-9066
omething	-9067
oubtedly	-9068
▁Marquis	-9069
▁bandits	-9070
▁conspic	-9071
▁copecks	-9072
▁corrupt	-9073
▁decline	-9074
▁despond	-9075
▁greeted	-9076
▁problem	-9077
▁reduced	-9078
▁remonst	-9079
▁Emmanuel	-9080
▁attained	-9081
▁attorney	-9082
▁capacity	-9083
▁contract	-9084
▁deserved	-9085
▁distrust	-9086
▁glorious	-9087
▁increase	-9088
▁knitting	-9089
▁pondered	-9090
▁spending	-9091
▁steadily	-9092
▁uniforms	-9093
▁wrinkled	-9094
▁Compeyson	-9095
▁agreement	-9096
▁childlike	-9097
▁delirious	-9098
▁enchanted	-9099
▁fantastic	-9100
▁flattered	-9101
▁indignant	-9102
▁innkeeper	-9103
▁monstrous	-9104
▁prolonged	-9105
▁sensitive	-9106
atisfaction	-9107
▁Austerlitz	-9108
▁attraction	-9109
▁endeavored	-9110
▁inevitably	-9111
▁remarkably	-9112
▁separation	-9113
▁surprising	-9114
▁Bogucharovo	-9115
▁anticipated	-9116
▁communicate	-9117
▁exclamation	-9118
▁innumerable	-9119
▁preoccupied	-9120
▁commencement	-9121
▁presentiment	-9122
En	-9123
Her	-9124
Tis	-9125
ems	-9126
eur	-9127
pes	-9128
ril	-9129
roe	-9130
ses	-9131
Does	-9132
Hush	-9133
Some	-9134
Stay	-9135
aved	-9136
mate	-9137
olet	-9138
omer	-9139
otch	-9140
reme	-9141
tego	-9142
▁Rev	-9143
▁gam	-9144
▁nut	-9145
astly	-9146
lfare	-9147
▁Cath	-9148
▁Cons	-9149
▁alas	-9150
▁bisc	-9151
▁copy	-9152
▁east	-9153
▁exal	-9154
▁file	-9155
▁gait	-9156
▁pomp	-9157
▁sate	-9158
▁unch	-9159
urable	-9160
▁Alexe	-9161
▁Water	-9162
▁deeds	-9163
▁eleph	-9164
▁exper	-9165
▁fores	-9166
▁goose	-9167
▁jolly	-9168
▁maids	-9169
▁manly	-9170
▁mirac	-9171
▁prize	-9172
▁spoon	-9173
anthrop	-9174
ossible	-9175
ulating	-9176
writing	-9177
▁Georgy	-9178
▁assent	-9179
▁bestow	-9180
▁biting	-9181
▁branch	-9182
▁halted	-9183
▁insuff	-9184
▁nobles	-9185
▁pitied	-9186
▁resent	-9187
▁ridden	-9188
▁seamen	-9189
▁sobbed	-9190
▁thrice	-9191
▁transl	-9192
▁tumult	-9193
ountered	-9194
▁Raggles	-9195
▁archite	-9196
▁audible	-9197
▁charity	-9198
▁columns	-9199
▁cruelty	-9200
▁doubted	-9201
▁emptied	-9202
▁foresee	-9203
▁justify	-9204
▁pilgrim	-9205
▁pitiful	-9206
▁revived	-9207
▁saluted	-9208
▁upwards	-9209
▁welfare	-9210
▁American	-9211
▁Perezvon	-9212
▁Tashtego	-9213
▁ballroom	-9214
▁coolness	-9215
▁dragging	-9216
▁flinging	-9217
▁included	-9218
▁insolent	-9219
▁misunder	-9220
▁pleasing	-9221
▁replying	-9222
▁scaffold	-9223
▁strained	-9224
▁Bareacres	-9225
▁appearing	-9226
▁consented	-9227
▁dismissed	-9228
▁expensive	-9229
▁nervously	-9230
▁reasoning	-9231
▁springing	-9232
▁temporary	-9233
▁associated	-9234
▁continuing	-9235
▁indicating	-9236
▁presenting	-9237
▁pretending	-9238
▁reflecting	-9239
▁revolution	-9240
▁tremendous	-9241
▁astonishing	-9242
▁encountered	-9243
▁exaggerated	-9244
▁exceptional	-9245
▁superintend	-9246
OM	-9247
Nay	-9248
▁Bu	-9249
▁Ig	-9250
▁ej	-9251
cest	-9252
conf	-9253
llor	-9254
pest	-9255
ravo	-9256
ture	-9257
vich	-9258
vior	-9259
▁Dun	-9260
▁Mok	-9261
▁Ric	-9262
▁Wil	-9263
▁dow	-9264
▁fed	-9265
▁rug	-9266
▁scy	-9267
▁spy	-9268
ammed	-9269
ishly	-9270
riety	-9271
▁Half	-9272
▁Wait	-9273
▁calf	-9274
▁feed	-9275
▁trad	-9276
▁unce	-9277
▁unto	-9278
aneous	-9279
iation	-9280
ptuous	-9281
urious	-9282
▁Hence	-9283
▁accus	-9284
▁adore	-9285
▁aloft	-9286
▁birch	-9287
▁calam	-9288
▁disci	-9289
▁entry	-9290
▁equip	-9291
▁posts	-9292
▁sails	-9293
▁salon	-9294
▁samov	-9295
▁sends	-9296
▁steal	-9297
▁sugar	-9298
▁swarm	-9299
▁towns	-9300
▁waked	-9301
habited	-9302
▁Should	-9303
▁adding	-9304
▁damned	-9305
▁dissip	-9306
▁fulfil	-9307
▁grieve	-9308
▁guided	-9309
▁ladder	-9310
▁lodged	-9311
▁merits	-9312
▁pledge	-9313
▁proofs	-9314
▁reveal	-9315
▁ribbon	-9316
▁sickly	-9317
▁solely	-9318
▁spared	-9319
▁tasted	-9320
▁unfold	-9321
ological	-9322
▁Neither	-9323
▁bedside	-9324
▁carries	-9325
▁caution	-9326
▁chanced	-9327
▁envelop	-9328
▁extingu	-9329
▁failure	-9330
▁faintly	-9331
▁furnish	-9332
▁opposed	-9333
▁picking	-9334
▁railway	-9335
▁refrain	-9336
▁shortly	-9337
▁variety	-9338
▁Samsonov	-9339
▁Whatever	-9340
▁afforded	-9341
▁attempts	-9342
▁convince	-9343
▁cupboard	-9344
▁ornament	-9345
▁peaceful	-9346
▁projects	-9347
▁relating	-9348
▁renounce	-9349
▁spiteful	-9350
▁studying	-9351
▁discussed	-9352
▁distorted	-9353
▁excessive	-9354
▁fishermen	-9355
▁hereafter	-9356
▁offensive	-9357
▁prospects	-9358
▁regularly	-9359
▁shivering	-9360
▁increasing	-9361
▁triumphant	-9362
▁comfortably	-9363
▁hospitality	-9364
▁disconcerted	-9365
▁surroundings	-9366
Ar	-9367
CE	-9368
hl	-9369
zz	-9370
aet	-9371
ann	-9372
elk	-9373
lax	-9374
opo	-9375
rer	-9376
▁eg	-9377
!"--	-9378
butt	-9379
evil	-9380
gone	-9381
illa	-9382
inks	-9383
shot	-9384
▁AND	-9385
▁Ant	-9386
▁Koz	-9387
▁ray	-9388
cting	-9389
ilful	-9390
istry	-9391
olate	-9392
rifon	-9393
rophe	-9394
three	-9395
▁Club	-9396
▁Does	-9397
▁Earl	-9398
▁Serp	-9399
▁Varv	-9400
▁alle	-9401
▁asks	-9402
▁capr	-9403
▁evin	-9404
▁foul	-9405
▁leaf	-9406
▁ment	-9407
▁pert	-9408
▁pite	-9409
▁tour	-9410
▁vote	-9411
▁whim	-9412
▁whir	-9413
encies	-9414
ousing	-9415
rushka	-9416
utable	-9417
▁March	-9418
▁avail	-9419
▁backs	-9420
▁chape	-9421
▁couch	-9422
▁etern	-9423
▁everl	-9424
▁nasty	-9425
▁negot	-9426
▁owned	-9427
▁reins	-9428
▁sauce	-9429
▁scrap	-9430
▁sting	-9431
▁trunk	-9432
▁wages	-9433
▁walks	-9434
▁winds	-9435
▁woods	-9436
▁wrist	-9437
oration	-9438
▁Mokroe	-9439
▁Naples	-9440
▁bandit	-9441
▁clumsy	-9442
▁denied	-9443
▁impert	-9444
▁impuls	-9445
▁judges	-9446
▁lovers	-9447
▁passes	-9448
▁patter	-9449
▁ragged	-9450
▁shrank	-9451
▁shrill	-9452
▁states	-9453
▁sympat	-9454
▁tastes	-9455
▁valley	-9456
enedetto	-9457
▁Germans	-9458
▁animals	-9459
▁clothed	-9460
▁conspir	-9461
▁enlight	-9462
▁gateway	-9463
▁jumping	-9464
▁merrily	-9465
▁modesty	-9466
▁payment	-9467
▁puzzled	-9468
▁rapture	-9469
▁results	-9470
▁superfl	-9471
▁unlucky	-9472
▁upright	-9473
▁winning	-9474
armeladov	-9475
pressible	-9476
▁Agrafena	-9477
▁Ladyship	-9478
▁behavior	-9479
▁bursting	-9480
▁critical	-9481
▁doubtful	-9482
▁dwelling	-9483
▁firmness	-9484
▁infamous	-9485
▁overtook	-9486
▁Therefore	-9487
▁fearfully	-9488
▁ingenious	-9489
▁intensely	-9490
▁narrative	-9491
▁policeman	-9492
▁resources	-9493
▁sincerity	-9494
▁suspended	-9495
▁Alexeevich	-9496
▁Lieutenant	-9497
▁Semyonovna	-9498
▁attentions	-9499
▁flattering	-9500
▁honourable	-9501
▁development	-9502
▁perceptible	-9503
▁picturesque	-9504
▁contemptuous	-9505
▁enthusiastic	-9506
▁headquarters	-9507
▁Shtcherbatskys	-9508
▁considerations	-9509
oa	-9510
Mar	-9511
ata	-9512
▁Ha	-9513
▁Ry	-9514
dale	-9515
fall	-9516
gels	-9517
imon	-9518
irst	-9519
lick	-9520
ouch	-9521
pton	-9522
ucum	-9523
umps	-9524
▁Cor	-9525
▁Sar	-9526
▁aye	-9527
▁cad	-9528
▁cul	-9529
▁gla	-9530
▁hei	-9531
▁mob	-9532
anter	-9533
guard	-9534
itute	-9535
rison	-9536
sters	-9537
still	-9538
umpet	-9539
ursed	-9540
▁Dodo	-9541
▁July	-9542
▁acts	-9543
▁beck	-9544
▁chur	-9545
▁icon	-9546
▁lung	-9547
▁mock	-9548
▁nigh	-9549
▁sadd	-9550
aetano	-9551
elkilt	-9552
giving	-9553
handed	-9554
herkov	-9555
ouched	-9556
perors	-9557
rament	-9558
retion	-9559
rouble	-9560
▁Champ	-9561
▁Dutch	-9562
▁Ignat	-9563
▁Ilyin	-9564
▁brick	-9565
▁canal	-9566
▁dwelt	-9567
▁estim	-9568
▁fling	-9569
▁fragr	-9570
▁hears	-9571
▁pages	-9572
▁physi	-9573
▁range	-9574
▁shots	-9575
▁teleg	-9576
▁tread	-9577
Besides	-9578
aternal	-9579
▁Almost	-9580
▁Jacopo	-9581
▁ashore	-9582
▁courte	-9583
▁defect	-9584
▁drawer	-9585
▁gaiety	-9586
▁imprud	-9587
▁indisc	-9588
▁mowing	-9589
▁precip	-9590
▁refres	-9591
▁suited	-9592
▁traged	-9593
▁Karenin	-9594
▁Polenka	-9595
▁balcony	-9596
▁bidding	-9597
▁blubber	-9598
▁buffoon	-9599
▁charmed	-9600
▁comment	-9601
▁consist	-9602
▁endless	-9603
▁numbers	-9604
▁release	-9605
▁sailing	-9606
▁tempest	-9607
▁vehicle	-9608
astically	-9609
▁Horrocks	-9610
▁Parisian	-9611
▁absolute	-9612
▁courtesy	-9613
▁disappro	-9614
▁document	-9615
▁imprison	-9616
▁retained	-9617
▁speeches	-9618
▁standard	-9619
▁worrying	-9620
▁Certainly	-9621
▁Everybody	-9622
▁affecting	-9623
▁conceived	-9624
▁fragments	-9625
▁intrigues	-9626
▁loathsome	-9627
▁promotion	-9628
▁purposely	-9629
▁schoolboy	-9630
▁whiteness	-9631
▁Marmeladov	-9632
▁commanding	-9633
▁confounded	-9634
▁department	-9635
▁entreaties	-9636
▁gentleness	-9637
▁prosperity	-9638
▁spectators	-9639
▁temptation	-9640
▁aristocratic	-9641
▁considerably	-9642
▁entertainment	-9643
AS	-9644
AT	-9645
Le	-9646
Mrs	-9647
aus	-9648
gic	-9649
ima	-9650
oof	-9651
pri	-9652
▁Ty	-9653
emly	-9654
iche	-9655
idor	-9656
ihil	-9657
racy	-9658
rawn	-9659
skoy	-9660
take	-9661
usan	-9662
vina	-9663
▁Haw	-9664
▁Off	-9665
▁Rom	-9666
▁Ven	-9667
▁agg	-9668
▁fox	-9669
▁net	-9670
▁pip	-9671
▁tar	-9672
After	-9673
agers	-9674
bourg	-9675
irgin	-9676
oking	-9677
▁BOOK	-9678
▁Gard	-9679
▁Hugo	-9680
▁Mond	-9681
▁belt	-9682
▁boud	-9683
▁ejac	-9684
▁grud	-9685
▁gyps	-9686
▁isol	-9687
▁nest	-9688
▁noon	-9689
▁pine	-9690
▁vind	-9691
▁zeal	-9692
bation	-9693
orting	-9694
urning	-9695
ustice	-9696
▁Cross	-9697
▁Tcher	-9698
▁Wales	-9699
▁afore	-9700
▁alien	-9701
▁curls	-9702
▁honey	-9703
▁lunch	-9704
▁route	-9705
▁rules	-9706
▁snipe	-9707
▁tales	-9708
Forgive	-9709
riental	-9710
▁Bridge	-9711
▁Provis	-9712
▁Temple	-9713
▁catast	-9714
▁chapel	-9715
▁crimes	-9716
▁excite	-9717
▁flames	-9718
▁formal	-9719
▁images	-9720
▁injury	-9721
▁lament	-9722
▁leaped	-9723
▁plough	-9724
▁purity	-9725
▁remedy	-9726
▁repast	-9727
▁resume	-9728
▁retain	-9729
▁safely	-9730
▁senior	-9731
▁sleepy	-9732
▁transa	-9733
▁trunks	-9734
amations	-9735
▁apprent	-9736
▁bastion	-9737
▁boudoir	-9738
▁endured	-9739
▁exalted	-9740
▁gleamed	-9741
▁handful	-9742
▁judging	-9743
▁naughty	-9744
▁panting	-9745
▁praised	-9746
▁rejoice	-9747
▁samovar	-9748
▁tightly	-9749
▁traitor	-9750
▁trifles	-9751
▁vicomte	-9752
▁Emperors	-9753
▁aversion	-9754
▁chestnut	-9755
▁cottages	-9756
▁disguise	-9757
▁humility	-9758
▁husbands	-9759
▁imperial	-9760
▁kneeling	-9761
▁marching	-9762
▁meetings	-9763
▁overlook	-9764
▁politely	-9765
▁pursuing	-9766
▁resigned	-9767
▁strictly	-9768
▁tranquil	-9769
▁whaleman	-9770
▁wrinkles	-9771
▁desirable	-9772
▁fulfilled	-9773
▁injustice	-9774
▁newspaper	-9775
▁operation	-9776
▁precision	-9777
▁prevailed	-9778
▁referring	-9779
▁repulsion	-9780
▁sacrament	-9781
▁sarcastic	-9782
▁seventeen	-9783
▁signature	-9784
▁twitching	-9785
▁whistling	-9786
▁deliberate	-9787
▁diplomatic	-9788
▁reconciled	-9789
▁suggestion	-9790
▁uncommonly	-9791
▁handwriting	-9792
▁troublesome	-9793
▁independence	-9794
fo	-9795
gn	-9796
uv	-9797
yn	-9798
VII	-9799
nya	-9800
oli	-9801
rup	-9802
tes	-9803
usk	-9804
zes	-9805
▁Hu	-9806
▁Sk	-9807
Hold	-9808
arts	-9809
door	-9810
part	-9811
tree	-9812
udge	-9813
uhov	-9814
vest	-9815
▁Duc	-9816
▁Wen	-9817
▁Wey	-9818
▁alb	-9819
▁dug	-9820
▁fel	-9821
▁gor	-9822
▁haz	-9823
▁maz	-9824
▁pas	-9825
▁tub	-9826
▁vap	-9827
bably	-9828
ellow	-9829
horse	-9830
imous	-9831
itals	-9832
pence	-9833
roves	-9834
shire	-9835
think	-9836
▁Cast	-9837
▁Fort	-9838
▁Jack	-9839
▁Nove	-9840
▁bulw	-9841
▁doll	-9842
▁fare	-9843
▁forb	-9844
▁fuss	-9845
▁gend	-9846
▁lust	-9847
▁soil	-9848
▁sque	-9849
▁type	-9850
▁yawn	-9851
Thanks	-9852
erempt	-9853
icking	-9854
orvina	-9855
▁Stiva	-9856
▁Trabb	-9857
▁assid	-9858
▁boast	-9859
▁brass	-9860
▁citiz	-9861
▁crept	-9862
▁dense	-9863
▁hedge	-9864
▁insen	-9865
▁joint	-9866
▁knoll	-9867
▁liver	-9868
▁mould	-9869
▁needn	-9870
▁north	-9871
▁oppon	-9872
▁pound	-9873
▁quilt	-9874
▁relax	-9875
▁shalt	-9876
▁slack	-9877
▁tutor	-9878
idelity	-9879
irectly	-9880
▁Caesar	-9881
▁Davout	-9882
▁Surely	-9883
▁Trifon	-9884
▁abomin	-9885
▁ancest	-9886
▁barbar	-9887
▁bearer	-9888
▁brutal	-9889
▁bullet	-9890
▁cheese	-9891
▁crowds	-9892
▁filthy	-9893
▁luxury	-9894
▁medium	-9895
▁parlor	-9896
▁parson	-9897
▁peeped	-9898
▁raptur	-9899
▁series	-9900
Nonsense	-9901
bilities	-9902
▁Gaetano	-9903
▁balance	-9904
▁buttons	-9905
▁derived	-9906
▁fainted	-9907
▁footing	-9908
▁ghastly	-9909
▁handing	-9910
▁mansion	-9911
▁partial	-9912
▁patriot	-9913
▁perempt	-9914
▁proudly	-9915
▁signify	-9916
▁supreme	-9917
▁usurper	-9918
▁whistle	-9919
▁Karenina	-9920
▁Minister	-9921
▁November	-9922
▁Plymdale	-9923
▁avoiding	-9924
▁bankrupt	-9925
▁chambers	-9926
▁coldness	-9927
▁decisive	-9928
▁endeavor	-9929
▁flushing	-9930
▁lifeless	-9931
▁majority	-9932
▁restless	-9933
▁squeezed	-9934
▁stirring	-9935
▁	-9936
e	-9937
t	-9938
a	-9939
o	-9940
n	-9941
i	-9942
h	-9943
s	-9944
r	-9945
d	-9946
l	-9947
u	-9948
m	-9949
c	-9950
w	-9951
f	-9952
y	-9953
g	-9954
,	-9955
p	-9956
b	-9957
.	-9958
v	-9959
"	-9960
k	-9961
I	-9962
'	-9963
-	-9964
A	-9965
T	-9966
M	-9967
;	-9968
H	-9969
?	-9970
x	-9971
S	-9972
!	-9973
B	-9974
W	-9975
P	-9976
C	-9977
q	-9978
D	-9979
j	-9980
N	-9981
L	-9982
R	-9983
Y	-9984
F	-9985
O	-9986
z	-9987
E	-9988
G	-9989
V	-9990
:	-9991
K	-9992
J	-9993
0	-9994
